32032 4
, 4
. 5
the 6
" 7
in 8
to 9
die 10
and 11
of 12
der 13
und 14
a 15
zu 16
von 17
's 18
that 19
den 20
is 21
for 22
on 23
: 24
an 25
ist 26
was 27
es 28
das 29
dass 30
- 31
The 32
mit 33
auf 34
für 35
sie 36
with 37
er 38
eine 39
it 40
ein 41
as 42
sich 43
I 44
des 45
als 46
nicht 47
im 48
um 49
at 50
said 51
be 52
) 53
( 54
dem 55
have 56
are 57
Die 58
sagte 59
he 60
by 61
from 62
has 63
hat 64
am 65
' 66
haben 67
his 68
war 69
Sie 70
einen 71
einer 72
will 73
not 74
ich 75
wie 76
einem 77
werden 78
so 79
this 80
wird 81
sind 82
aus 83
they 84
or 85
we 86
wurde 87
wir 88
who 89
their 90
-@@ 91
but 92
you 93
über 94
nach 95
had 96
't 97
aber 98
been 99
In 100
bei 101
Es 102
sein 103
auch 104
? 105
her 106
were 107
Ich 108
more 109
also 110
oder 111
Der 112
It 113
all 114
which 115
one 116
about 117
can 118
out 119
up 120
Das 121
people 122
vor 123
Trump 124
she 125
would 126
man 127
un@@ 128
after 129
its 130
habe 131
ihre 132
s 133
wenn 134
Menschen 135
ver@@ 136
when 137
time 138
re@@ 139
i 140
than 141
mehr 142
hatte 143
an@@ 144
He 145
seine 146
er@@ 147
there 148
A 149
our 150
We 151
over 152
nur 153
S@@ 154
Er 155
en@@ 156
Wir 157
But 158
into 159
zum 160
% 161
wurden 162
können 163
in@@ 164
/ 165
like 166
just 167
what 168
noch 169
gegen 170
first 171
year 172
ten 173
new 174
bis 175
do 176
während 177
o 178
t@@ 179
A@@ 180
k@@ 181
sei 182
them 183
K@@ 184
T@@ 185
zur 186
if 187
other 188
two 189
could 190
; 191
d@@ 192
my 193
durch 194
kann 195
B@@ 196
s@@ 197
some 198
ab@@ 199
diese 200
P@@ 201
te 202
G@@ 203
D@@ 204
me 205
no 206
ing 207
en 208
last 209
ge@@ 210
$ 211
M@@ 212
now 213
N@@ 214
him 215
Jahr 216
L@@ 217
back 218
y 219
E@@ 220
New 221
F@@ 222
t 223
b@@ 224
C@@ 225
eines 226
years 227
uns 228
gibt 229
da 230
get 231
ed 232
us 233
g@@ 234
f@@ 235
1 236
W@@ 237
waren 238
ers 239
p@@ 240
alle 241
be@@ 242
ein@@ 243
m@@ 244
dieser 245
R@@ 246
keine 247
würde 248
seiner 249
aus@@ 250
zwei 251
immer 252
only 253
H@@ 254
e 255
being 256
how 257
before 258
This 259
because 260
Aber 261
o@@ 262
way 263
y@@ 264
de 265
nachdem 266
al@@ 267
e@@ 268
your 269
2 270
z@@ 271
end 272
! 273
most 274
ch@@ 275
ation 276
told 277
where 278
ihr 279
unter 280
st@@ 281
mich 282
're 283
ung 284
10 285
O@@ 286
government 287
Jahren 288
off 289
n@@ 290
And 291
any 292
day 293
ter 294
many 295
diesem 296
ar@@ 297
says 298
sagt 299
l@@ 300
ihren 301
Zeit 302
Ein 303
made 304
könnte 305
going 306
h@@ 307
Und 308
down 309
while 310
well 311
make 312
very 313
those 314
against 315
ihn 316
work 317
sehr 318
able 319
ihrer 320
Ver@@ 321
wieder 322
el@@ 323
... 324
c@@ 325
don 326
al 327
2020 328
sehen 329
andere 330
auf@@ 331
through 332
They 333
m 334
then 335
w@@ 336
weil 337
during 338
An@@ 339
Dollar 340
home 341
even 342
de@@ 343
go 344
seinen 345
China 346
Wenn 347
Regierung 348
week 349
i@@ 350
seit 351
viele 352
3 353
country 354
machen 355
anderen 356
ate 357
think 358
viel 359
still 360
2019 361
vom 362
u@@ 363
ts 364
ent@@ 365
three 366
gehen 367
Ab@@ 368
take 369
ische 370
should 371
V@@ 372
k 373
Frau 374
müssen 375
per 376
ar 377
5 378
20 379
She 380
see 381
world 382
4 383
Jahre 384
drei 385
around 386
I@@ 387
much 388
on@@ 389
these 390
such 391
Woche 392
ins 393
sch@@ 394
ersten 395
J@@ 396
darauf 397
r@@ 398
know 399
There 400
did 401
state 402
Unternehmen 403
] 404
since 405
[ 406
've 407
ro@@ 408
es@@ 409
u 410
ischen 411
ab 412
men 413
including 414
le 415
need 416
Mr 417
dann 418
Millionen 419
coronavirus 420
ie 421
tun 422
ungen 423
million 424
vergangenen 425
sagen 426
v@@ 427
di@@ 428
einige 429
a@@ 430
ern 431
etwas 432
Re@@ 433
worden 434
zwischen 435
say 436
mir 437
is@@ 438
Z@@ 439
um@@ 440
between 441
want 442
at@@ 443
werde 444
dis@@ 445
may 446
3@@ 447
bin 448
g 449
ri@@ 450
am@@ 451
Sch@@ 452
That 453
30 454
seinem 455
kommen 456
good 457
zu@@ 458
York 459
sp@@ 460
über@@ 461
US 462
gab 463
United 464
or@@ 465
wegen 466
du 467
ated 468
th@@ 469
Be@@ 470
2018 471
'm 472
Herr 473
it@@ 474
n 475
p 476
If 477
& 478
under 479
hatten 480
denen 481
6 482
neue 483
public 484
gen 485
le@@ 486
team 487
part 488
li@@ 489
Leben 490
health 491
einfach 492
wirklich 493
j@@ 494
set 495
In@@ 496
really 497
Land 498
right 499
dieses 500
as@@ 501
Biden 502
ungs@@ 503
Prozent 504
ob 505
Tag 506
damit 507
next 508
So 509
jetzt 510
help 511
life 512
family 513
Im 514
come 515
police 516
Al@@ 517
4@@ 518
son 519
Welt 520
e-@@ 521
U.S. 522
d 523
Eine 524
You 525
geht 526
ti@@ 527
Aus@@ 528
Vor@@ 529
As 530
own 531
gut 532
days 533
same 534
ag@@ 535
President 536
ge 537
7 538
too 539
got 540
game 541
another 542
Mar@@ 543
Präsident 544
U@@ 545
use 546
ur@@ 547
unsere 548
letzten 549
ch 550
both 551
ad@@ 552
found 553
added 554
UK 555
place 556
company 557
ihm 558
-- 559
vor@@ 560
London 561
15 562
Als 563
Johnson 564
wo 565
Er@@ 566
US-@@ 567
hinzu 568
geben 569
sten 570
fast 571
muss 572
dazu 573
dies 574
enden 575
long 576
USA 577
se 578
show 579
'@@ 580
ting 581
season 582
neuen 583
support 584
8 585
12 586
* 587
l 588
ihnen 589
b 590
se@@ 591
age 592
Ende 593
ohne 594
COVID-19 595
former 596
würden 597
Ein@@ 598
ihrem 599
number 600
Un@@ 601
ly 602
Mr. 603
second 604
Doch 605
used 606
president 607
ant 608
bo@@ 609
Teil 610
St@@ 611
co@@ 612
put 613
nie 614
19@@ 615
bevor 616
best 617
Ro@@ 618
könnten 619
ha@@ 620
2017 621
ck@@ 622
four 623
2016 624
ging 625
alles 626
cases 627
bekommen 628
Spiel 629
according 630
ating 631
Le@@ 632
5@@ 633
ende 634
gemacht 635
Y@@ 636
isch 637
American 638
liche 639
left 640
never 641
chen 642
less 643
davon 644
sollte 645
Uhr 646
9 647
50 648
ine 649
system 650
City 651
away 652
vier 653
6@@ 654
iert 655
-S@@ 656
heute 657
April 658
ale 659
ens 660
ieren 661
fügte 662
across 663
seien 664
bringen 665
month 666
House 667
weiter 668
England 669
Mann 670
every 671
Art 672
children 673
lot 674
diesen 675
ter@@ 676
months 677
Co@@ 678
called 679
When 680
women 681
University 682
here 683
im@@ 684
De@@ 685
der@@ 686
op@@ 687
selbst 688
te@@ 689
h 690
Washington 691
For 692
meine 693
case 694
pandemic 695
News 696
John 697
ton 698
social 699
deal 700
erste 701
ted 702
ler 703
ger@@ 704
Familie 705
zurück 706
Polizei 707
without 708
z 709
etwa 710
group 711
con@@ 712
Kinder 713
7@@ 714
side 715
On 716
Donald 717
ac@@ 718
ul@@ 719
sh@@ 720
lo@@ 721
led 722
play 723
won 724
ger 725
seen 726
2@@ 727
11 728
South 729
halten 730
win 731
beim 732
lassen 733
ste 734
wäre 735
came 736
few 737
O 738
Coronavirus 739
things 740
didn 741
something 742
unter@@ 743
night 744
November 745
One 746
ere 747
S 748
later 749
em@@ 750
si@@ 751
Diese 752
already 753
top 754
look 755
Frauen 756
city 757
lich 758
s-@@ 759
dafür 760
each 761
ak@@ 762
might 763
pro@@ 764
8@@ 765
to@@ 766
took 767
wollen 768
ia 769
September 770
th 771
hier 772
denke 773
f 774
st 775
National 776
Geschichte 777
darunter 778
ap@@ 779
kam 780
Ar@@ 781
et@@ 782
Con@@ 783
ent 784
Stadt 785
again 786
el 787
working 788
ans 789
ra@@ 790
lichen 791
Arbeit 792
ings 793
po@@ 794
Mo@@ 795
until 796
change 797
five 798
C 799
land 800
Haus 801
100 802
media 803
start 804
big 805
ic 806
ne 807
ne@@ 808
14 809
pre@@ 810
darüber 811
au@@ 812
Ihre 813
ke 814
ds 815
better 816
indem 817
cent 818
ol@@ 819
far 820
beiden 821
different 822
os 823
us@@ 824
ei@@ 825
25 826
high 827
sollten 828
party 829
sen 830
kein 831
making 832
bereits 833
große 834
ischer 835
point 836
Mal 837
EU 838
little 839
tr@@ 840
Mc@@ 841
Friday 842
always 843
weniger 844
care 845
early 846
face 847
18 848
weitere 849
went 850
statement 851
League 852
report 853
Monday 854
political 855
line 856
virus 857
ley 858
fünf 859
reported 860
helfen 861
ten@@ 862
x 863
past 864
Was 865
a-@@ 866
gen@@ 867
ho@@ 868
having 869
40 870
Ge@@ 871
business 872
weeks 873
ber@@ 874
daran 875
mo@@ 876
ations 877
May 878
David 879
tes 880
Fall 881
Wie 882
Brexit 883
9@@ 884
August 885
Ch@@ 886
soll 887
gesagt 888
election 889
Quelle 890
bleiben 891
online 892
Großbritannien 893
'll 894
Twitter 895
t-@@ 896
Getty 897
meisten 898
Auch 899
Minister 900
ierte 901
local 902
What 903
spielen 904
campaign 905
Tuesday 906
Spieler 907
qu@@ 908
kommt 909
ir@@ 910
times 911
Weg 912
great 913
Hause 914
nun 915
Am 916
-year-old 917
money 918
keep 919
Wochen 920
T 921
großen 922
due 923
half 924
State 925
ing@@ 926
Während 927
il@@ 928
Sunday 929
Team 930
World 931
stehen 932
sk@@ 933
ons 934
arbeiten 935
officials 936
does 937
y-@@ 938
school 939
wissen 940
den@@ 941
he@@ 942
least 943
must 944
bekannt 945
stand 946
At 947
whether 948
death 949
16 950
et 951
Sh@@ 952
Dinge 953
West 954
w 955
Dr. 956
hätten 957
ken 958
feel 959
taken 960
Staaten 961
live 962
asked 963
Saison 964
find 965
today 966
später 967
13 968
est 969
erhalten 970
Car@@ 971
red 972
thing 973
ago 974
ys 975
market 976
saying 977
.@@ 978
ies 979
ty 980
run 981
obwohl 982
ä@@ 983
r 984
ve 985
Bar@@ 986
c 987
news 988
ever 989
head 990
law 991
pro 992
per@@ 993
macht 994
par@@ 995
Wednesday 996
sicher 997
Thursday 998
become 999
comes 1000
important 1001
likely 1002
among 1003
ding 1004
man@@ 1005
doing 1006
om@@ 1007
E 1008
hätte 1009
do@@ 1010
teilte 1011
we@@ 1012
person 1013
Bo@@ 1014
power 1015
finden 1016
players 1017
zurück@@ 1018
court 1019
x@@ 1020
em 1021
Se@@ 1022
Monat 1023
plan 1024
countries 1025
hit 1026
Par@@ 1027
ster 1028
bar 1029
wrote 1030
ert 1031
members 1032
move 1033
les 1034
give 1035
ange@@ 1036
17 1037
March 1038
sa@@ 1039
vielleicht 1040
19 1041
ors 1042
national 1043
ze 1044
fall 1045
Man 1046
six 1047
P 1048
ic@@ 1049
24 1050
together 1051
allem 1052
Mon@@ 1053
ex@@ 1054
Nach 1055
taking 1056
done 1057
James 1058
konnte 1059
1@@ 1060
Auf@@ 1061
Mitarbeiter 1062
all@@ 1063
Joe 1064
nächsten 1065
recent 1066
why 1067
Unterstützung 1068
'd 1069
rund 1070
Covid-19 1071
gesehen 1072
zusammen 1073
ous 1074
Los 1075
announced 1076
fen 1077
Virus 1078
ates 1079
North 1080
erklärte 1081
ie@@ 1082
risk 1083
R 1084
ganz 1085
ierten 1086
enough 1087
so@@ 1088
d-@@ 1089
given 1090
schrieb 1091
young 1092
eren 1093
ig@@ 1094
States 1095
ben 1096
gegenüber 1097
open 1098
close 1099
Facebook 1100
jedoch 1101
though 1102
eigenen 1103
stellen 1104
ally 1105
decision 1106
However 1107
jeder 1108
keinen 1109
Pro@@ 1110
Iran 1111
gebracht 1112
BBC 1113
Sp@@ 1114
After 1115
data 1116
fer@@ 1117
over@@ 1118
British 1119
Michael 1120
No 1121
– 1122
her@@ 1123
love 1124
getting 1125
ü@@ 1126
future 1127
mon@@ 1128
ou@@ 1129
ige 1130
ad 1131
expected 1132
White 1133
Credit 1134
Montag 1135
old 1136
nehmen 1137
Reihe 1138
Gruppe 1139
continue 1140
Vereinigten 1141
All 1142
coming 1143
Platz 1144
using 1145
ck 1146
house 1147
sechs 1148
percent 1149
hard 1150
several 1151
woman 1152
März 1153
D 1154
zeigen 1155
Leute 1156
workers 1157
points 1158
Anfang 1159
weiß 1160
looking 1161
security 1162
With 1163
based 1164
Dies 1165
res 1166
steht 1167
hin 1168
clear 1169
Har@@ 1170
B 1171
staff 1172
following 1173
ganzen 1174
Tage 1175
licher 1176
started 1177
Präsidenten 1178
food 1179
known 1180
minister 1181
führen 1182
Saturday 1183
Angeles 1184
others 1185
free 1186
ner 1187
Weise 1188
nen 1189
ity 1190
Street 1191
up@@ 1192
ik@@ 1193
ut@@ 1194
field 1195
nichts 1196
video 1197
21 1198
under@@ 1199
gewesen 1200
America 1201
While 1202
Herrn 1203
ker 1204
yet 1205
war@@ 1206
lange 1207
mis@@ 1208
Freitag 1209
Ex@@ 1210
hours 1211
information 1212
wahrscheinlich 1213
water 1214
mer@@ 1215
TV 1216
died 1217
Health 1218
Geld 1219
Di@@ 1220
To 1221
possible 1222
community 1223
series 1224
Für 1225
job 1226
hin@@ 1227
billion 1228
call 1229
order 1230
Entscheidung 1231
ru@@ 1232
ach@@ 1233
often 1234
trying 1235
paar 1236
pe@@ 1237
Dienstag 1238
Milliarden 1239
ung@@ 1240
2015 1241
allen 1242
erin 1243
Erklärung 1244
versuchen 1245
Wahl 1246
rate 1247
sc@@ 1248
jeden 1249
tions 1250
further 1251
gel@@ 1252
oft 1253
once 1254
thought 1255
weit 1256
unserer 1257
innerhalb 1258
schnell 1259
real 1260
Times 1261
companies 1262
Zahl 1263
elle 1264
small 1265
bl@@ 1266
An 1267
br@@ 1268
durch@@ 1269
stellte 1270
County 1271
Lo@@ 1272
Frage 1273
lost 1274
positive 1275
third 1276
Instagram 1277
su@@ 1278
doesn 1279
final 1280
late 1281
ber 1282
Pandemie 1283
Donnerstag 1284
sen@@ 1285
liegt 1286
ier@@ 1287
go@@ 1288
En@@ 1289
Mittwoch 1290
Kon@@ 1291
mein 1292
seines 1293
ser@@ 1294
er-@@ 1295
economic 1296
lead 1297
India 1298
M 1299
sowie 1300
ters 1301
Über@@ 1302
let 1303
ell 1304
mar@@ 1305
star 1306
behind 1307
sondern 1308
Seite 1309
pay 1310
ks 1311
X@@ 1312
games 1313
en-@@ 1314
return 1315
outside 1316
igen 1317
within 1318
held 1319
ance 1320
ise 1321
est@@ 1322
F 1323
crisis 1324
Partei 1325
area 1326
low 1327
Police 1328
Fälle 1329
global 1330
ran@@ 1331
San 1332
ier 1333
22 1334
major 1335
Jahres 1336
states 1337
Mutter 1338
bedeutet 1339
N 1340
George 1341
la@@ 1342
Park 1343
Auf 1344
bu@@ 1345
bit 1346
earlier 1347
tigen 1348
Ne@@ 1349
ses 1350
einmal 1351
eln 1352
test 1353
ish 1354
av@@ 1355
level 1356
full 1357
id 1358
Po@@ 1359
ff@@ 1360
wanted 1361
Boris 1362
ey 1363
com@@ 1364
inter@@ 1365
ö@@ 1366
Mit 1367
ien 1368
key 1369
Unter@@ 1370
His 1371
bi@@ 1372
office 1373
Bericht 1374
alen 1375
Department 1376
course 1377
ma@@ 1378
Fans 1379
June 1380
AP 1381
no@@ 1382
service 1383
ig 1384
Su@@ 1385
vote 1386
und@@ 1387
stop 1388
Black 1389
almost 1390
action 1391
zweiten 1392
ft 1393
process 1394
Man@@ 1395
services 1396
My 1397
try 1398
international 1399
European 1400
Ihr 1401
economy 1402
tern 1403
len 1404
warum 1405
Reuters 1406
study 1407
Qu@@ 1408
af@@ 1409
Me@@ 1410
pl@@ 1411
tige 1412
along 1413
gu@@ 1414
sure 1415
played 1416
history 1417
vi@@ 1418
lockdown 1419
Wahl@@ 1420
gerade 1421
body 1422
besten 1423
believe 1424
saw 1425
v 1426
kind 1427
-K@@ 1428
Show 1429
ded 1430
besser 1431
L 1432
fire 1433
fest 1434
me@@ 1435
ary 1436
film 1437
versch@@ 1438
60 1439
Bank 1440
Stunden 1441
club 1442
tet 1443
and@@ 1444
Ho@@ 1445
bereit 1446
leben 1447
ry 1448
cht 1449
hand 1450
ina 1451
Gu@@ 1452
Sonntag 1453
erte 1454
1.@@ 1455
los 1456
cken 1457
ges@@ 1458
18@@ 1459
Ma@@ 1460
forward 1461
ender 1462
room 1463
Court 1464
gesch@@ 1465
-T@@ 1466
Australia 1467
Patienten 1468
ph@@ 1469
chief 1470
Her@@ 1471
hinter 1472
for@@ 1473
ot@@ 1474
ist@@ 1475
plans 1476
Some 1477
sogar 1478
El@@ 1479
front 1480
schwer 1481
Juni 1482
gegeben 1483
zen 1484
lang 1485
car 1486
lives 1487
ati@@ 1488
zuvor 1489
means 1490
Bei 1491
ausge@@ 1492
control 1493
500 1494
Manchester 1495
gl@@ 1496
ling 1497
fans 1498
ver 1499
genug 1500
To@@ 1501
ziehen 1502
ball 1503
story 1504
California 1505
fl@@ 1506
mit@@ 1507
role 1508
dy 1509
du@@ 1510
Br@@ 1511
patients 1512
Paul 1513
la 1514
name 1515
Foto 1516
Lage 1517
leader 1518
ator 1519
Medien 1520
trade 1521
Rolle 1522
moment 1523
Oktober 1524
Januar 1525
ard 1526
Union 1527
1,@@ 1528
Person 1529
iz@@ 1530
ene 1531
Mai 1532
began 1533
ce 1534
policy 1535
ts@@ 1536
shows 1537
large 1538
ves 1539
ob@@ 1540
Politik 1541
hospital 1542
private 1543
23 1544
ian 1545
king 1546
record 1547
black 1548
director 1549
leave 1550
Gefühl 1551
wenig 1552
är@@ 1553
Demokraten 1554
Dezember 1555
che 1556
official 1557
military 1558
än@@ 1559
getan 1560
available 1561
ability 1562
hand@@ 1563
Minuten 1564
sowohl 1565
ing-@@ 1566
Ber@@ 1567
industry 1568
form 1569
ps 1570
air 1571
kt 1572
ay 1573
ihres 1574
.com 1575
sagten 1576
Britain 1577
minutes 1578
ents 1579
issues 1580
July 1581
administration 1582
acht 1583
everyone 1584
released 1585
nearly 1586
ure 1587
financial 1588
ahead 1589
fact 1590
alt 1591
min@@ 1592
ment 1593
students 1594
total 1595
response 1596
tri@@ 1597
car@@ 1598
ta@@ 1599
bar@@ 1600
treffen 1601
current 1602
ums 1603
playing 1604
mer 1605
gewinnen 1606
board 1607
issue 1608
0 1609
Trumps 1610
Texas 1611
fe@@ 1612
ways 1613
Samstag 1614
Zu@@ 1615
versucht 1616
Chinese 1617
out@@ 1618
needed 1619
Labour 1620
shot 1621
els 1622
white 1623
id@@ 1624
2014 1625
liches 1626
fight 1627
fe 1628
machte 1629
ite 1630
Ort 1631
makes 1632
il 1633
Film 1634
Möglichkeit 1635
20@@ 1636
Rück@@ 1637
mehrere 1638
Democratic 1639
einigen 1640
Informationen 1641
everything 1642
Monate 1643
dr@@ 1644
position 1645
experience 1646
meeting 1647
someone 1648
felt 1649
Juli 1650
elt 1651
sprechen 1652
isches 1653
Auswirkungen 1654
yn 1655
Monaten 1656
couple 1657
wer@@ 1658
Scotland 1659
Center 1660
became 1661
begann 1662
stay 1663
Landes 1664
dort 1665
needs 1666
event 1667
killed 1668
So@@ 1669
nach@@ 1670
result 1671
meiner 1672
sollen 1673
Kar@@ 1674
geb@@ 1675
Day 1676
friends 1677
Star 1678
weiterhin 1679
Wirtschaft 1680
confirmed 1681
ko@@ 1682
Now 1683
ah@@ 1684
unterstützen 1685
bre@@ 1686
space 1687
Studie 1688
wer 1689
Maßnahmen 1690
Jones 1691
federal 1692
Amazon 1693
ill 1694
al-@@ 1695
größten 1696
provide 1697
sieht 1698
Moment 1699
gr@@ 1700
zeigt 1701
period 1702
human 1703
rights 1704
Spiel@@ 1705
Inter@@ 1706
travel 1707
cher 1708
passiert 1709
on-@@ 1710
book 1711
situation 1712
medical 1713
recently 1714
research 1715
January 1716
zeit 1717
zusammen@@ 1718
2.@@ 1719
Images 1720
vielen 1721
Tod 1722
These 1723
aufgrund 1724
ed@@ 1725
attack 1726
include 1727
hope 1728
spread 1729
Smith 1730
veröffentlicht 1731
erten 1732
öffentlichen 1733
ang@@ 1734
ant@@ 1735
Daten 1736
impact 1737
anything 1738
near 1739
Image 1740
Video 1741
Du@@ 1742
ders 1743
race 1744
scheint 1745
beide 1746
# 1747
Party 1748
Nach@@ 1749
morning 1750
10@@ 1751
cut 1752
Gericht 1753
areas 1754
@ 1755
Per@@ 1756
October 1757
enen 1758
Cup 1759
himself 1760
leaders 1761
phone 1762
unseren 1763
ang 1764
gt 1765
parents 1766
He@@ 1767
tion 1768
ast@@ 1769
Coronavirus-@@ 1770
gi@@ 1771
Tagen 1772
Zukunft 1773
Democrats 1774
light 1775
Sicherheit 1776
Nähe 1777
gestellt 1778
jedes 1779
Männer 1780
Schritt 1781
sent 1782
actually 1783
Gar@@ 1784
child 1785
wasn 1786
Europe 1787
ms 1788
general 1789
ellen 1790
27 1791
besch@@ 1792
ma 1793
tre@@ 1794
via 1795
ches 1796
re 1797
living 1798
mother 1799
Sun 1800
führte 1801
Namen 1802
ore 1803
fin@@ 1804
200 1805
Kunden 1806
ven@@ 1807
jede 1808
running 1809
measures 1810
Florida 1811
kon@@ 1812
fi@@ 1813
Mark 1814
results 1815
Ad@@ 1816
nation 1817
People 1818
problem 1819
Cor@@ 1820
NHS 1821
Einige 1822
especially 1823
des@@ 1824
We@@ 1825
o-@@ 1826
December 1827
je 1828
strong 1829
evidence 1830
lose 1831
unser 1832
soon 1833
act 1834
Harry 1835
deaths 1836
Mor@@ 1837
Gesundheit 1838
35 1839
increase 1840
Do@@ 1841
abzu@@ 1842
despite 1843
26 1844
bring 1845
Ms 1846
2,@@ 1847
3.@@ 1848
difficult 1849
Mike 1850
Premier 1851
erklärt 1852
G 1853
Go@@ 1854
ka 1855
mindestens 1856
eh@@ 1857
80 1858
bank 1859
Fragen 1860
legal 1861
bel@@ 1862
Sanders 1863
potential 1864
building 1865
ern@@ 1866
Eltern 1867
wichtig 1868
Spiele 1869
genommen 1870
received 1871
mu@@ 1872
Japan 1873
list 1874
Pre@@ 1875
share 1876
tra@@ 1877
ra 1878
28 1879
sozialen 1880
gute 1881
res@@ 1882
fr@@ 1883
investigation 1884
Bu@@ 1885
Nation 1886
Col@@ 1887
wollte 1888
schon 1889
stage 1890
allowed 1891
denn 1892
summer 1893
remain 1894
Sieg 1895
School 1896
ganze 1897
cks 1898
mat@@ 1899
zer@@ 1900
Vater 1901
verloren 1902
Min@@ 1903
Ke@@ 1904
Bi@@ 1905
wife 1906
setzen 1907
laut 1908
Andrew 1909
sha@@ 1910
CNN 1911
gehört 1912
Com@@ 1913
nothing 1914
rather 1915
stre@@ 1916
Wales 1917
di 1918
Sha@@ 1919
ur 1920
Or@@ 1921
Kampf 1922
auszu@@ 1923
turn 1924
International 1925
tu@@ 1926
Chance 1927
Gr@@ 1928
meinen 1929
access 1930
31 1931
derzeit 1932
seven 1933
player 1934
net 1935
ill@@ 1936
brauchen 1937
Beamten 1938
latest 1939
wobei 1940
region 1941
gefunden 1942
ep@@ 1943
force 1944
ful 1945
verwendet 1946
kl@@ 1947
dessen 1948
disease 1949
Americans 1950
ell@@ 1951
ub@@ 1952
lin@@ 1953
personal 1954
father 1955
worked 1956
How 1957
politischen 1958
ben@@ 1959
whose 1960
fre@@ 1961
Li@@ 1962
cr@@ 1963
un 1964
Google 1965
Hand@@ 1966
nutzen 1967
groups 1968
hold 1969
cor@@ 1970
0@@ 1971
britischen 1972
fer 1973
genau 1974
art 1975
safe 1976
Apple 1977
fully 1978
Nacht 1979
rules 1980
gest@@ 1981
match 1982
denken 1983
X 1984
reports 1985
Um@@ 1986
Dar@@ 1987
heißt 1988
Liverpool 1989
member 1990
ground 1991
hal@@ 1992
career 1993
however 1994
met 1995
vo@@ 1996
tig 1997
erst 1998
Tri@@ 1999
ana 2000
men@@ 2001
dabei 2002
kan@@ 2003
ats 2004
getroffen 2005
themselves 2006
East 2007
ya 2008
question 2009
special 2010
ak 2011
ative 2012
gave 2013
growth 2014
ec@@ 2015
King 2016
iger 2017
loss 2018
sieben 2019
che@@ 2020
Ko@@ 2021
chance 2022
Bild 2023
worth 2024
Christmas 2025
stark 2026
safety 2027
showed 2028
Problem 2029
whole 2030
Krankenhaus 2031
letzte 2032
Untersuchung 2033
businesses 2034
anderer 2035
ales 2036
longer 2037
offer 2038
29 2039
Our 2040
möglich 2041
matter 2042
currently 2043
weiteren 2044
Ac@@ 2045
CEO 2046
pressure 2047
Chris 2048
Ste@@ 2049
Post 2050
ness 2051
cost 2052
70 2053
Verfügung 2054
gh@@ 2055
Zu 2056
einzu@@ 2057
tro@@ 2058
90 2059
Prime 2060
yn@@ 2061
bad 2062
Bre@@ 2063
Th@@ 2064
fallen 2065
Also 2066
Ergebnisse 2067
klar 2068
ess 2069
climate 2070
rest 2071
General 2072
schaffen 2073
att@@ 2074
turned 2075
ste@@ 2076
Sk@@ 2077
idea 2078
fest@@ 2079
Obwohl 2080
ich@@ 2081
testing 2082
single 2083
Punkte 2084
beginnen 2085
Angst 2086
revealed 2087
continued 2088
ci@@ 2089
tive 2090
Da 2091
legen 2092
end@@ 2093
sah 2094
rise 2095
allow 2096
officers 2097
in-@@ 2098
ah 2099
ziemlich 2100
Congress 2101
Jo@@ 2102
town 2103
authorities 2104
involved 2105
Februar 2106
War@@ 2107
isn 2108
ars 2109
Ger@@ 2110
fo@@ 2111
Africa 2112
re-@@ 2113
higher 2114
45 2115
Robert 2116
A-@@ 2117
tell 2118
Reaktion 2119
tung 2120
huge 2121
Paar 2122
diejenigen 2123
Williams 2124
stellt 2125
ics 2126
manager 2127
ster@@ 2128
wei@@ 2129
Last 2130
paid 2131
interview 2132
chten 2133
anyone 2134
executive 2135
Gi@@ 2136
France 2137
Sicherheits@@ 2138
jemand 2139
zahlen 2140
oil 2141
According 2142
Ru@@ 2143
ble 2144
Ihnen 2145
goal 2146
biggest 2147
alten 2148
claims 2149
Mit@@ 2150
price 2151
wh@@ 2152
Russia 2153
families 2154
hen 2155
Teams 2156
del@@ 2157
gra@@ 2158
changes 2159
möchte 2160
eight 2161
hr@@ 2162
kre@@ 2163
Gesundheits@@ 2164
gegangen 2165
ges 2166
ann@@ 2167
einschließlich 2168
leading 2169
verlassen 2170
West@@ 2171
Markt 2172
ship 2173
Deal 2174
interest 2175
ets 2176
gs 2177
Sohn 2178
aller 2179
Seine 2180
Gesetz 2181
entfernt 2182
Ziel 2183
similar 2184
No@@ 2185
Viele 2186
K 2187
inside 2188
training 2189
Government 2190
2021 2191
Bl@@ 2192
U 2193
remains 2194
jobs 2195
spent 2196
Job 2197
gang 2198
Tom 2199
Bundes@@ 2200
Q@@ 2201
cannot 2202
größte 2203
Europa 2204
politische 2205
12@@ 2206
Thema 2207
Gen@@ 2208
Te@@ 2209
dern 2210
ford 2211
glaube 2212
Schul@@ 2213
voters 2214
Sa@@ 2215
Press 2216
release 2217
ff 2218
post 2219
au 2220
round 2221
La@@ 2222
Pe@@ 2223
Grund 2224
dar@@ 2225
senior 2226
Mu@@ 2227
Group 2228
happened 2229
closed 2230
az@@ 2231
glauben 2232
quite 2233
sense 2234
brought 2235
ach 2236
break 2237
ehemalige 2238
sel@@ 2239
Sal@@ 2240
rec@@ 2241
press 2242
nahm 2243
enten 2244
tragen 2245
bleibt 2246
Royal 2247
ensure 2248
Plan 2249
4.@@ 2250
je@@ 2251
da@@ 2252
daughter 2253
lichkeit 2254
efforts 2255
quarter 2256
Region 2257
heart 2258
Dis@@ 2259
quickly 2260
sub@@ 2261
ying 2262
Personen 2263
Fox 2264
Neu@@ 2265
shared 2266
3,@@ 2267
short 2268
self-@@ 2269
einzige 2270
football 2271
development 2272
sw@@ 2273
Prozess 2274
Ak@@ 2275
unternehmen 2276
ical 2277
Bur@@ 2278
Folge 2279
Behörden 2280
que 2281
neu 2282
kaufen 2283
Hilfe 2284
hören 2285
claimed 2286
thousands 2287
17@@ 2288
+ 2289
Wasser 2290
meinem 2291
erreichen 2292
probably 2293
wants 2294
example 2295
ay@@ 2296
lu@@ 2297
ir 2298
foreign 2299
schools 2300
2013 2301
ism 2302
hieß 2303
tatsächlich 2304
geworden 2305
technology 2306
gewann 2307
heard 2308
richtig 2309
Probleme 2310
Schule 2311
Kom@@ 2312
Öffentlichkeit 2313
restrictions 2314
significant 2315
normal 2316
music 2317
meet 2318
Länder 2319
ens@@ 2320
step 2321
Chief 2322
konnten 2323
ta 2324
Queen 2325
fahren 2326
16@@ 2327
har@@ 2328
FC 2329
weekend 2330
conditions 2331
Alter 2332
eng@@ 2333
2012 2334
Familien 2335
terms 2336
ving 2337
talk 2338
Harris 2339
mal 2340
erwartet 2341
gets 2342
ence 2343
forced 2344
Of 2345
understand 2346
border 2347
rit@@ 2348
gekommen 2349
Tests 2350
ke@@ 2351
outbreak 2352
rates 2353
tax 2354
Seattle 2355
Opfer 2356
str@@ 2357
Chelsea 2358
either 2359
co-@@ 2360
Um 2361
darum 2362
,000 2363
teten 2364
kurz 2365
aff@@ 2366
14@@ 2367
pp@@ 2368
Finanz@@ 2369
trial 2370
Tochter 2371
kürzlich 2372
Republican 2373
By 2374
ität 2375
Scott 2376
Indien 2377
range 2378
ready 2379
Not 2380
bel 2381
ones 2382
Israel 2383
Mal@@ 2384
view 2385
Senate 2386
chen@@ 2387
pen@@ 2388
eb@@ 2389
emergency 2390
takes 2391
violence 2392
ass@@ 2393
.000 2394
ehemaligen 2395
ended 2396
sion 2397
mean 2398
Druck 2399
accused 2400
Obama 2401
date 2402
particularly 2403
aw@@ 2404
AN@@ 2405
direkt 2406
off@@ 2407
Professor 2408
ven 2409
customers 2410
Du 2411
Association 2412
Peter 2413
ile 2414
serious 2415
opportunity 2416
teams 2417
Service 2418
relationship 2419
events 2420
Arsenal 2421
hart 2422
ja 2423
teilen 2424
Paris 2425
officer 2426
Far@@ 2427
Office 2428
enz@@ 2429
ath@@ 2430
han 2431
könne 2432
reg@@ 2433
zweite 2434
Mat@@ 2435
Mitglieder 2436
tested 2437
5.@@ 2438
ning 2439
cre@@ 2440
energy 2441
geführt 2442
ve@@ 2443
previous 2444
ut 2445
tried 2446
3-@@ 2447
Brown 2448
treatment 2449
Premierminister 2450
capital 2451
ationen 2452
products 2453
sur@@ 2454
Even 2455
gehören 2456
concerns 2457
co 2458
Situation 2459
oben 2460
February 2461
Bill 2462
Thomas 2463
Kind 2464
ham 2465
looked 2466
dich 2467
kamen 2468
works 2469
Sache 2470
musste 2471
ok@@ 2472
Ball 2473
Abend 2474
program 2475
chte 2476
presidential 2477
Lu@@ 2478
helped 2479
ion 2480
mel@@ 2481
Kindern 2482
gone 2483
Mac@@ 2484
met@@ 2485
French 2486
Polizei@@ 2487
focus 2488
Star@@ 2489
ade 2490
related 2491
schw@@ 2492
ändern 2493
Super@@ 2494
ik 2495
bs 2496
performance 2497
homes 2498
Von 2499
Martin 2500
kids 2501
ner@@ 2502
Nor@@ 2503
Fahr@@ 2504
Chef 2505
gespielt 2506
protect 2507
ages 2508
tests 2509
bri@@ 2510
Mädchen 2511
decided 2512
Tra@@ 2513
Trainer 2514
cause 2515
College 2516
growing 2517
tete 2518
aged 2519
Pl@@ 2520
aten 2521
non-@@ 2522
previously 2523
vaccine 2524
Angaben 2525
create 2526
anzu@@ 2527
ls 2528
Act 2529
majority 2530
Universität 2531
demand 2532
öffentliche 2533
weg 2534
tor 2535
mas@@ 2536
getötet 2537
bed 2538
Tr@@ 2539
visit 2540
gar@@ 2541
Wil@@ 2542
britische 2543
Entwicklung 2544
problems 2545
kte 2546
main 2547
ette 2548
numbers 2549
spielt 2550
Demonstranten 2551
sofort 2552
agreement 2553
wood 2554
published 2555
residents 2556
00 2557
schlug 2558
stri@@ 2559
adding 2560
instead 2561
oo@@ 2562
ney 2563
Ha@@ 2564
ließ 2565
land@@ 2566
hält 2567
average 2568
questions 2569
sales 2570
happen 2571
Wel@@ 2572
read 2573
Schulen 2574
Rahmen 2575
else 2576
Lockdown 2577
winning 2578
mor@@ 2579
führt 2580
First 2581
looks 2582
ically 2583
kleinen 2584
tiger 2585
term 2586
por@@ 2587
Kopf 2588
kom@@ 2589
knew 2590
Am@@ 2591
ong 2592
Anstieg 2593
D-@@ 2594
bieten 2595
ments 2596
gleichen 2597
inn@@ 2598
calls 2599
bt 2600
Ireland 2601
Boden 2602
Beispiel 2603
jedem 2604
mental 2605
15@@ 2606
Zeitpunkt 2607
agency 2608
happy 2609
lung 2610
Council 2611
ire 2612
arbeitet 2613
reason 2614
anders 2615
message 2616
bisschen 2617
Beamte 2618
pr@@ 2619
dachte 2620
sex 2621
levels 2622
wor@@ 2623
schaft 2624
moved 2625
comp@@ 2626
Gra@@ 2627
bietet 2628
C-@@ 2629
coach 2630
seems 2631
largest 2632
gel 2633
conference 2634
Amerikaner 2635
Kosten 2636
sprach 2637
US@@ 2638
Regeln 2639
gef@@ 2640
5-@@ 2641
bare 2642
systems 2643
geschlossen 2644
W 2645
anti-@@ 2646
ack 2647
deren 2648
production 2649
Richard 2650
aufzu@@ 2651
Many 2652
tem 2653
möglicherweise 2654
amid 2655
Kim 2656
Haupt@@ 2657
gesamten 2658
cur@@ 2659
dre@@ 2660
heraus 2661
forces 2662
friend 2663
described 2664
project 2665
husband 2666
an-@@ 2667
Mer@@ 2668
born 2669
solche 2670
Ju@@ 2671
goes 2672
Krise 2673
Straße 2674
Island 2675
ast 2676
liegen 2677
road 2678
ice 2679
letter 2680
Australian 2681
voll 2682
Richter 2683
amount 2684
Her 2685
lower 2686
heit 2687
changed 2688
ities 2689
Vor 2690
Sydney 2691
Au@@ 2692
kämpfen 2693
included 2694
Menge 2695
Spielen 2696
Char@@ 2697
RE@@ 2698
kleine 2699
bur@@ 2700
ick@@ 2701
account 2702
gro@@ 2703
Carolina 2704
buy 2705
Kontrolle 2706
contact 2707
bisher 2708
wa@@ 2709
lag 2710
pf@@ 2711
Hor@@ 2712
schützen 2713
More 2714
host 2715
Ländern 2716
tw@@ 2717
Kandidaten 2718
Gewalt 2719
ants 2720
employees 2721
Wochenende 2722
bes@@ 2723
ierung 2724
St. 2725
site 2726
fell 2727
6.@@ 2728
Karriere 2729
pri@@ 2730
Rennen 2731
0.@@ 2732
Online-@@ 2733
nächste 2734
gezogen 2735
hands 2736
Macht 2737
hinaus 2738
sl@@ 2739
ators 2740
Ergebnis 2741
appeared 2742
Führung 2743
Zahlen 2744
warned 2745
wider@@ 2746
Warren 2747
Sport 2748
Bro@@ 2749
wrong 2750
win@@ 2751
Sir 2752
beste 2753
towards 2754
population 2755
watch 2756
challenge 2757
stra@@ 2758
High 2759
Idee 2760
protests 2761
Rs 2762
sm@@ 2763
Form 2764
2011 2765
amerikanischen 2766
Fl@@ 2767
Forscher 2768
Höhe 2769
Wähler 2770
fand 2771
caused 2772
Institute 2773
Wert 2774
hei@@ 2775
kten 2776
Staat 2777
ation@@ 2778
reach 2779
schließen 2780
sign 2781
Serie 2782
firm 2783
Auto 2784
99 2785
Kampagne 2786
class 2787
Australien 2788
fragen 2789
popular 2790
zog 2791
approach 2792
William 2793
For@@ 2794
aren 2795
behauptet 2796
getestet 2797
Lin@@ 2798
H 2799
ali@@ 2800
verwenden 2801
schlagen 2802
2-@@ 2803
ue 2804
certain 2805
hour 2806
kt@@ 2807
Is 2808
itself 2809
wal@@ 2810
13@@ 2811
300 2812
arrested 2813
eu@@ 2814
giving 2815
one-@@ 2816
Chicago 2817
berg 2818
named 2819
jüngsten 2820
sts 2821
traf 2822
words 2823
effort 2824
tor@@ 2825
row 2826
dri@@ 2827
Treffen 2828
ute 2829
gewonnen 2830
besteht 2831
Scottish 2832
außerhalb 2833
Taylor 2834
fahr@@ 2835
darin 2836
zwar 2837
Hälfte 2838
star@@ 2839
heraus@@ 2840
Netflix 2841
Sommer 2842
easy 2843
to-@@ 2844
berichtete 2845
track 2846
System 2847
isten 2848
Weißen 2849
32 2850
Nachdem 2851
rein@@ 2852
Tor@@ 2853
Bemühungen 2854
50@@ 2855
baren 2856
hoch@@ 2857
leaving 2858
det 2859
0,@@ 2860
victory 2861
urs 2862
Two 2863
4-@@ 2864
ane 2865
kommenden 2866
gte 2867
ask 2868
Delhi 2869
trotz 2870
Mitte 2871
ai 2872
parts 2873
Russian 2874
Ben@@ 2875
Regierungs@@ 2876
leicht 2877
Green 2878
Steve 2879
Wal@@ 2880
sal@@ 2881
acy 2882
failed 2883
Ukraine 2884
Hill 2885
lack 2886
increased 2887
wi@@ 2888
opening 2889
Krankheit 2890
incident 2891
true 2892
ckt 2893
starting 2894
PA 2895
bill 2896
1-@@ 2897
Y 2898
schaften 2899
immediately 2900
source 2901
ists 2902
Cha@@ 2903
Sprecher 2904
Verbindung 2905
All@@ 2906
quality 2907
gas 2908
Mannschaft 2909
inc@@ 2910
neben 2911
Einsatz 2912
couldn 2913
langen 2914
followed 2915
places 2916
verstehen 2917
gingen 2918
30@@ 2919
Risiko 2920
Francisco 2921
tt@@ 2922
einge@@ 2923
Hol@@ 2924
comment 2925
ess@@ 2926
Big 2927
ring 2928
cht@@ 2929
7.@@ 2930
alone 2931
Richtung 2932
teil 2933
Best@@ 2934
massive 2935
pa@@ 2936
amp@@ 2937
Preis 2938
Abgeordneten 2939
steigen 2940
Test 2941
Dr 2942
bro@@ 2943
vers 2944
starb 2945
Schüler 2946
Beginn 2947
tieren 2948
band 2949
nationalen 2950
lei@@ 2951
ines 2952
anc@@ 2953
statt 2954
rä@@ 2955
are@@ 2956
enti@@ 2957
hoch 2958
unterstützt 2959
communities 2960
agreed 2961
includes 2962
wing 2963
back@@ 2964
75 2965
Fe@@ 2966
pass 2967
talks 2968
sicherzustellen 2969
passed 2970
daily 2971
angesichts 2972
lan@@ 2973
anti@@ 2974
Freunde 2975
compared 2976
vier@@ 2977
hielt 2978
fil@@ 2979
beat 2980
pol@@ 2981
users 2982
hol@@ 2983
vis@@ 2984
As@@ 2985
spielte 2986
Manager 2987
build 2988
eg@@ 2989
verschiedenen 2990
Por@@ 2991
Sam@@ 2992
nine 2993
Organisation 2994
From 2995
seeing 2996
kn@@ 2997
2010 2998
created 2999
ably 3000
common 3001
positiv 3002
Open 3003
Bas@@ 3004
Im@@ 3005
Ser@@ 3006
ran 3007
charges 3008
eigene 3009
ved 3010
lat@@ 3011
Jack 3012
address 3013
Rest 3014
charge 3015
weg@@ 3016
Behandlung 3017
dead 3018
Dieser 3019
ws 3020
Lee 3021
form@@ 3022
raised 3023
spending 3024
Justice 3025
above 3026
Position 3027
Recht 3028
ino 3029
tur@@ 3030
Raum 3031
Republikaner 3032
wo@@ 3033
ack@@ 3034
partner 3035
suchen 3036
simply 3037
Hand 3038
Seit 3039
-jährige 3040
treten 3041
Then 3042
tel@@ 3043
Zugang 3044
drug 3045
plant 3046
ß@@ 3047
ente 3048
Ms. 3049
dung 3050
Sol@@ 3051
Fin@@ 3052
IN@@ 3053
tz@@ 3054
ese 3055
Reise 3056
rich@@ 3057
2008 3058
lokalen 3059
V 3060
wearing 3061
alte 3062
33 3063
Russland 3064
Georgia 3065
Test@@ 3066
threat 3067
Germany 3068
Geschäft 3069
Alex 3070
tweeted 3071
Sen@@ 3072
6-@@ 3073
laufen 3074
Che@@ 3075
spiel 3076
Another 3077
Ben 3078
ory 3079
schen 3080
ani 3081
Interview 3082
ial 3083
effect 3084
rie@@ 3085
55 3086
nimmt 3087
Ent@@ 3088
uses 3089
although 3090
cancer 3091
rat@@ 3092
zeigte 3093
moving 3094
ged 3095
Grund@@ 3096
gew@@ 3097
movement 3098
char@@ 3099
gaben 3100
Hong 3101
decades 3102
Charles 3103
education 3104
ality 3105
Alle 3106
lässt 3107
Pol@@ 3108
Bezug 3109
researchers 3110
ns 3111
k-@@ 3112
Secretary 3113
avoid 3114
Pa@@ 3115
debate 3116
mal@@ 3117
Mas@@ 3118
launched 3119
property 3120
ara 3121
mp@@ 3122
expect 3123
bald 3124
ties 3125
gn@@ 3126
Liste 3127
CBS 3128
Ku@@ 3129
ris@@ 3130
zwei@@ 3131
Nigeria 3132
Meghan 3133
version 3134
essen 3135
air@@ 3136
ban@@ 3137
fühlen 3138
damals 3139
mind 3140
Blick 3141
table 3142
mag 3143
tic 3144
neun 3145
unten 3146
experts 3147
brachte 3148
Fi@@ 3149
ide@@ 3150
Ra@@ 3151
Nun 3152
dra@@ 3153
Fre@@ 3154
fair 3155
Mel@@ 3156
Abkommen 3157
scene 3158
schließlich 3159
Bel@@ 3160
lines 3161
claim 3162
Tro@@ 3163
sto@@ 3164
pretty 3165
stock 3166
African 3167
wenige 3168
zufolge 3169
signed 3170
ash 3171
Hel@@ 3172
calling 3173
posted 3174
model 3175
ären 3176
Sein 3177
Freund 3178
Hal@@ 3179
Victoria 3180
reached 3181
dritten 3182
plus 3183
costs 3184
rum@@ 3185
Programm 3186
Cal@@ 3187
Corbyn 3188
AR@@ 3189
additional 3190
talking 3191
tiert 3192
justice 3193
4,@@ 3194
CO@@ 3195
ick 3196
ord@@ 3197
hel@@ 3198
natürlich 3199
Fo@@ 3200
website 3201
Lewis 3202
gezeigt 3203
throughout 3204
affected 3205
cap@@ 3206
emp@@ 3207
Kongress 3208
ely 3209
schl@@ 3210
mann 3211
wear 3212
Beweise 3213
Erfahrung 3214
Des@@ 3215
hi@@ 3216
nahe 3217
zehn 3218
best@@ 3219
value 3220
Fällen 3221
attacks 3222
ban 3223
funding 3224
management 3225
station 3226
Website 3227
feeling 3228
Ober@@ 3229
trat 3230
high-@@ 3231
CA@@ 3232
ank@@ 3233
kept 3234
schauen 3235
Lebens@@ 3236
Air 3237
ching 3238
Buch 3239
league 3240
elte 3241
warten 3242
Kong 3243
gre@@ 3244
cover 3245
Ri@@ 3246
pat@@ 3247
eher 3248
investment 3249
masks 3250
Just 3251
Frankreich 3252
ther@@ 3253
attention 3254
fri@@ 3255
stand@@ 3256
36 3257
Wasser@@ 3258
1. 3259
pm 3260
Matt 3261
parties 3262
gebe 3263
34 3264
onen 3265
sing 3266
ismus 3267
sector 3268
Prince 3269
if@@ 3270
Schottland 3271
gem@@ 3272
Beziehung 3273
Bet@@ 3274
ausgesetzt 3275
baby 3276
central 3277
erung 3278
Arbeits@@ 3279
built 3280
ft@@ 3281
twitterte 3282
isch@@ 3283
wieder@@ 3284
Bal@@ 3285
success 3286
pair 3287
brand 3288
Daniel 3289
review 3290
wert 3291
required 3292
beyond 3293
doch 3294
issued 3295
enn@@ 3296
holen 3297
prime 3298
mt 3299
deep 3300
400 3301
app 3302
ited 3303
og@@ 3304
Tatsache 3305
Pal@@ 3306
aid 3307
AC@@ 3308
box 3309
zeit@@ 3310
Ryan 3311
blood 3312
Love 3313
sting 3314
Bundesstaat 3315
lt 3316
prison 3317
weight 3318
pu@@ 3319
Vergleich 3320
dro@@ 3321
col@@ 3322
highest 3323
door 3324
bringt 3325
aler 3326
Kalifornien 3327
Zeit@@ 3328
pe 3329
details 3330
hervor@@ 3331
Pläne 3332
lebens@@ 3333
Mad@@ 3334
voll@@ 3335
Botschaft 3336
Saudi 3337
Stre@@ 3338
cities 3339
gelegt 3340
entire 3341
sum@@ 3342
prices 3343
wn 3344
sexual 3345
äre 3346
provided 3347
comments 3348
flight 3349
era 3350
title 3351
leg@@ 3352
trans@@ 3353
deutlich 3354
tut 3355
neues 3356
inv@@ 3357
myself 3358
38 3359
wide 3360
Dann 3361
ili@@ 3362
store 3363
ol 3364
8.@@ 3365
Jetzt 3366
entwickelt 3367
amerikanische 3368
National@@ 3369
Aktien 3370
Wor@@ 3371
aufge@@ 3372
leadership 3373
limited 3374
Melbourne 3375
Republicans 3376
las@@ 3377
sa 3378
sage 3379
aktuellen 3380
großer 3381
öffnen 3382
Rückkehr 3383
boy 3384
wait 3385
critical 3386
tly 3387
ads 3388
ched 3389
extra 3390
behauptete 3391
Geschäfts@@ 3392
verlieren 3393
ktion 3394
stieg 3395
falsch 3396
Meine 3397
Start 3398
insbesondere 3399
überhaupt 3400
miles 3401
Anthony 3402
frühen 3403
Stimmen 3404
Korea 3405
Hin@@ 3406
mark 3407
Zeiten 3408
Nachricht 3409
geschlagen 3410
thinking 3411
runs 3412
Bewegung 3413
7-@@ 3414
ously 3415
bas@@ 3416
offered 3417
weltweit 3418
Groß@@ 3419
ena 3420
Indian 3421
Kelly 3422
Seiten 3423
Supreme 3424
Pan@@ 3425
continues 3426
oc@@ 3427
5,@@ 3428
Welt@@ 3429
junge 3430
lie@@ 3431
25@@ 3432
Committee 3433
minute 3434
candidate 3435
ler@@ 3436
Sel@@ 3437
24@@ 3438
sho@@ 3439
hear 3440
millions 3441
gan@@ 3442
Bay 3443
zi@@ 3444
charged 3445
offen 3446
Zusammenhang 3447
opened 3448
prevent 3449
considered 3450
Sky 3451
politics 3452
Gouverneur 3453
tics 3454
J 3455
Boo@@ 3456
Kraft 3457
Men@@ 3458
Public 3459
Red@@ 3460
geschrieben 3461
stu@@ 3462
Since 3463
walk 3464
unserem 3465
bin@@ 3466
Unternehmens 3467
Hier 3468
candidates 3469
ished 3470
War 3471
Körper 3472
App 3473
bra@@ 3474
gar 3475
Mehrheit 3476
ingly 3477
ised 3478
figures 3479
caption 3480
tel 3481
früher 3482
enz 3483
abuse 3484
Liebe 3485
ology 3486
fear 3487
returned 3488
Clinton 3489
During 3490
om 3491
Gre@@ 3492
union 3493
weise 3494
Club 3495
stars 3496
Nachrichten 3497
cl@@ 3498
fragte 3499
active 3500
Mexico 3501
ermöglichen 3502
beginnt 3503
testen 3504
chinesischen 3505
st-@@ 3506
super@@ 3507
S-@@ 3508
Gro@@ 3509
zes 3510
save 3511
believed 3512
65 3513
Jeremy 3514
ations@@ 3515
wusste 3516
San@@ 3517
Land@@ 3518
victims 3519
Rechts@@ 3520
Dieses 3521
lungen 3522
Ham@@ 3523
spokesman 3524
sports 3525
passieren 3526
Picture 3527
Bildunterschrift 3528
Central 3529
begonnen 3530
Experten 3531
fit 3532
drive 3533
protesters 3534
Hall 3535
ain 3536
sor@@ 3537
gehalten 3538
enter 3539
Road 3540
Ed@@ 3541
gender 3542
hundreds 3543
gleiche 3544
iti@@ 3545
distancing 3546
Punkt 3547
sn@@ 3548
Angriff 3549
elections 3550
gesprochen 3551
Unsere 3552
Sar@@ 3553
style 3554
reduce 3555
i-@@ 3556
scored 3557
yp@@ 3558
weiter@@ 3559
facing 3560
symptoms 3561
Here 3562
Amerika 3563
Don@@ 3564
Stelle 3565
finally 3566
Tu@@ 3567
follow 3568
present 3569
crime 3570
zer 3571
mehreren 3572
served 3573
multiple 3574
explained 3575
tag 3576
2009 3577
verbessern 3578
Gruppen 3579
Kl@@ 3580
student 3581
Hei@@ 3582
ery 3583
wouldn 3584
Hoch@@ 3585
festgenommen 3586
Kat@@ 3587
Hospital 3588
Fr@@ 3589
Elizabeth 3590
zusätzliche 3591
complete 3592
Ihren 3593
entschieden 3594
Win@@ 3595
innen 3596
ersch@@ 3597
Kevin 3598
oren 3599
hon@@ 3600
opposition 3601
rule 3602
Fähigkeit 3603
Home 3604
NA@@ 3605
ment@@ 3606
joined 3607
cul@@ 3608
trag@@ 3609
Italy 3610
Bewohner 3611
Cre@@ 3612
Laut 3613
income 3614
spoke 3615
amm@@ 3616
insgesamt 3617
braucht 3618
manchmal 3619
fourth 3620
ams 3621
gesetzt 3622
io 3623
Michigan 3624
nte 3625
Kate 3626
dec@@ 3627
choice 3628
damage 3629
37 3630
zurückzu@@ 3631
EU-@@ 3632
Women 3633
verkauft 3634
Most 3635
erreicht 3636
all-@@ 3637
Pakistan 3638
spiel@@ 3639
ün@@ 3640
Grenze 3641
Pu@@ 3642
Today 3643
iges 3644
itz@@ 3645
Hoffnung 3646
Gal@@ 3647
gestern 3648
9.@@ 3649
stei@@ 3650
figure 3651
Abgeordnete 3652
markets 3653
anderes 3654
movie 3655
paper 3656
besonders 3657
48 3658
schien 3659
department 3660
verantwortlich 3661
basis 3662
asking 3663
actions 3664
Del@@ 3665
Selbst@@ 3666
sometimes 3667
lagen 3668
aufgenommen 3669
spricht 3670
enk@@ 3671
Mil@@ 3672
ren 3673
gener@@ 3674
ances 3675
Kinder@@ 3676
Ur@@ 3677
goals 3678
Todesfälle 3679
Gesch@@ 3680
explo@@ 3681
spot 3682
Sports 3683
weisen 3684
two-@@ 3685
speak 3686
park 3687
Research 3688
get@@ 3689
girl 3690
benefits 3691
Sorgen 3692
Spe@@ 3693
option 3694
dete 3695
verschiedene 3696
faced 3697
speech 3698
Ter@@ 3699
standing 3700
Meanwhile 3701
Senator 3702
Bedingungen 3703
draußen 3704
Virginia 3705
Studenten 3706
Morgan 3707
certainly 3708
word 3709
Super 3710
welche 3711
Those 3712
meant 3713
39 3714
Gemeinschaft 3715
Titel 3716
Umfrage 3717
Antwort 3718
prä@@ 3719
Veranstaltung 3720
cu@@ 3721
cash 3722
begin 3723
globalen 3724
Hollywood 3725
hom@@ 3726
Hotel 3727
spend 3728
vergangene 3729
ße 3730
hearing 3731
mag@@ 3732
Adam 3733
injury 3734
ement 3735
trip 3736
loved 3737
Tre@@ 3738
jo@@ 3739
ole 3740
versuchte 3741
lau@@ 3742
dir 3743
beg@@ 3744
worst 3745
Handels@@ 3746
T-@@ 3747
weather 3748
Dem@@ 3749
Warum 3750
suggested 3751
effective 3752
Not@@ 3753
6,@@ 3754
arbeitete 3755
natural 3756
Gesicht 3757
agen 3758
Reg@@ 3759
ail@@ 3760
cast 3761
Red 3762
centre 3763
hor@@ 3764
policies 3765
completely 3766
Bundesstaaten 3767
laws 3768
Out@@ 3769
base 3770
Rei@@ 3771
Technologie 3772
perfect 3773
Na@@ 3774
negative 3775
consider 3776
ace 3777
shooting 3778
Ausbruch 3779
launch 3780
older 3781
yer 3782
Haus@@ 3783
PM 3784
ering 3785
namens 3786
telling 3787
del 3788
sta@@ 3789
kaum 3790
befindet 3791
illegal 3792
IS@@ 3793
Pri@@ 3794
Gesellschaft 3795
fighting 3796
reality 3797
Liga 3798
E-@@ 3799
medi@@ 3800
ish@@ 3801
society 3802
AS@@ 3803
Is@@ 3804
ass 3805
evening 3806
holiday 3807
Fehler 3808
Pr@@ 3809
gend 3810
frühere 3811
ai@@ 3812
ei 3813
receive 3814
Linie 3815
Ka@@ 3816
west 3817
setzte 3818
Jackson 3819
AFP 3820
Kor@@ 3821
fuhr 3822
citizens 3823
noted 3824
zz@@ 3825
wall 3826
straight 3827
vermeiden 3828
ths 3829
three-@@ 3830
ands 3831
fa@@ 3832
sign@@ 3833
beginning 3834
wären 3835
anz 3836
entscheiden 3837
frei 3838
street 3839
ked 3840
cat@@ 3841
Artikel 3842
ath 3843
showing 3844
ym@@ 3845
tsch@@ 3846
Fer@@ 3847
Details 3848
sters 3849
gten 3850
challenges 3851
allein 3852
haven 3853
chs 3854
original 3855
bestätigte 3856
jungen 3857
check 3858
guten 3859
Brexit-@@ 3860
assi@@ 3861
environment 3862
Pen@@ 3863
contract 3864
target 3865
Don 3866
Mah@@ 3867
ften 3868
va 3869
Wohn@@ 3870
ble@@ 3871
Disney 3872
missing 3873
zone 3874
Regel 3875
berichtet 3876
Parlament 3877
ky 3878
fied 3879
sell 3880
ils 3881
Bilder 3882
sport 3883
bist 3884
usually 3885
ht 3886
dd@@ 3887
Glück 3888
schlag 3889
illi@@ 3890
sel 3891
Ir@@ 3892
picture 3893
Schauspieler 3894
designed 3895
fine 3896
handelt 3897
ip@@ 3898
Kn@@ 3899
murder 3900
remember 3901
tierte 3902
Grand 3903
status 3904
holding 3905
Nord@@ 3906
Arizona 3907
hum@@ 3908
alleged 3909
ious 3910
8-@@ 3911
seem 3912
Associated 3913
hast 3914
plat@@ 3915
committee 3916
pick 3917
protest 3918
Lebens 3919
wichtige 3920
capacity 3921
fu@@ 3922
Lei@@ 3923
Wieder@@ 3924
secretary 3925
far@@ 3926
Bor@@ 3927
eller 3928
arrived 3929
putting 3930
Iowa 3931
flo@@ 3932
acks 3933
wann 3934
judge 3935
Stephen 3936
cy 3937
dd 3938
Erfolg 3939
bor@@ 3940
Commission 3941
ently 3942
RT 3943
Vi@@ 3944
necessary 3945
42 3946
außer 3947
piece 3948
La 3949
design 3950
Hauses 3951
appear 3952
44 3953
appears 3954
Beziehungen 3955
Musik 3956
plane 3957
gezwungen 3958
stands 3959
Floyd 3960
Versuch 3961
unbe@@ 3962
criminal 3963
Vorfall 3964
internationalen 3965
fore@@ 3966
particular 3967
hotel 3968
veröffentlichte 3969
ned 3970
condition 3971
Mein 3972
advice 3973
size 3974
Why 3975
culture 3976
pun@@ 3977
AT@@ 3978
rose 3979
various 3980
Sport@@ 3981
ear@@ 3982
Ausbreitung 3983
ze@@ 3984
acc@@ 3985
decade 3986
gerne 3987
primary 3988
supporters 3989
iting 3990
Meinung 3991
gan 3992
Vergangenheit 3993
ee 3994
reisen 3995
wel@@ 3996
erhielt 3997
47 3998
sort 3999
fan 4000
zunächst 4001
ac 4002
cker 4003
Vertrauen 4004
Straßen 4005
poor 4006
Morgen 4007
ov@@ 4008
peace 4009
bestätigt 4010
century 4011
Em@@ 4012
konzentrieren 4013
tered 4014
Despite 4015
verhindern 4016
rel@@ 4017
sold 4018
völlig 4019
ash@@ 4020
boo@@ 4021
Northern 4022
app@@ 4023
individual 4024
bekommt 4025
ett 4026
ro 4027
Bri@@ 4028
Restaurants 4029
Senat 4030
bei@@ 4031
gende 4032
recorded 4033
sche 4034
steps 4035
Laufe 4036
Baby 4037
English 4038
tough 4039
domestic 4040
physical 4041
Nur 4042
center 4043
offen@@ 4044
sed 4045
Federal 4046
nationale 4047
Jährige 4048
Pat@@ 4049
shop 4050
driving 4051
annual 4052
writing 4053
anischen 4054
improve 4055
forderte 4056
serve 4057
iten 4058
Pelosi 4059
fort 4060
Süd@@ 4061
infection 4062
erster 4063
written 4064
Familien@@ 4065
Kan@@ 4066
network 4067
platform 4068
Deutschland 4069
gene 4070
deten 4071
funds 4072
rising 4073
digital 4074
Wi@@ 4075
alität 4076
Entscheidungen 4077
Daily 4078
Bedenken 4079
addition 4080
responsible 4081
Both 4082
Büro 4083
neuer 4084
niemand 4085
tech 4086
7,@@ 4087
jemals 4088
Rom@@ 4089
gers 4090
learn 4091
Themen 4092
Covid 4093
identified 4094
keeping 4095
acting 4096
ebenfalls 4097
Interesse 4098
votes 4099
P-@@ 4100
wählen 4101
bezeichnet 4102
planned 4103
lies 4104
glaubt 4105
los@@ 4106
port@@ 4107
Bau@@ 4108
operations 4109
erkennen 4110
scheduled 4111
os@@ 4112
successful 4113
p.m. 4114
behandelt 4115
seeking 4116
feet 4117
stimmen 4118
imm@@ 4119
28@@ 4120
brechen 4121
Schw@@ 4122
erhöhen 4123
Bereich 4124
post@@ 4125
vel@@ 4126
Max 4127
erwarten 4128
Sam 4129
verletzt 4130
analy@@ 4131
Verhalten 4132
wollten 4133
lich@@ 4134
Gefängnis 4135
geschickt 4136
attempt 4137
Edinburgh 4138
middle 4139
95 4140
mission 4141
AM@@ 4142
bat 4143
shown 4144
gestorben 4145
Projekt 4146
ington 4147
reporters 4148
Mis@@ 4149
activity 4150
practice 4151
ser 4152
0-@@ 4153
character 4154
ret@@ 4155
früheren 4156
Bon@@ 4157
49 4158
falls 4159
competition 4160
ered 4161
confidence 4162
ple@@ 4163
female 4164
perhaps 4165
j 4166
Sti@@ 4167
Möglichkeiten 4168
type 4169
volle 4170
dog 4171
Madrid 4172
the@@ 4173
actor 4174
Luft@@ 4175
cal 4176
sions 4177
assen 4178
Mitglied 4179
Valley 4180
Pro 4181
Wissenschaftler 4182
verurteilt 4183
Je@@ 4184
ßen 4185
ump@@ 4186
planning 4187
St 4188
Can@@ 4189
sides 4190
Produkte 4191
ot 4192
irgendwie 4193
Nutzer 4194
Steuer@@ 4195
Tour 4196
Zwei 4197
Fahrer 4198
aware 4199
Cas@@ 4200
feels 4201
äu@@ 4202
operation 4203
anische 4204
Zentrum 4205
durchgeführt 4206
German 4207
Will 4208
41 4209
bewusst 4210
Op@@ 4211
gestiegen 4212
Bundesstaates 4213
600 4214
Mehr 4215
aut 4216
independent 4217
watching 4218
Coronavirus-Pandemie 4219
Wilson 4220
gleichzeitig 4221
concern 4222
setzt 4223
ising 4224
Han@@ 4225
At@@ 4226
Essen 4227
Markt@@ 4228
doctors 4229
Champions 4230
Global 4231
ierter 4232
def@@ 4233
ending 4234
generation 4235
Tausende 4236
options 4237
ust@@ 4238
offers 4239
admitted 4240
Bevölkerung 4241
fanden 4242
voting 4243
Bis 4244
stellten 4245
ately 4246
budget 4247
developed 4248
battle 4249
gung 4250
befinden 4251
Lockdowns 4252
nah@@ 4253
Over 4254
haft 4255
Glasgow 4256
MP 4257
digen 4258
iv@@ 4259
resources 4260
ba 4261
gemeinsam 4262
imp@@ 4263
Beach 4264
cy@@ 4265
Direktor 4266
kur@@ 4267
join 4268
Bedeutung 4269
43 4270
nahmen 4271
concerned 4272
Schutz 4273
Ram@@ 4274
pped 4275
27@@ 4276
winner 4277
Kontakt 4278
author 4279
lers 4280
don@@ 4281
Foundation 4282
km 4283
Herausforderung 4284
add 4285
Although 4286
inf@@ 4287
Fuß 4288
tig@@ 4289
below 4290
atic 4291
anz@@ 4292
brother 4293
Gel@@ 4294
Force 4295
Kredit@@ 4296
tat 4297
non@@ 4298
dic@@ 4299
answer 4300
ined 4301
helping 4302
El 4303
iel@@ 4304
supply 4305
Ph@@ 4306
ch-@@ 4307
civil 4308
plays 4309
elten 4310
inmitten 4311
ville 4312
jemanden 4313
toward 4314
committed 4315
Brief 4316
inzwischen 4317
Wh@@ 4318
Quartal 4319
ational 4320
essential 4321
Kal@@ 4322
stories 4323
content 4324
offering 4325
losen 4326
can@@ 4327
bauen 4328
focused 4329
Gespräche 4330
Wall 4331
Medical 4332
legte 4333
ca 4334
Security 4335
ming 4336
photo 4337
powerful 4338
Oh 4339
angeklagt 4340
killing 4341
oll@@ 4342
tion@@ 4343
NFL 4344
fordern 4345
fol@@ 4346
gemeldet 4347
zudem 4348
Verkauf 4349
Kollegen 4350
Sen. 4351
dangerous 4352
Stimme 4353
ktionen 4354
Mur@@ 4355
down@@ 4356
Folgen 4357
MPs 4358
Lebensmittel@@ 4359
dropped 4360
scht 4361
ren@@ 4362
len@@ 4363
Jungs 4364
streets 4365
knows 4366
AL@@ 4367
burg 4368
Chinas 4369
reichen 4370
caught 4371
iere 4372
seemed 4373
becoming 4374
shares 4375
26@@ 4376
sli@@ 4377
injured 4378
gun 4379
unt 4380
wit@@ 4381
ori@@ 4382
directly 4383
losing 4384
alongside 4385
investors 4386
Augen 4387
mussten 4388
pre-@@ 4389
worse 4390
stopped 4391
Jeder 4392
werfen 4393
head@@ 4394
gives 4395
gilt 4396
Wer 4397
impeachment 4398
Cam@@ 4399
quarantine 4400
Partner 4401
moder@@ 4402
Other 4403
schreiben 4404
denied 4405
Wachstum 4406
vorbei 4407
kündigte 4408
whom 4409
Kr@@ 4410
Jordan 4411
outs 4412
arch@@ 4413
Real 4414
strategy 4415
Social 4416
Impfstoff 4417
governments 4418
ward 4419
aner 4420
Bürger@@ 4421
Their 4422
ises 4423
lebt 4424
ano 4425
decisions 4426
green 4427
respect 4428
hat@@ 4429
drop 4430
dig@@ 4431
es-@@ 4432
screen 4433
Bra@@ 4434
eyes 4435
Leistung 4436
äl@@ 4437
programme 4438
reportedly 4439
sis 4440
Ja 4441
de-@@ 4442
Ran@@ 4443
mi@@ 4444
ily 4445
drugs 4446
Khan 4447
fun 4448
strike 4449
wirtschaftlichen 4450
trug 4451
anten 4452
herself 4453
sale 4454
Nick 4455
Runde 4456
infections 4457
Centre 4458
professor 4459
Proteste 4460
direct 4461
Wirtschafts@@ 4462
abge@@ 4463
product 4464
eventually 4465
hospitals 4466
send 4467
46 4468
51 4469
pain 4470
,@@ 4471
dly 4472
wohl 4473
endes 4474
bau@@ 4475
Great 4476
vulnerable 4477
hän@@ 4478
Gespräch 4479
früh 4480
Black@@ 4481
Hauptstadt 4482
believes 4483
pping 4484
healthy 4485
warf 4486
folgen 4487
entwickeln 4488
warning 4489
waiting 4490
Fel@@ 4491
owner 4492
tier@@ 4493
glücklich 4494
3. 4495
-jährigen 4496
Modi 4497
clubs 4498
dienst 4499
na 4500
features 4501
Publikum 4502
foot 4503
Rangers 4504
placed 4505
learning 4506
verbunden 4507
push 4508
credit 4509
starke 4510
card 4511
entweder 4512
fel@@ 4513
Tony 4514
She@@ 4515
Tages 4516
lands 4517
Ansatz 4518
Wort 4519
scientists 4520
gebeten 4521
angeblich 4522
regular 4523
greater 4524
infected 4525
tim@@ 4526
cars 4527
progress 4528
hair 4529
Nicht 4530
stores 4531
suffered 4532
fühlt 4533
weiterer 4534
individuals 4535
stell@@ 4536
ans@@ 4537
sy 4538
ongoing 4539
flu@@ 4540
geln 4541
Nationen 4542
Canada 4543
dy@@ 4544
skin 4545
Ohio 4546
Debatte 4547
vers@@ 4548
Ihrer 4549
kul@@ 4550
fund 4551
stone 4552
Son@@ 4553
dad 4554
cke 4555
schloss 4556
selling 4557
Anti-@@ 4558
shire 4559
floor 4560
ari@@ 4561
schafts@@ 4562
emotional 4563
traditional 4564
Davis 4565
benefit 4566
District 4567
herum 4568
voller 4569
Gefahr 4570
esen 4571
Res@@ 4572
afternoon 4573
uren 4574
rich 4575
trust 4576
elling 4577
bal@@ 4578
by@@ 4579
largely 4580
request 4581
isen 4582
email 4583
sted 4584
finished 4585
Museum 4586
Yet 4587
daher 4588
us-@@ 4589
Zum 4590
overall 4591
effects 4592
Houston 4593
ele@@ 4594
Generation 4595
ras@@ 4596
eth@@ 4597
bet@@ 4598
fli@@ 4599
tour 4600
raum 4601
Mary 4602
Putin 4603
sea 4604
2007 4605
cher@@ 4606
Bürgermeister 4607
equipment 4608
kosten 4609
52 4610
ends 4611
tend 4612
Radio 4613
200@@ 4614
bekam 4615
lock@@ 4616
Mio. 4617
reasons 4618
Boeing 4619
nu@@ 4620
Tier@@ 4621
YouTube 4622
Western 4623
ide 4624
Vol@@ 4625
shut 4626
faces 4627
ain@@ 4628
anne 4629
erstmals 4630
clo@@ 4631
chinesische 4632
Gebäude 4633
Ihrem 4634
standards 4635
material 4636
punkt 4637
Lau@@ 4638
defense 4639
erinnern 4640
allegations 4641
wenden 4642
log@@ 4643
serv@@ 4644
intelligence 4645
spar@@ 4646
schwierig 4647
Masken 4648
separate 4649
beteiligt 4650
maybe 4651
bot 4652
van 4653
lam@@ 4654
definitely 4655
deb@@ 4656
respond 4657
wa 4658
seite 4659
alis@@ 4660
Christian 4661
exactly 4662
Ordnung 4663
fiel 4664
Militär@@ 4665
tt 4666
revenue 4667
difference 4668
kal@@ 4669
ition 4670
nuclear 4671
managed 4672
Luft 4673
Da@@ 4674
Häuser 4675
demokratischen 4676
sit 4677
Königreich 4678
tungen 4679
bringing 4680
Top 4681
dauern 4682
produ@@ 4683
ites 4684
Rich@@ 4685
Hu@@ 4686
sol@@ 4687
treated 4688
aring 4689
Sun@@ 4690
bil@@ 4691
girls 4692
Anwalt 4693
rief 4694
sy@@ 4695
wen@@ 4696
amen 4697
ha 4698
“ 4699
voice 4700
vision 4701
Because 4702
Dre@@ 4703
anna 4704
warnte 4705
double 4706
gehe 4707
hoffe 4708
besuchen 4709
linked 4710
Dor@@ 4711
wür@@ 4712
liebe 4713
genden 4714
ache 4715
sey 4716
activities 4717
beenden 4718
ologie 4719
district 4720
zeigten 4721
professional 4722
Huawei 4723
nature 4724
camera 4725
Feuer 4726
IS 4727
organisation 4728
wed 4729
clearly 4730
findet 4731
raise 4732
blieb 4733
zumindest 4734
aden 4735
entlassen 4736
college 4737
Version 4738
lernen 4739
Brit@@ 4740
Rede 4741
Simon 4742
Mau@@ 4743
Ball@@ 4744
Like 4745
Tim 4746
restaurants 4747
Kir@@ 4748
vice 4749
Who 4750
verkaufen 4751
ür@@ 4752
dia 4753
restaurant 4754
scale 4755
verändert 4756
married 4757
speaking 4758
COVID-19-@@ 4759
Fol@@ 4760
Fle@@ 4761
hopes 4762
heiten 4763
Gl@@ 4764
urged 4765
Business 4766
owners 4767
2. 4768
Inc 4769
Al 4770
10-@@ 4771
hot 4772
yesterday 4773
verb@@ 4774
le-@@ 4775
mass 4776
29@@ 4777
Kritik 4778
Prinz 4779
liefern 4780
recovery 4781
Afghanistan 4782
carried 4783
Staats@@ 4784
Herausforderungen 4785
aging 4786
mask 4787
run@@ 4788
fühlte 4789
kor@@ 4790
zed 4791
sources 4792
highly 4793
Young 4794
page 4795
Pennsylvania 4796
gemein@@ 4797
Verein 4798
Autos 4799
groß 4800
Instead 4801
leisten 4802
simple 4803
Aufmerksamkeit 4804
ong@@ 4805
gleich 4806
train 4807
oh@@ 4808
patient 4809
port 4810
fresh 4811
hur@@ 4812
markt 4813
Aktivitäten 4814
funktioniert 4815
Singh 4816
carry 4817
zt 4818
Patrick 4819
absolutely 4820
verursacht 4821
Sur@@ 4822
Trotz 4823
Italien 4824
egal 4825
Stars 4826
Frank 4827
speed 4828
eye 4829
NSW 4830
mid-@@ 4831
stat@@ 4832
selbst@@ 4833
Euro 4834
driver 4835
Santa 4836
zen@@ 4837
Si@@ 4838
Marke 4839
Jim 4840
lokale 4841
wave 4842
dig 4843
LA@@ 4844
debt 4845
specific 4846
new@@ 4847
gearbeitet 4848
Arten 4849
Zusammenarbeit 4850
block 4851
Old 4852
television 4853
Operation 4854
Shar@@ 4855
schwarze 4856
rück@@ 4857
Parliament 4858
vehicle 4859
search 4860
prepared 4861
first-@@ 4862
broke 4863
hy@@ 4864
science 4865
Bank@@ 4866
Phase 4867
Sub@@ 4868
Meilen 4869
Verantwortung 4870
Vorsitzende 4871
mut@@ 4872
9,@@ 4873
Boston 4874
kar@@ 4875
une 4876
High@@ 4877
stoppen 4878
sam 4879
fälle 4880
squ@@ 4881
fellow 4882
ER@@ 4883
tal@@ 4884
providing 4885
Nein 4886
Geschichten 4887
SE@@ 4888
Amt 4889
Kur@@ 4890
wan@@ 4891
Teile 4892
Mand@@ 4893
subject 4894
books 4895
Ärzte 4896
bezeichnete 4897
filed 4898
rat 4899
mil@@ 4900
Kunst@@ 4901
note 4902
1,000 4903
potentially 4904
hu@@ 4905
Telefon 4906
beitragen 4907
Krieg 4908
Sim@@ 4909
signs 4910
53 4911
Mag@@ 4912
missed 4913
wers 4914
cked 4915
Veränderungen 4916
stes 4917
views 4918
bing 4919
deliver 4920
soziale 4921
Management 4922
Finale 4923
konfrontiert 4924
kin 4925
Brian 4926
besorgt 4927
ehemaliger 4928
housing 4929
ces 4930
anderem 4931
Cro@@ 4932
tigt 4933
links 4934
Vertrag 4935
hilft 4936
Stück 4937
Miami 4938
Halbzeit 4939
heavy 4940
cle@@ 4941
score 4942
Hy@@ 4943
seat 4944
Schl@@ 4945
Verlust 4946
starts 4947
Wat@@ 4948
Wahlen 4949
stein 4950
delivery 4951
ye@@ 4952
Media 4953
Andy 4954
2000 4955
behörde 4956
Suche 4957
sons 4958
and-@@ 4959
Do 4960
Ermittlungen 4961
Allerdings 4962
hoffen 4963
II 4964
Außen@@ 4965
eit@@ 4966
Celtic 4967
Spain 4968
Vo@@ 4969
Dan@@ 4970
Der@@ 4971
jüngste 4972
geboren 4973
nannte 4974
bewegen 4975
Lam@@ 4976
med 4977
Stunde 4978
ag 4979
New@@ 4980
Tur@@ 4981
ini 4982
8,@@ 4983
Life 4984
Andere 4985
sterben 4986
song 4987
ön@@ 4988
happens 4989
Produktion 4990
bit@@ 4991
Bedrohung 4992
serving 4993
modern 4994
Ex-@@ 4995
ush@@ 4996
Time 4997
Ta@@ 4998
schlecht 4999
brach 5000
4. 5001
Graham 5002
verfolgen 5003
alism 5004
CE@@ 5005
Besch@@ 5006
cking 5007
Rat 5008
Game 5009
lieren 5010
Studien 5011
rooms 5012
san@@ 5013
upon 5014
lived 5015
lic@@ 5016
Sarah 5017
Bloomberg 5018
inger 5019
ama 5020
brain 5021
Regierungen 5022
Blut@@ 5023
150 5024
aktuelle 5025
bury 5026
copyright 5027
ABC 5028
ski 5029
De 5030
iers 5031
weißen 5032
Plat@@ 5033
ize 5034
techn@@ 5035
Schritte 5036
dischen 5037
wider 5038
estimated 5039
Zustand 5040
announcement 5041
mostly 5042
Hon@@ 5043
banks 5044
Turkey 5045
son@@ 5046
Sor@@ 5047
rain 5048
genannt 5049
offensichtlich 5050
Epstein 5051
facilities 5052
FBI 5053
injuries 5054
DE@@ 5055
ef@@ 5056
ille 5057
language 5058
erneut 5059
teilt 5060
nieder@@ 5061
normalerweise 5062
globale 5063
grow 5064
Viertel 5065
ierungs@@ 5066
hasn 5067
Fran@@ 5068
zeiten 5069
ordered 5070
legt 5071
einzigen 5072
Gri@@ 5073
fac@@ 5074
pres@@ 5075
dge 5076
läuft 5077
north 5078
ala 5079
Mitarbeitern 5080
WHO 5081
Pompeo 5082
changing 5083
q@@ 5084
antwortete 5085
itäts@@ 5086
TV-@@ 5087
Fed 5088
crowd 5089
Sand@@ 5090
refused 5091
absolut 5092
morgen 5093
setting 5094
responsibility 5095
Fest@@ 5096
Forschung 5097
council 5098
lin 5099
cal@@ 5100
800 5101
twice 5102
Monats 5103
gehabt 5104
54 5105
UN@@ 5106
Bow@@ 5107
legislation 5108
Company 5109
Nachfrage 5110
Geld@@ 5111
retten 5112
relief 5113
image 5114
internationale 5115
Guardian 5116
domin@@ 5117
59 5118
low@@ 5119
Live 5120
Ges@@ 5121
ander@@ 5122
tru@@ 5123
sitting 5124
Million 5125
Wol@@ 5126
Back@@ 5127
stolz 5128
Repräsentantenhaus 5129
bid 5130
Bruder 5131
gleich@@ 5132
pool 5133
Chancen 5134
vin 5135
gabe 5136
yourself 5137
Gerichts@@ 5138
elled 5139
backed 5140
remained 5141
Verbrechen 5142
sitzen 5143
verfügt 5144
hö@@ 5145
Innen@@ 5146
gruppe 5147
Co-@@ 5148
schuldig 5149
let@@ 5150
passengers 5151
Jersey 5152
Fotos 5153
Tran@@ 5154
Mueller 5155
secure 5156
ermöglicht 5157
reduzieren 5158
increasingly 5159
pur@@ 5160
pal@@ 5161
Wei@@ 5162
Barcelona 5163
part@@ 5164
protection 5165
Plan@@ 5166
isiert 5167
Tom@@ 5168
increasing 5169
Sitz 5170
Kno@@ 5171
Polizisten 5172
inst@@ 5173
Besuch 5174
Mi@@ 5175
Sho@@ 5176
5. 5177
Tor 5178
erk@@ 5179
erg@@ 5180
projects 5181
ete 5182
owned 5183
develop 5184
fired 5185
FILE 5186
vol@@ 5187
gelassen 5188
Top-@@ 5189
Fußball@@ 5190
Little 5191
57 5192
Best 5193
Dan 5194
liert 5195
Pas@@ 5196
mobile 5197
Parteien 5198
bul@@ 5199
teilten 5200
Angebot 5201
stellung 5202
approved 5203
ebenso 5204
bers 5205
Bürger 5206
mittel 5207
ola 5208
ado 5209
betroffen 5210
ame 5211
island 5212
meaning 5213
arm 5214
ard@@ 5215
wär@@ 5216
Licht 5217
sag@@ 5218
voted 5219
Abstimmung 5220
Good 5221
Plattform 5222
40@@ 5223
tweet 5224
pul@@ 5225
Unter 5226
struggling 5227
56 5228
finish 5229
Niveau 5230
risks 5231
Großbritanniens 5232
kr@@ 5233
writer 5234
Beijing 5235
Mittel@@ 5236
declined 5237
akes 5238
fte 5239
Live-@@ 5240
sky 5241
episode 5242
severe 5243
guard 5244
yes 5245
ckte 5246
Van 5247
cli@@ 5248
Energie 5249
fort@@ 5250
beautiful 5251
unden 5252
orders 5253
werk 5254
ella 5255
BJP 5256
gesamte 5257
Year 5258
IC@@ 5259
rent 5260
finding 5261
happening 5262
The@@ 5263
ton@@ 5264
entdeckt 5265
NBA 5266
itäten 5267
extremely 5268
stattdessen 5269
lieben 5270
schwarzen 5271
tak@@ 5272
Ty@@ 5273
genutzt 5274
Niederlage 5275
zurückkehren 5276
Bir@@ 5277
Reise@@ 5278
Rad@@ 5279
Dun@@ 5280
wy@@ 5281
scheme 5282
zo@@ 5283
Quarantäne 5284
ith 5285
allowing 5286
wies 5287
rau@@ 5288
Kommentare 5289
records 5290
colleagues 5291
Cap@@ 5292
vollen 5293
yards 5294
Heute 5295
standard 5296
syn@@ 5297
Investitionen 5298
Beschränkungen 5299
58 5300
Nieder@@ 5301
miss 5302
Großteil 5303
begannen 5304
Kopf@@ 5305
produce 5306
yl@@ 5307
lots 5308
ion@@ 5309
Vielleicht 5310
staatlichen 5311
verlor 5312
satz 5313
Tar@@ 5314
Urteil 5315
ffen 5316
Stra@@ 5317
hohen 5318
removed 5319
Z 5320
ey@@ 5321
broken 5322
neu@@ 5323
bestimmte 5324
wolle 5325
require 5326
eins 5327
Lord 5328
novel 5329
slow 5330
ust 5331
Once 5332
victim 5333
Stadium 5334
declared 5335
discovered 5336
erklärten 5337
höher 5338
dürfen 5339
alter 5340
Geschäfte 5341
proposed 5342
unable 5343
onto 5344
UPI 5345
covered 5346
lawyer 5347
ona 5348
kes 5349
Grenzen 5350
Trump-@@ 5351
Arbeit@@ 5352
zw@@ 5353
animals 5354
armed 5355
weren 5356
eigentlich 5357
feature 5358
sobald 5359
Blue 5360
endlich 5361
reporting 5362
trifft 5363
elected 5364
responded 5365
Atlanta 5366
sorgen 5367
Arbeiter 5368
Louis 5369
boss 5370
ful@@ 5371
Hamilton 5372
Selbst 5373
toll 5374
guy 5375
attorney 5376
th-@@ 5377
Fußball 5378
nt 5379
mes 5380
cells 5381
istischen 5382
wan 5383
üh@@ 5384
rei@@ 5385
dark 5386
democracy 5387
fish 5388
1.000 5389
sound 5390
erzielte 5391
Vis@@ 5392
produced 5393
Vegas 5394
construction 5395
wichtigsten 5396
auen 5397
geöffnet 5398
indi@@ 5399
ko 5400
ativen 5401
Cho@@ 5402
Weihnachts@@ 5403
mark@@ 5404
advantage 5405
Gold 5406
Tim@@ 5407
Berichten 5408
guilty 5409
long-term 5410
Handel 5411
ppen 5412
stelle 5413
itt@@ 5414
Spitze 5415
ruling 5416
erzählt 5417
ita 5418
Berichte 5419
audience 5420
kers 5421
Änderungen 5422
201@@ 5423
Tottenham 5424
arbeit 5425
proud 5426
Murray 5427
billi@@ 5428
governor 5429
ischem 5430
Grenz@@ 5431
Speaking 5432
ssen 5433
Prä@@ 5434
aps 5435
2005 5436
Nations 5437
tert 5438
Symptome 5439
draw 5440
measure 5441
flights 5442
ri 5443
Barr 5444
Tat 5445
wins 5446
opportunities 5447
seek 5448
existing 5449
doubt 5450
rou@@ 5451
On@@ 5452
ous@@ 5453
g-@@ 5454
Services 5455
appeal 5456
zogen 5457
willing 5458
sicher@@ 5459
int 5460
öffentlich 5461
Gemeinde 5462
Freunden 5463
enjoy 5464
igkeit 5465
nice 5466
verpflichtet 5467
ony 5468
Eric 5469
ku@@ 5470
regional 5471
touch 5472
pan@@ 5473
alternative 5474
sch 5475
rally 5476
Reporting 5477
appearance 5478
ki 5479
tors 5480
Miller 5481
arrest 5482
Kre@@ 5483
platz 5484
Q 5485
guys 5486
Anzahl 5487
sle@@ 5488
Minnesota 5489
lige 5490
genießen 5491
conflict 5492
ake 5493
MORE 5494
blo@@ 5495
kennen 5496
Pil@@ 5497
Ross 5498
university 5499
sister 5500
popul@@ 5501
Beg@@ 5502
Film@@ 5503
DC 5504
LA 5505
introduced 5506
Community 5507
famous 5508
vari@@ 5509
enforcement 5510
bling 5511
Amy 5512
Firma 5513
fashion 5514
fühle 5515
wichtiger 5516
Agency 5517
Worte 5518
Director 5519
experienced 5520
dische 5521
ture 5522
ie-@@ 5523
tation 5524
angekündigt 5525
Yorker 5526
defeat 5527
tells 5528
J. 5529
Bernie 5530
Lösung 5531
Ob@@ 5532
-up 5533
May@@ 5534
but@@ 5535
sun@@ 5536
verdienen 5537
verdient 5538
lock 5539
Politiker 5540
Verletzungen 5541
vollständig 5542
grew 5543
ining 5544
play@@ 5545
Neil 5546
auer 5547
Feld 5548
ures 5549
Board 5550
Whit@@ 5551
ju@@ 5552
VI@@ 5553
Wuhan 5554
linie 5555
_ 5556
Festival 5557
Justin 5558
pushed 5559
Hände 5560
Labor 5561
führer 5562
ahl 5563
Cle@@ 5564
behalten 5565
Ash@@ 5566
doctor 5567
core 5568
exc@@ 5569
Freundin 5570
Officer 5571
scheinen 5572
conversation 5573
documents 5574
heben 5575
tungs@@ 5576
gefragt 5577
insurance 5578
count 5579
Telefon@@ 5580
sanctions 5581
bought 5582
learned 5583
aries 5584
micro@@ 5585
geplant 5586
Gesamt@@ 5587
Ly@@ 5588
anstatt 5589
Auto@@ 5590
ek 5591
ight 5592
ping 5593
breaking 5594
Irish 5595
Syria 5596
supported 5597
Gelegenheit 5598
zieht 5599
Let 5600
p-@@ 5601
Über 5602
Three 5603
session 5604
user 5605
Dra@@ 5606
5,000 5607
worried 5608
SA 5609
MEHR 5610
85 5611
Lady 5612
Pressekonferenz 5613
God 5614
suggests 5615
Pence 5616
creating 5617
hohe 5618
ME@@ 5619
LE@@ 5620
blu@@ 5621
struck 5622
accounts 5623
Zusammen@@ 5624
fication 5625
Mul@@ 5626
Nachrichten@@ 5627
clean 5628
ped 5629
Dam@@ 5630
erscheinen 5631
balance 5632
work@@ 5633
2006 5634
Ressourcen 5635
Sorge 5636
spr@@ 5637
fy 5638
cho@@ 5639
paying 5640
schweren 5641
Steven 5642
za 5643
Gemeinden 5644
Val@@ 5645
jährigen 5646
Wisconsin 5647
amazing 5648
sive 5649
Bühne 5650
Gol@@ 5651
überprüfen 5652
drama 5653
spokesperson 5654
dollars 5655
Palace 5656
transfer 5657
spor@@ 5658
operating 5659
dungen 5660
truth 5661
tigkeit 5662
Market 5663
eingesetzt 5664
20. 5665
Covid-19-@@ 5666
N.@@ 5667
Reisen 5668
influence 5669
cuts 5670
tex@@ 5671
wachsen 5672
sie@@ 5673
Medien@@ 5674
chairman 5675
Air@@ 5676
long-@@ 5677
E-Mail 5678
x-@@ 5679
Met@@ 5680
trägt 5681
ES@@ 5682
Mission 5683
elles 5684
ols 5685
tens 5686
machten 5687
weiteres 5688
fun@@ 5689
tritt 5690
schn@@ 5691
giant 5692
Awards 5693
kel@@ 5694
Rückgang 5695
nation@@ 5696
heits@@ 5697
bert 5698
pel 5699
Hunderte 5700
Zealand 5701
Jonathan 5702
Größe 5703
gol@@ 5704
deine 5705
items 5706
Video@@ 5707
Ol@@ 5708
gri@@ 5709
male 5710
Jungen 5711
Tab@@ 5712
spring 5713
ort 5714
ater 5715
teil@@ 5716
vs 5717
wards 5718
backs 5719
poll 5720
Ti@@ 5721
davor 5722
Jr 5723
ici@@ 5724
shops 5725
vehicles 5726
ante 5727
politicians 5728
eat 5729
miss@@ 5730
photos 5731
alle@@ 5732
Abschluss 5733
vierten 5734
post-@@ 5735
ev@@ 5736
CDC 5737
My@@ 5738
organization 5739
starten 5740
studies 5741
wirtschaftliche 5742
Arbeitsplätze 5743
führten 5744
bigger 5745
seats 5746
lim@@ 5747
Ali 5748
bezahlen 5749
whatever 5750
80@@ 5751
Schiff 5752
Lan@@ 5753
sou@@ 5754
ter-@@ 5755
Tal@@ 5756
River 5757
einander 5758
Videos 5759
ills 5760
McConnell 5761
criticism 5762
ians 5763
parliament 5764
Sou@@ 5765
younger 5766
erinnert 5767
fall@@ 5768
aufgefordert 5769
Gold@@ 5770
ual 5771
Wahrheit 5772
oms 5773
gold 5774
Roberts 5775
hörte 5776
führung 5777
größere 5778
CNBC 5779
REUTERS 5780
Cl@@ 5781
ep 5782
tiges 5783
ids 5784
Einzel@@ 5785
müsse 5786
stuff 5787
unglaublich 5788
Jason 5789
squad 5790
analysis 5791
frag@@ 5792
übernehmen 5793
Straßen@@ 5794
initially 5795
crash 5796
distance 5797
Anderson 5798
names 5799
Aus 5800
promised 5801
Yards 5802
cer@@ 5803
feiern 5804
zuerst 5805
Foreign 5806
spieler 5807
troops 5808
sleep 5809
complex 5810
plenty 5811
essi@@ 5812
birth 5813
20-@@ 5814
aker 5815
easily 5816
Liber@@ 5817
ron 5818
greifen 5819
unde 5820
Before 5821
Fal@@ 5822
ji 5823
Ford 5824
location 5825
Iranian 5826
großes 5827
Flug@@ 5828
atory 5829
Under 5830
Dallas 5831
helps 5832
sei@@ 5833
ib@@ 5834
album 5835
ail 5836
ligen 5837
Einfluss 5838
Henry 5839
untersucht 5840
Ca@@ 5841
2003 5842
solle 5843
dam@@ 5844
gent@@ 5845
Ban@@ 5846
ap 5847
Reportern 5848
danach 5849
roll 5850
low-@@ 5851
31. 5852
ga 5853
Post@@ 5854
loan 5855
Series 5856
demokratische 5857
eng 5858
melden 5859
trading 5860
Damit 5861
Schwierigkeiten 5862
Tür 5863
wirk@@ 5864
Mid@@ 5865
SP@@ 5866
Türkei 5867
72 5868
Rechte 5869
Pres@@ 5870
path 5871
Bob 5872
Öl@@ 5873
debut 5874
neten 5875
Trust 5876
ase 5877
cour@@ 5878
ax@@ 5879
ierenden 5880
U-@@ 5881
Wild@@ 5882
schutz@@ 5883
bau 5884
Es@@ 5885
Teilen 5886
starken 5887
walking 5888
Lab@@ 5889
accept 5890
makers 5891
lab@@ 5892
är 5893
agree 5894
suit 5895
Lake 5896
Schn@@ 5897
L.A. 5898
Your 5899
tran@@ 5900
sau@@ 5901
chain 5902
suggest 5903
15. 5904
Haw@@ 5905
unseres 5906
'I 5907
gebaut 5908
Vorschlag 5909
rare 5910
5.000 5911
Ankündigung 5912
offenbar 5913
sees 5914
smaller 5915
sil@@ 5916
champion 5917
tons 5918
700 5919
ty@@ 5920
Herz@@ 5921
Vice 5922
Watch 5923
lten 5924
Heim@@ 5925
fle@@ 5926
ß 5927
ign@@ 5928
tan@@ 5929
opp@@ 5930
ken@@ 5931
spiele 5932
yo@@ 5933
wes@@ 5934
Kam@@ 5935
gain 5936
Stri@@ 5937
enthalten 5938
remaining 5939
Pi@@ 5940
internet 5941
Moore 5942
mus 5943
Infektionen 5944
south 5945
kin@@ 5946
Ker@@ 5947
Gebiet 5948
Alles 5949
Tweet 5950
ener 5951
maßnahmen 5952
lag@@ 5953
Las 5954
commercial 5955
grün@@ 5956
Staffel 5957
Nu@@ 5958
Veröffentlichung 5959
Wer@@ 5960
Hom@@ 5961
entlang 5962
MI@@ 5963
boys 5964
tournament 5965
person@@ 5966
Personal 5967
erklären 5968
ther 5969
Preis@@ 5970
ks@@ 5971
Branche 5972
camp 5973
choose 5974
reduced 5975
Waffen@@ 5976
understanding 5977
sharing 5978
wind 5979
winter 5980
Green@@ 5981
ähnliche 5982
ITV 5983
Alexander 5984
decide 5985
alismus 5986
ata 5987
Law 5988
Hinter@@ 5989
din@@ 5990
ized 5991
NE@@ 5992
entschied 5993
lage 5994
ences 5995
ental 5996
richtigen 5997
Weihnachten 5998
cas@@ 5999
images 6000
presence 6001
vorne 6002
ells 6003
fal@@ 6004
ßt 6005
Dienstleistungen 6006
tar@@ 6007
ate@@ 6008
Mak@@ 6009
Zeitraum 6010
tiv@@ 6011
ough 6012
Sy@@ 6013
atur 6014
sets 6015
Ba@@ 6016
seriously 6017
Sher@@ 6018
Cur@@ 6019
repeatedly 6020
well-@@ 6021
freedom 6022
pulled 6023
Minute 6024
heat 6025
europäischen 6026
medizinische 6027
plan@@ 6028
suffering 6029
achten 6030
sought 6031
Rose 6032
expressed 6033
Ian 6034
cold 6035
crew 6036
SA@@ 6037
Ni@@ 6038
Joseph 6039
sick 6040
limit 6041
Renn@@ 6042
sec@@ 6043
dist@@ 6044
üt@@ 6045
Iraq 6046
initial 6047
Stand@@ 6048
partners 6049
Durch@@ 6050
Macron 6051
ron@@ 6052
Internet 6053
Schwester 6054
rac@@ 6055
Nik@@ 6056
tage 6057
ards 6058
Zuschauer 6059
wir@@ 6060
igh@@ 6061
schwere 6062
Diego 6063
Earth 6064
UN 6065
Colorado 6066
exp@@ 6067
allows 6068
assault 6069
boost 6070
persönlichen 6071
Mail 6072
supporting 6073
ession 6074
gewählt 6075
Beide 6076
extreme 6077
Wohnung 6078
Option 6079
ium 6080
spe@@ 6081
reich@@ 6082
00@@ 6083
failure 6084
ga@@ 6085
Jahrzehnten 6086
discuss 6087
matches 6088
einst 6089
infrastructure 6090
w-@@ 6091
wichtigen 6092
Microsoft 6093
Beitrag 6094
Hongkong 6095
zing 6096
jahr 6097
larger 6098
surprise 6099
Sinn 6100
herunter@@ 6101
pro-@@ 6102
recht 6103
Every 6104
cool 6105
Morning 6106
GB 6107
exercise 6108
Fu@@ 6109
returning 6110
Londoner 6111
ließen 6112
moments 6113
Mittel 6114
stau@@ 6115
überall 6116
arms 6117
provides 6118
2001 6119
Meter 6120
tz 6121
Atom@@ 6122
Sonnen@@ 6123
Earlier 6124
lawmakers 6125
unique 6126
Fire 6127
videos 6128
Philadelphia 6129
erhöht 6130
bus 6131
equ@@ 6132
Bus@@ 6133
stoff@@ 6134
thanks 6135
apart 6136
tal 6137
mum 6138
mache 6139
Trau@@ 6140
ministers 6141
leiten 6142
gern 6143
Me 6144
inj@@ 6145
alist 6146
allegedly 6147
sites 6148
solution 6149
Fernseh@@ 6150
quick 6151
traffic 6152
dar 6153
sicherlich 6154
dance 6155
Behauptungen 6156
Drogen@@ 6157
fears 6158
Einer 6159
essen@@ 6160
lets 6161
benen 6162
dale 6163
Sc@@ 6164
About 6165
Ren@@ 6166
environmental 6167
erst@@ 6168
phase 6169
extended 6170
delivered 6171
iPhone 6172
psych@@ 6173
Bord 6174
extrem 6175
stic 6176
North@@ 6177
Aufnahmen 6178
Nummer 6179
immigration 6180
erlebt 6181
amb@@ 6182
angeboten 6183
Jeff 6184
Ministry 6185
Its 6186
Führer 6187
Fund 6188
chan@@ 6189
survey 6190
Umfragen 6191
erfolgreich 6192
tot 6193
ries 6194
violent 6195
swe@@ 6196
Josh 6197
messages 6198
or-@@ 6199
shift 6200
Sie@@ 6201
airport 6202
Control 6203
wedding 6204
rig@@ 6205
Stadt@@ 6206
forms 6207
bru@@ 6208
halt 6209
Stellungnahme 6210
Einschränkungen 6211
Europäischen 6212
circumstances 6213
storm 6214
gem 6215
Ag@@ 6216
chter 6217
Jamie 6218
church 6219
bo 6220
pi@@ 6221
guter 6222
Körper@@ 6223
blue 6224
Spaß 6225
genen 6226
Umwelt@@ 6227
Jun@@ 6228
Sex 6229
Kultur 6230
Tory 6231
bungen 6232
pose 6233
Channel 6234
NBC 6235
guidelines 6236
länger 6237
liber@@ 6238
species 6239
van@@ 6240
tin 6241
Gesetze 6242
Pet@@ 6243
9-@@ 6244
tional 6245
suspended 6246
window 6247
üch@@ 6248
established 6249
Mus@@ 6250
Turn@@ 6251
display 6252
ingen 6253
tief 6254
Manhattan 6255
Executive 6256
turning 6257
Bildung 6258
reagieren 6259
richtige 6260
firms 6261
oul@@ 6262
OK 6263
zuletzt 6264
11. 6265
Jan@@ 6266
sat@@ 6267
tte 6268
Privat@@ 6269
19. 6270
shots 6271
gefallen 6272
Mama 6273
uss@@ 6274
Training 6275
Trump-Regierung 6276
sehe 6277
Lie@@ 6278
filled 6279
Spiels 6280
geh@@ 6281
racism 6282
iled 6283
Former 6284
county 6285
visitors 6286
Tru@@ 6287
bottom 6288
facility 6289
payments 6290
Christ@@ 6291
Arabia 6292
Obersten 6293
na@@ 6294
lied 6295
MA@@ 6296
Asia 6297
Golden 6298
6. 6299
ierungen 6300
handeln 6301
Sprache 6302
bn 6303
apply 6304
Repräsentantenhauses 6305
wild 6306
Den 6307
conducted 6308
footage 6309
transport 6310
CA 6311
Pul@@ 6312
beamten 6313
gerufen 6314
wish 6315
zug 6316
rely 6317
Spitzen@@ 6318
cra@@ 6319
erlaubt 6320
ergab 6321
Academy 6322
Food 6323
heit@@ 6324
Rau@@ 6325
hil@@ 6326
argued 6327
goods 6328
Klage 6329
Crown 6330
Figur 6331
Wahlkampf@@ 6332
2004 6333
lief 6334
erie 6335
journey 6336
bodies 6337
Band 6338
harte 6339
persönliche 6340
TO@@ 6341
Ret@@ 6342
ishing 6343
bezahlt 6344
raten 6345
Pause 6346
isierung 6347
isolation 6348
Photo 6349
warm 6350
ero@@ 6351
itive 6352
Or 6353
Oregon 6354
emerged 6355
ased 6356
gesp@@ 6357
zul@@ 6358
Notwendigkeit 6359
developing 6360
Morrison 6361
Jahrzehnt 6362
films 6363
nearby 6364
schottischen 6365
70@@ 6366
Ali@@ 6367
ech@@ 6368
kill 6369
Front 6370
test@@ 6371
teile 6372
chair 6373
10. 6374
geraten 6375
olog@@ 6376
verfolgt 6377
Insel 6378
healthcare 6379
Mensch 6380
Natur 6381
ierende 6382
l-@@ 6383
lig@@ 6384
Spo@@ 6385
fällt 6386
Well 6387
maker 6388
Pra@@ 6389
bessere 6390
lte 6391
Verfahren 6392
verfügbar 6393
nisse 6394
Flughafen 6395
Punkten 6396
fuel 6397
seitdem 6398
Jahrhundert 6399
Anti@@ 6400
ison 6401
rufen 6402
privaten 6403
Theresa 6404
Strategie 6405
Plus 6406
gelten 6407
Barack 6408
immediate 6409
Only 6410
ological 6411
Rem@@ 6412
dungs@@ 6413
pointed 6414
amed 6415
chung 6416
geteilt 6417
Überprüfung 6418
Beste 6419
degree 6420
Army 6421
Allen 6422
7. 6423
Angesichts 6424
Klimawandel 6425
picked 6426
Gegen@@ 6427
iker 6428
dru@@ 6429
lehnte 6430
ump 6431
zuzu@@ 6432
Demokratie 6433
verbringen 6434
isieren 6435
agencies 6436
reopen 6437
inner 6438
ungsp@@ 6439
uss 6440
Schauspielerin 6441
determined 6442
bon@@ 6443
Medi@@ 6444
potenziell 6445
Gegend 6446
istische 6447
fahrt 6448
tigung 6449
Buttigieg 6450
Arch@@ 6451
ram@@ 6452
Spielern 6453
notwendig 6454
Norden 6455
ine@@ 6456
sion@@ 6457
staatliche 6458
unc@@ 6459
ultimately 6460
ppe 6461
64 6462
the-@@ 6463
atten@@ 6464
Social-Media-@@ 6465
clu@@ 6466
fifth 6467
eit 6468
expert 6469
Tex@@ 6470
igkeiten 6471
four-@@ 6472
cs 6473
Uber 6474
leaves 6475
tä@@ 6476
Außerdem 6477
lit@@ 6478
enzen 6479
dritte 6480
saison 6481
Bat@@ 6482
write 6483
Unterschied 6484
beschäftigt 6485
deals 6486
conc@@ 6487
fordert 6488
stood 6489
closer 6490
Hen@@ 6491
stated 6492
Sozial@@ 6493
unlikely 6494
ham@@ 6495
Human 6496
Lauf 6497
Mun@@ 6498
Sto@@ 6499
bestimmten 6500
shopping 6501
Klasse 6502
Aktivisten 6503
ome@@ 6504
dige 6505
ca@@ 6506
Bru@@ 6507
hoping 6508
Realität 6509
inquiry 6510
fan@@ 6511
located 6512
Labour-@@ 6513
Still 6514
schreibt 6515
Long 6516
reading 6517
aussehen 6518
Project 6519
Vorwürfe 6520
buying 6521
mand@@ 6522
pra@@ 6523
unemployment 6524
respon@@ 6525
FA 6526
hurt 6527
singer 6528
tier 6529
öl@@ 6530
Gas@@ 6531
Bridge 6532
Mexiko 6533
kins 6534
dert 6535
Nar@@ 6536
TV@@ 6537
familiar 6538
Drittel 6539
prove 6540
Coast 6541
Hum@@ 6542
Gary 6543
weapons 6544
lesen 6545
schlägt 6546
programs 6547
LI@@ 6548
spro@@ 6549
our@@ 6550
Square 6551
Ausgaben 6552
TA 6553
Herzen 6554
findings 6555
aircraft 6556
cri@@ 6557
ening 6558
interests 6559
Weiße 6560
trac@@ 6561
Fac@@ 6562
Italian 6563
conduct 6564
Restaurant 6565
wick 6566
han@@ 6567
gesetz@@ 6568
-based 6569
referendum 6570
stecken 6571
aks 6572
Todes@@ 6573
daten 6574
polls 6575
Erde 6576
wr@@ 6577
defence 6578
maintain 6579
Southern 6580
Hunter 6581
artist 6582
eri@@ 6583
bedeuten 6584
obviously 6585
usual 6586
adults 6587
Yo@@ 6588
solchen 6589
Football 6590
Yes 6591
exchange 6592
remove 6593
ade@@ 6594
Collins 6595
cro@@ 6596
welcome 6597
Aut@@ 6598
package 6599
Lang@@ 6600
ika 6601
schön 6602
tlichen 6603
Bes@@ 6604
Wettbewerb 6605
surgery 6606
medizinischen 6607
Can 6608
Flugzeug 6609
Spanien 6610
ester 6611
Alabama 6612
treat 6613
widely 6614
30. 6615
Name 6616
ome 6617
Democrat 6618
Lebensmittel 6619
Pap@@ 6620
folgt 6621
Pacific 6622
fen@@ 6623
Optionen 6624
collection 6625
weiße 6626
completed 6627
tac@@ 6628
ffs 6629
Journal 6630
eating 6631
250 6632
ny 6633
sahen 6634
commitment 6635
plastic 6636
Quellen 6637
kno@@ 6638
für@@ 6639
lungs@@ 6640
yard 6641
9. 6642
favourite 6643
nor@@ 6644
Cameron 6645
ge-@@ 6646
viral 6647
negotiations 6648
Tatsächlich 6649
gericht 6650
phones 6651
feld 6652
nar@@ 6653
religious 6654
tigten 6655
tag@@ 6656
burn 6657
unit 6658
8. 6659
migrants 6660
northern 6661
dienste 6662
offiziellen 6663
Laura 6664
weitgehend 6665
mehr@@ 6666
mittel@@ 6667
crimes 6668
Bei@@ 6669
ened 6670
Fähigkeiten 6671
Tesla 6672
considering 6673
ct 6674
carbon 6675
Dr@@ 6676
Städte 6677
quali@@ 6678
Editing 6679
Downing 6680
Le 6681
Rekord@@ 6682
Galaxy 6683
drivers 6684
inspired 6685
listed 6686
Schuss 6687
Kirche 6688
kti@@ 6689
houses 6690
stadt 6691
nennen 6692
identifiziert 6693
wat@@ 6694
möchten 6695
charity 6696
second-@@ 6697
Les@@ 6698
kenn@@ 6699
watched 6700
ins@@ 6701
hung 6702
Up 6703
becomes 6704
fügt 6705
Richtlinien 6706
crucial 6707
nations 6708
urn@@ 6709
studio 6710
speci@@ 6711
f-@@ 6712
roughly 6713
66 6714
Queensland 6715
Off@@ 6716
doors 6717
Administration 6718
dest@@ 6719
aver@@ 6720
Ziele 6721
abgeschlossen 6722
decken 6723
knowledge 6724
Massen@@ 6725
Osten 6726
anda 6727
gy@@ 6728
eröffnet 6729
versuchten 6730
App@@ 6731
Verbindungen 6732
Gil@@ 6733
estate 6734
gate 6735
royal 6736
Menschen@@ 6737
institutions 6738
Musik@@ 6739
yan 6740
Cuomo 6741
OR@@ 6742
aches 6743
ye 6744
Fast 6745
erfahren 6746
ör@@ 6747
farmers 6748
67 6749
Rücken 6750
zweimal 6751
Nancy 6752
fein@@ 6753
recht@@ 6754
fires 6755
persönlich 6756
CB@@ 6757
birthday 6758
Roll@@ 6759
jährige 6760
Afrika 6761
Ebene 6762
geschichte 6763
fördern 6764
Gott 6765
SE 6766
euch 6767
gh 6768
associated 6769
Regierungschefs 6770
Darüber 6771
easier 6772
slightly 6773
Kin@@ 6774
bridge 6775
Power 6776
Basis 6777
Bidens 6778
carrying 6779
vely 6780
bs@@ 6781
voraussichtlich 6782
erstes 6783
mü@@ 6784
Cohen 6785
Verkehrs@@ 6786
confident 6787
untersuchen 6788
ehrlich 6789
consumers 6790
wil@@ 6791
Bolton 6792
Care 6793
alized 6794
Massachusetts 6795
TikTok 6796
Buch@@ 6797
Kansas 6798
ar-@@ 6799
animal 6800
everybody 6801
mach@@ 6802
sam@@ 6803
Rivalen 6804
Wa@@ 6805
ck-@@ 6806
Ost@@ 6807
Leicester 6808
Family 6809
pitch 6810
publicly 6811
alls 6812
cel@@ 6813
hr 6814
größeren 6815
FI@@ 6816
Kanada 6817
deeply 6818
Journalisten 6819
Oxford 6820
liz@@ 6821
Bul@@ 6822
alisierung 6823
bat@@ 6824
62 6825
penalty 6826
aly@@ 6827
Gordon 6828
Championship 6829
Distanzierung 6830
Villa 6831
Besucher 6832
Gerichtshof 6833
Stone 6834
sü@@ 6835
Rock 6836
Zeitung 6837
net@@ 6838
Jobs 6839
süd@@ 6840
hau@@ 6841
beamte 6842
bla@@ 6843
tik@@ 6844
Rap@@ 6845
targeted 6846
cent@@ 6847
sonst 6848
10.@@ 6849
Verteidigung 6850
dness 6851
Stattdessen 6852
63 6853
structure 6854
umfasst 6855
erforderlich 6856
standen 6857
Sekunden 6858
vent@@ 6859
DI@@ 6860
mine 6861
Sil@@ 6862
cultural 6863
tere 6864
stress 6865
ston 6866
mayor 6867
activists 6868
opinion 6869
reform 6870
R-@@ 6871
bol@@ 6872
incredible 6873
sper@@ 6874
terte 6875
attended 6876
worker 6877
strength 6878
ruled 6879
Gedanken 6880
Aufgabe 6881
priority 6882
Tour@@ 6883
steigt 6884
Dur@@ 6885
Wahlkampf 6886
Society 6887
Cummings 6888
Newcastle 6889
Dennoch 6890
ände 6891
spann@@ 6892
DNA 6893
Ja@@ 6894
proposal 6895
Dec@@ 6896
mid@@ 6897
russischen 6898
Männern 6899
eres 6900
corruption 6901
attend 6902
chef 6903
organis@@ 6904
adds 6905
enthüllt 6906
my@@ 6907
dliche 6908
suspect 6909
krank 6910
ships 6911
nis@@ 6912
näher 6913
Rat@@ 6914
expensive 6915
fly 6916
Preise 6917
Filme 6918
drawn 6919
12. 6920
loo@@ 6921
Venezuela 6922
Analyse 6923
Bou@@ 6924
secret 6925
receiving 6926
edge 6927
direction 6928
ander 6929
funktionieren 6930
ex-@@ 6931
Brooklyn 6932
Klein@@ 6933
pay@@ 6934
CH@@ 6935
iling 6936
Mikro@@ 6937
Phil 6938
allies 6939
Var@@ 6940
Lehrer 6941
Ange@@ 6942
Law@@ 6943
agent 6944
western 6945
Peking 6946
Haut 6947
emissions 6948
Herr@@ 6949
Roman 6950
pictures 6951
possibility 6952
driven 6953
atoren 6954
angenommen 6955
of-@@ 6956
regelmäßig 6957
virtual 6958
approval 6959
MA 6960
Gegensatz 6961
21. 6962
Soldaten 6963
Sn@@ 6964
falling 6965
IR@@ 6966
Amtszeit 6967
Russell 6968
fewer 6969
Verbraucher 6970
geholfen 6971
banned 6972
likes 6973
Arzt 6974
Irland 6975
tigte 6976
Sin@@ 6977
Cambridge 6978
Fernsehen 6979
Staatsanwaltschaft 6980
Top@@ 6981
hood 6982
großartig 6983
Daten@@ 6984
hinter@@ 6985
losses 6986
Volk 6987
Berater 6988
Middle 6989
selten 6990
Verwendung 6991
Energie@@ 6992
Spurs 6993
fig@@ 6994
ops 6995
üsse 6996
continuing 6997
Urlaub 6998
conservative 6999
plants 7000
mir@@ 7001
Taliban 7002
false 7003
mouth 7004
DA 7005
zunehmend 7006
dem@@ 7007
konzentriert 7008
Staats- 7009
Walker 7010
Kritiker 7011
Dame 7012
newspaper 7013
tten 7014
Winter 7015
Ap@@ 7016
lon@@ 7017
veröffentlichten 7018
bitten 7019
Schaden 7020
lawyers 7021
listen 7022
Ster@@ 7023
corner 7024
connection 7025
mak@@ 7026
achieve 7027
eck 7028
meines 7029
decline 7030
itation 7031
komplett 7032
richten 7033
Span@@ 7034
knapp 7035
Bowl 7036
spät 7037
struggle 7038
Jennifer 7039
werte 7040
guidance 7041
Rassismus 7042
stattfinden 7043
12-@@ 7044
Teenager 7045
ular 7046
nor 7047
freuen 7048
impossible 7049
mm@@ 7050
Aktie 7051
supposed 7052
Fokus 7053
pet@@ 7054
ush 7055
erzählte 7056
Conservative 7057
diert 7058
seconds 7059
truly 7060
chs@@ 7061
identify 7062
Str@@ 7063
marriage 7064
worry 7065
Sean 7066
teachers 7067
Fra@@ 7068
vorher@@ 7069
Covid-@@ 7070
spo@@ 7071
2002 7072
derung 7073
späten 7074
Bush 7075
Rights 7076
southern 7077
Standard 7078
Ten@@ 7079
rock 7080
op 7081
interested 7082
greatest 7083
Euro@@ 7084
bis@@ 7085
excited 7086
Vir@@ 7087
McC@@ 7088
Lehr@@ 7089
east 7090
fung 7091
ideas 7092
ph 7093
inform@@ 7094
französischen 7095
jail 7096
Bar 7097
lö@@ 7098
Lisa 7099
Kennedy 7100
hate 7101
Matthew 7102
nam@@ 7103
p.m 7104
Sau@@ 7105
alised 7106
article 7107
unless 7108
Cu@@ 7109
selben 7110
Cr@@ 7111
Dro@@ 7112
powers 7113
ss 7114
Arbeitnehmer 7115
langsam 7116
ose 7117
GOP 7118
mei@@ 7119
Anhänger 7120
Mark@@ 7121
yed 7122
matters 7123
äch@@ 7124
Aaron 7125
Waffen 7126
transition 7127
Den@@ 7128
kel 7129
yst@@ 7130
wunder@@ 7131
Berlin 7132
Song 7133
18. 7134
Indi@@ 7135
einiger 7136
Nav@@ 7137
chn@@ 7138
letztlich 7139
vital 7140
Künstler 7141
entirely 7142
Miss 7143
Sex@@ 7144
isch-@@ 7145
tlich 7146
„ 7147
Reserve 7148
aming 7149
festgestellt 7150
Robinson 7151
Photograph 7152
factors 7153
gelt 7154
hielten 7155
reden 7156
23@@ 7157
NASA 7158
bung 7159
ind 7160
split 7161
skills 7162
heads 7163
aktiv 7164
claiming 7165
Schlaf@@ 7166
delay 7167
Philip 7168
illness 7169
Independent 7170
Solskjaer 7171
Medikamente 7172
Nachbarn 7173
super 7174
behaviour 7175
sing@@ 7176
Dal@@ 7177
ood 7178
retail 7179
lawsuit 7180
sco@@ 7181
igt 7182
Look 7183
fill 7184
sprachen 7185
rechten 7186
lights 7187
les@@ 7188
wiederholt 7189
angewiesen 7190
Investoren 7191
dierte 7192
ktiv 7193
dress 7194
seasons 7195
angegriffen 7196
Michelle 7197
vergessen 7198
el-@@ 7199
seh@@ 7200
coverage 7201
electric 7202
Tore 7203
gruppen 7204
Gerechtigkeit 7205
vit@@ 7206
Dienst 7207
12.@@ 7208
licht 7209
sammeln 7210
ni@@ 7211
Geh@@ 7212
garden 7213
ih@@ 7214
Special 7215
profit 7216
bes 7217
dream 7218
Gegner 7219
Pass 7220
consequences 7221
enth@@ 7222
ball@@ 7223
dlichen 7224
Zweifel 7225
jemandem 7226
lang@@ 7227
blick 7228
jeweils 7229
dlich 7230
insisted 7231
Status 7232
SNP 7233
Japanese 7234
Vorteile 7235
imposed 7236
spoken 7237
Westen 7238
ink@@ 7239
riesige 7240
racial 7241
ari 7242
agen@@ 7243
angeht 7244
wand@@ 7245
grown 7246
arbeit@@ 7247
ungspro@@ 7248
Cooper 7249
ela 7250
mus@@ 7251
Vereinigte 7252
alisiert 7253
illing 7254
wirkt 7255
lig 7256
Herz 7257
rival 7258
-Serie 7259
Sü@@ 7260
operate 7261
Jose 7262
Bay@@ 7263
Weitere 7264
fiz@@ 7265
Schlüssel@@ 7266
Kil@@ 7267
causing 7268
Auftritt 7269
Oder 7270
tree 7271
industrie 7272
soci@@ 7273
link 7274
Westminster 7275
qui@@ 7276
itz 7277
Hay@@ 7278
passing 7279
Mach@@ 7280
trä@@ 7281
Afri@@ 7282
Kunst 7283
te-@@ 7284
5G 7285
77 7286
Birmingham 7287
Besitzer 7288
rejected 7289
vir@@ 7290
Out 7291
Anwälte 7292
Justiz@@ 7293
oured 7294
Opposition 7295
14. 7296
Korean 7297
Landes@@ 7298
affect 7299
fraud 7300
relativ 7301
maxim@@ 7302
Verhandlungen 7303
cou@@ 7304
Partei@@ 7305
Zeichen 7306
actress 7307
Neben 7308
Risiken 7309
duty 7310
Sussex 7311
show@@ 7312
zentrum 7313
Vizepräsident 7314
fern 7315
parks 7316
68 7317
walked 7318
Vier@@ 7319
Unser 7320
update 7321
Armee 7322
stream 7323
Junge 7324
Four 7325
Brand@@ 7326
Mumbai 7327
ahn@@ 7328
racist 7329
folge 7330
angesehen 7331
Rugby 7332
TI@@ 7333
threatened 7334
eten 7335
schneller 7336
beobachten 7337
vorgeworfen 7338
relatively 7339
Pfund 7340
entfernen 7341
wahr@@ 7342
Mol@@ 7343
Cook 7344
ernst 7345
chances 7346
visited 7347
Ris@@ 7348
closely 7349
geschaffen 7350
schlechte 7351
Airlines 7352
bars 7353
kommen@@ 7354
Voll@@ 7355
threats 7356
raising 7357
gän@@ 7358
schätzen 7359
Augen@@ 7360
acker 7361
handed 7362
captain 7363
Science 7364
startete 7365
Passagiere 7366
returns 7367
Senior 7368
Kentucky 7369
Mrs 7370
ständig 7371
tonight 7372
ss@@ 7373
basic 7374
schicken 7375
ink 7376
gekauft 7377
assistance 7378
geworfen 7379
iel 7380
marked 7381
vast 7382
itor 7383
worldwide 7384
Lar@@ 7385
ada 7386
historic 7387
stag 7388
leg 7389
regime 7390
wohn@@ 7391
coast 7392
küh@@ 7393
Organisationen 7394
PC 7395
Ga@@ 7396
cell 7397
surge 7398
authority 7399
haus 7400
2,000 7401
pper 7402
Brazil 7403
Design 7404
Migranten 7405
Verfassung 7406
joint 7407
leads 7408
Murphy 7409
gesetz 7410
tum@@ 7411
lösen 7412
multi@@ 7413
wake 7414
oned 7415
tackle 7416
leid 7417
registered 7418
rick 7419
cont@@ 7420
lichem 7421
Match 7422
ator@@ 7423
Volks@@ 7424
Mitchell 7425
significantly 7426
Natürlich 7427
Banken 7428
beschrieb 7429
Finanzierung 7430
it-@@ 7431
task 7432
Nevada 7433
hits 7434
pfen 7435
section 7436
fangen 7437
HI@@ 7438
Taiwan 7439
devices 7440
ys@@ 7441
ähnlich 7442
challenging 7443
pushing 7444
öch@@ 7445
MS@@ 7446
Eis@@ 7447
ativ 7448
Pool 7449
Grundlage 7450
digt 7451
iken 7452
echte 7453
ght 7454
krimin@@ 7455
verein@@ 7456
senken 7457
1999 7458
deputy 7459
ity-@@ 7460
Joshua 7461
Worten 7462
exposed 7463
viewers 7464
notice 7465
Erinnerung 7466
Sommer@@ 7467
17. 7468
ank 7469
träge 7470
Ehr@@ 7471
hofft 7472
Fan 7473
bekannte 7474
models 7475
Prof@@ 7476
wiesen 7477
defin@@ 7478
utes 7479
Sudan 7480
Reis@@ 7481
Rock@@ 7482
stimmt 7483
tom@@ 7484
tierten 7485
verbracht 7486
Wissen 7487
haften 7488
verließ 7489
cru@@ 7490
meetings 7491
Illinois 7492
weist 7493
prior 7494
coun@@ 7495
top@@ 7496
geschafft 7497
deck@@ 7498
Jahres@@ 7499
Tages@@ 7500
ly@@ 7501
Tories 7502
Republic 7503
stable 7504
Londons 7505
Vision 7506
planen 7507
Ken@@ 7508
possibly 7509
wach@@ 7510
ading 7511
GA@@ 7512
gewarnt 7513
eman 7514
statements 7515
half-@@ 7516
software 7517
ats@@ 7518
block@@ 7519
endete 7520
bag 7521
presented 7522
Charlotte 7523
krank@@ 7524
village 7525
Kommission 7526
Pete 7527
Duke 7528
lichkeiten 7529
potenziellen 7530
Cli@@ 7531
Kath@@ 7532
Wo@@ 7533
explain 7534
Qualität 7535
ays 7536
eigenes 7537
dry 7538
glass 7539
L-@@ 7540
contributed 7541
100,000 7542
13. 7543
dan@@ 7544
acts 7545
100.000 7546
Craig 7547
relations 7548
Fenster 7549
Ton@@ 7550
erinnerte 7551
lie 7552
dogs 7553
Pau@@ 7554
festival 7555
Rep. 7556
Evans 7557
kitchen 7558
NS@@ 7559
Samsung 7560
Städten 7561
tab@@ 7562
laden 7563
fünf@@ 7564
eingeführt 7565
zus@@ 7566
ele 7567
Os@@ 7568
ables 7569
61 7570
Außenminister 7571
Ist 7572
täglichen 7573
turns 7574
endet 7575
toren 7576
mitgeteilt 7577
Theater 7578
hef@@ 7579
pos@@ 7580
brau@@ 7581
radio 7582
beendet 7583
typ@@ 7584
rie 7585
esses 7586
tical 7587
COVID 7588
dent@@ 7589
ück@@ 7590
sentence 7591
directed 7592
determine 7593
Auswahl 7594
McDonald 7595
Night 7596
oper@@ 7597
supp@@ 7598
identity 7599
Princess 7600
dur@@ 7601
requires 7602
erleben 7603
ücken 7604
Jon 7605
Sonne 7606
beit@@ 7607
potenzielle 7608
digung 7609
closing 7610
hole 7611
Fortschritte 7612
digte 7613
kümmern 7614
Maria 7615
signing 7616
Raj@@ 7617
harm 7618
ite@@ 7619
Sei@@ 7620
itu@@ 7621
Cel@@ 7622
bern 7623
Bildungs@@ 7624
Engagement 7625
connected 7626
74 7627
bled 7628
essing 7629
zy 7630
mitt@@ 7631
Süden 7632
wen 7633
71 7634
Vertreter 7635
Oklahoma 7636
dum@@ 7637
2.000 7638
Roger 7639
halte 7640
heim@@ 7641
therefore 7642
catch 7643
z-@@ 7644
bte 7645
smart 7646
entered 7647
90@@ 7648
teacher 7649
Energy 7650
Alan 7651
Potenzial 7652
acted 7653
Under@@ 7654
dienen 7655
prosecutors 7656
Teil@@ 7657
ktive 7658
ares 7659
Mayor 7660
Ele@@ 7661
Priorität 7662
tou@@ 7663
drängen 7664
ett@@ 7665
Ay@@ 7666
intended 7667
hängt 7668
11.@@ 7669
Music 7670
independence 7671
Kauf 7672
bekämpfen 7673
bir@@ 7674
Education 7675
müssten 7676
Free 7677
them@@ 7678
25. 7679
ades 7680
esch@@ 7681
Veranstaltungen 7682
Schutz@@ 7683
Lat@@ 7684
pap@@ 7685
Go 7686
eding 7687
Leiter 7688
kämpft 7689
ordnung 7690
Az@@ 7691
unabhängig 7692
Gam@@ 7693
Reporter 7694
Asian 7695
comfortable 7696
characters 7697
derte 7698
Truppen 7699
nord@@ 7700
stehe 7701
PS@@ 7702
Tech 7703
Berichterstattung 7704
earned 7705
Fri@@ 7706
Dominic 7707
nis 7708
ierend 7709
perform 7710
Dazu 7711
Ed 7712
Jur@@ 7713
pieces 7714
Though 7715
mate 7716
senden 7717
motor@@ 7718
marks 7719
duc@@ 7720
m-@@ 7721
assistant 7722
AF@@ 7723
enthält 7724
76 7725
friendly 7726
brings 7727
Netz@@ 7728
um-@@ 7729
Strecke 7730
aimed 7731
Mangel 7732
Initiative 7733
til@@ 7734
Hillary 7735
sup@@ 7736
Charlie 7737
appropriate 7738
Development 7739
founder 7740
lerin 7741
See 7742
prü@@ 7743
widespread 7744
ou 7745
pull 7746
unver@@ 7747
Are 7748
otherwise 7749
Schlag 7750
aro@@ 7751
temporary 7752
index 7753
kick 7754
bereich 7755
earnings 7756
Jac@@ 7757
drink 7758
Ära 7759
Tel@@ 7760
Tory-@@ 7761
fahrer 7762
Anhörung 7763
notes 7764
interesting 7765
keiner 7766
adviser 7767
et-@@ 7768
stoffe 7769
einf@@ 7770
Schuld 7771
corporate 7772
youth 7773
läu@@ 7774
sit@@ 7775
Hancock 7776
Team@@ 7777
Children 7778
zusätzlichen 7779
alt@@ 7780
Visier 7781
schaft@@ 7782
beschrieben 7783
Flug 7784
betra@@ 7785
deuten 7786
nete 7787
payment 7788
Among 7789
rechte 7790
Gast@@ 7791
danger 7792
inge 7793
shape 7794
73 7795
deshalb 7796
Bekämpfung 7797
getr@@ 7798
causes 7799
ourselves 7800
therapy 7801
Hotels 7802
ahl@@ 7803
barkeit 7804
Marine 7805
lo 7806
prepare 7807
2022 7808
100@@ 7809
Laden 7810
kampf 7811
Stewart 7812
surface 7813
mail 7814
50.000 7815
69 7816
profession@@ 7817
Woods 7818
internal 7819
Hampshire 7820
Sept 7821
Spanish 7822
Anna 7823
gutes 7824
Ministerpräsident 7825
cker@@ 7826
Minneapolis 7827
buildings 7828
kräfte 7829
Protest 7830
Capital 7831
Games 7832
regularly 7833
counts 7834
äh@@ 7835
dens 7836
importance 7837
panel 7838
mel 7839
Fauci 7840
teln 7841
celebrate 7842
Analy@@ 7843
har 7844
angen 7845
pace 7846
Ideen 7847
gewinnt 7848
Liefer@@ 7849
generally 7850
Verletzung 7851
arm@@ 7852
brauchte 7853
separ@@ 7854
Gor@@ 7855
Sprecherin 7856
consumer 7857
roads 7858
ease 7859
Nas@@ 7860
Kurs 7861
Teilnehmer 7862
pit@@ 7863
com 7864
ologist 7865
gas@@ 7866
coalition 7867
ministry 7868
ented 7869
text 7870
stab@@ 7871
größer 7872
beigetragen 7873
positions 7874
scoring 7875
effectively 7876
fertig 7877
genauso 7878
waste 7879
reagierte 7880
höchsten 7881
stärker 7882
stor@@ 7883
alisieren 7884
unn@@ 7885
soldiers 7886
none 7887
lern 7888
Krankenhäuser 7889
Amts@@ 7890
aktiv@@ 7891
wahl@@ 7892
Church 7893
werten 7894
Ansicht 7895
controlled 7896
Modell 7897
schließt 7898
dor@@ 7899
ni 7900
gradu@@ 7901
Detroit 7902
dinner 7903
Kader 7904
Sturgeon 7905
Erfahrungen 7906
Utah 7907
ello 7908
Emma 7909
Zimmer 7910
manage 7911
occurred 7912
Emp@@ 7913
Instagram-@@ 7914
journalist 7915
-Sieg 7916
Cour@@ 7917
zweit@@ 7918
demands 7919
nahme 7920
tern@@ 7921
Forderungen 7922
code 7923
protected 7924
artists 7925
kun@@ 7926
pop 7927
täglich 7928
wine 7929
inning 7930
psychische 7931
list@@ 7932
Winter@@ 7933
bene 7934
unprecedented 7935
nten 7936
mitteilte 7937
mögen 7938
supplies 7939
iens 7940
ica 7941
Financial 7942
F-@@ 7943
den-@@ 7944
Rand@@ 7945
thank 7946
Coun@@ 7947
Back 7948
Gewicht 7949
ba@@ 7950
gebrochen 7951
staying 7952
denkt 7953
values 7954
terin 7955
.co.uk 7956
add@@ 7957
pack@@ 7958
Christopher 7959
Pop@@ 7960
möglichen 7961
RI@@ 7962
vorbereitet 7963
Where 7964
regul@@ 7965
tra 7966
val@@ 7967
Früh@@ 7968
uner@@ 7969
töten 7970
wn@@ 7971
16. 7972
spra@@ 7973
gegründet 7974
se-@@ 7975
tives 7976
Dave 7977
shock 7978
eingereicht 7979
holte 7980
unmöglich 7981
Dav@@ 7982
clients 7983
wert@@ 7984
RA@@ 7985
icht@@ 7986
perfekt 7987
bestehen 7988
dank 7989
Cricket 7990
deadly 7991
Brand 7992
räumte 7993
weit@@ 7994
Jimmy 7995
mond 7996
Bio@@ 7997
Nat@@ 7998
ame@@ 7999
dating 8000
erreichte 8001
pil@@ 8002
NO@@ 8003
aking 8004
ll 8005
ministerium 8006
Award 8007
ric 8008
Muslim 8009
shi@@ 8010
guests 8011
flow 8012
flying 8013
gemeinsamen 8014
moves 8015
Giuliani 8016
Stand 8017
ases 8018
schwer@@ 8019
Sicht 8020
Leuten 8021
Rab@@ 8022
physi@@ 8023
zero 8024
Analysten 8025
dagegen 8026
posts 8027
Niemand 8028
Rus@@ 8029
chin@@ 8030
sat 8031
aya 8032
Disease 8033
cau@@ 8034
typically 8035
30-@@ 8036
Briten 8037
bilden 8038
Fair@@ 8039
Defense 8040
minim@@ 8041
Up@@ 8042
Heimat 8043
headed 8044
shortly 8045
Hunt 8046
Station 8047
dat@@ 8048
thr@@ 8049
Zwei@@ 8050
PS 8051
60@@ 8052
journalists 8053
BI@@ 8054
holds 8055
Bett 8056
gek@@ 8057
Adams 8058
Maske 8059
elec@@ 8060
Twitter-@@ 8061
0er 8062
Betrieb 8063
Nationalen 8064
purpose 8065
Bitte 8066
SI@@ 8067
soli@@ 8068
rice 8069
häufig 8070
experiences 8071
änden 8072
dges 8073
lic 8074
ond 8075
iter 8076
Tisch 8077
führende 8078
understood 8079
regarding 8080
Wider@@ 8081
encourage 8082
vest@@ 8083
bli@@ 8084
mes@@ 8085
rell 8086
HO@@ 8087
Grant 8088
Gewinn 8089
puts 8090
hört 8091
ups 8092
imagine 8093
Karte 8094
ältere 8095
Met 8096
fähigkeit 8097
Hot@@ 8098
liste 8099
Ul@@ 8100
ki@@ 8101
Regen@@ 8102
ehr@@ 8103
schen@@ 8104
überrascht 8105
mix 8106
boat 8107
zwingen 8108
Rex 8109
beach 8110
yle 8111
talent 8112
Train@@ 8113
types 8114
sucht 8115
Zoom 8116
attacked 8117
mod@@ 8118
nächstes 8119
teren 8120
unclear 8121
Fir@@ 8122
Drei 8123
weder 8124
relevant 8125
five-@@ 8126
dol@@ 8127
Antrag 8128
Kent 8129
isation 8130
schickte 8131
wenigen 8132
Anzeichen 8133
Hil@@ 8134
attempts 8135
freien 8136
dein 8137
cross 8138
Sea 8139
Anteil 8140
leu@@ 8141
ceremony 8142
involving 8143
CC@@ 8144
Dy@@ 8145
Fur@@ 8146
hervor 8147
Lives 8148
reaction 8149
sending 8150
Anne 8151
dealing 8152
län@@ 8153
raus 8154
foo@@ 8155
000 8156
temperatures 8157
Verbot 8158
trag 8159
hinzu@@ 8160
Has@@ 8161
gens 8162
Major 8163
ds@@ 8164
Co 8165
Uni@@ 8166
Bau 8167
Greg 8168
führ@@ 8169
stoff 8170
cc@@ 8171
Domin@@ 8172
neuesten 8173
streaming 8174
wirft 8175
Quar@@ 8176
Xi 8177
Fuß@@ 8178
Tennessee 8179
exist@@ 8180
lucky 8181
dollar 8182
ügen 8183
No. 8184
But@@ 8185
Thompson 8186
Todesopfer 8187
infiziert 8188
acher 8189
erschossen 8190
aggressive 8191
ideal 8192
Autor 8193
clinical 8194
combined 8195
route 8196
Jane 8197
frei@@ 8198
tenden 8199
Ah@@ 8200
handle 8201
DO@@ 8202
Ve@@ 8203
outcome 8204
Ankunft 8205
verletzung 8206
struggled 8207
busy 8208
üben 8209
ER 8210
teste 8211
Krankenhaus@@ 8212
Tiere 8213
trees 8214
ähnlichen 8215
B-@@ 8216
neg@@ 8217
esh 8218
wirst 8219
sun 8220
loans 8221
verglichen 8222
locations 8223
tied 8224
gele@@ 8225
sad 8226
RO@@ 8227
mon 8228
rop@@ 8229
gap 8230
orts 8231
siert 8232
harder 8233
agu@@ 8234
Mir@@ 8235
dozens 8236
rech@@ 8237
Islamic 8238
offizielle 8239
ont 8240
tariffs 8241
diger 8242
bende 8243
spre@@ 8244
verfahren 8245
Freiheit 8246
Cou@@ 8247
stag@@ 8248
Einkommen 8249
ling@@ 8250
Toronto 8251
Erholung 8252
onal 8253
Goo@@ 8254
flat 8255
red@@ 8256
Hund 8257
dozen 8258
verbrachte 8259
fällen 8260
regions 8261
Wiedereröffnung 8262
empty 8263
gal@@ 8264
sin@@ 8265
stick 8266
Fall@@ 8267
Stell@@ 8268
materials 8269
BS 8270
Fisch@@ 8271
spots 8272
anger 8273
forecast 8274
Kleidung 8275
ouse 8276
ref@@ 8277
schul@@ 8278
1997 8279
contain 8280
nationwide 8281
Conference 8282
Zeugen 8283
führenden 8284
heavily 8285
temperature 8286
riesigen 8287
Behörde 8288
Atlantic 8289
dienst@@ 8290
Verständnis 8291
faith 8292
trend 8293
diversity 8294
ride 8295
stuck 8296
Sitzung 8297
hi 8298
ce-@@ 8299
explains 8300
zig 8301
territory 8302
Umgang 8303
proved 8304
throw 8305
ffe 8306
identifizieren 8307
sex@@ 8308
covering 8309
color 8310
Haushalts@@ 8311
letzter 8312
fro@@ 8313
bereit@@ 8314
Natur@@ 8315
schüt@@ 8316
komple@@ 8317
Türen 8318
vern@@ 8319
trouble 8320
Halb@@ 8321
schule 8322
Verteidiger 8323
tische 8324
Lakers 8325
ST@@ 8326
fs 8327
heading 8328
chers 8329
spl@@ 8330
scenes 8331
dul@@ 8332
taxes 8333
vorzu@@ 8334
Anspruch 8335
Orte 8336
50-@@ 8337
customer 8338
sens@@ 8339
End@@ 8340
reveal 8341
geliefert 8342
Luke 8343
trafen 8344
Rekord 8345
Album 8346
Cham@@ 8347
Mitgliedern 8348
Umsatz 8349
ballots 8350
chron@@ 8351
kritisiert 8352
Trans@@ 8353
fing 8354
farm 8355
Herbst 8356
interpre@@ 8357
promise 8358
folgenden 8359
linken 8360
asse 8361
originally 8362
produzieren 8363
device 8364
fake 8365
Stellen 8366
Katie 8367
nden 8368
cycle 8369
planet 8370
Wut 8371
Wirkung 8372
Vorsprung 8373
Bild-Copyright 8374
politik 8375
Behauptung 8376
print 8377
Bryant 8378
apartment 8379
Pass@@ 8380
abgelehnt 8381
issen 8382
Ausland 8383
Space 8384
ination 8385
finals 8386
meldete 8387
erzielt 8388
bio@@ 8389
diskutieren 8390
gefangen 8391
rural 8392
assets 8393
drehen 8394
gs@@ 8395
founded 8396
I-@@ 8397
Mitteilung 8398
erer 8399
a.m. 8400
Howard 8401
bedeut@@ 8402
teilnehmen 8403
australischen 8404
Höhepunkt 8405
so-called 8406
Geist 8407
bedingungen 8408
tomorrow 8409
Sat@@ 8410
Szene 8411
Infektion 8412
attempted 8413
Stor@@ 8414
regulations 8415
alcohol 8416
dit@@ 8417
prof@@ 8418
BC 8419
78 8420
dürfte 8421
gangs 8422
bles 8423
convicted 8424
Sab@@ 8425
posed 8426
tik 8427
Mae 8428
erzählen 8429
Einführung 8430
AI@@ 8431
memory 8432
sichern 8433
Wright 8434
locked 8435
fähig 8436
appen 8437
Mannes 8438
ahn 8439
bestand 8440
checks 8441
grand@@ 8442
Lim@@ 8443
path@@ 8444
aim 8445
computer 8446
fliegen 8447
23. 8448
Network 8449
hervorgeht 8450
Index 8451
Gebieten 8452
trock@@ 8453
Dutzende 8454
Angelegenheit 8455
versuche 8456
replace 8457
Antonio 8458
punkte 8459
tliche 8460
Psych@@ 8461
Ü@@ 8462
informed 8463
Führungs@@ 8464
offensive 8465
ples 8466
Notfall@@ 8467
resolution 8468
Chaos 8469
barer 8470
custody 8471
feu@@ 8472
Judge 8473
Blu@@ 8474
TE@@ 8475
improved 8476
Flüge 8477
lebte 8478
songs 8479
Kandidat 8480
purchase 8481
Welle 8482
coffee 8483
behavior 8484
Avenue 8485
Käufer 8486
schi@@ 8487
Vielzahl 8488
op-@@ 8489
thinks 8490
wagen 8491
still@@ 8492
ursprünglich 8493
Pin@@ 8494
ect 8495
lad@@ 8496
preise 8497
Six 8498
Pel@@ 8499
rescue 8500
aside 8501
Durch 8502
Emily 8503
alities 8504
verursachen 8505
alive 8506
rey 8507
surprised 8508
hard@@ 8509
Forschungs@@ 8510
rivals 8511
is-@@ 8512
peak 8513
Freude 8514
Südafrika 8515
räumen 8516
division 8517
humans 8518
Produc@@ 8519
reaching 8520
honest 8521
Navy 8522
ool 8523
deut@@ 8524
ored 8525
critics 8526
Powell 8527
slo@@ 8528
abl@@ 8529
pt 8530
Good@@ 8531
FDA 8532
Ehe 8533
Newsom 8534
draft 8535
Bil@@ 8536
Austin 8537
eted 8538
Planeten 8539
plötzlich 8540
manufacturing 8541
15-@@ 8542
russische 8543
teilweise 8544
Zei@@ 8545
controversial 8546
Hills 8547
Motor@@ 8548
Wetter 8549
organizations 8550
akzeptieren 8551
aufzubauen 8552
dringend 8553
ov 8554
GMT 8555
Verteidigungs@@ 8556
fern@@ 8557
Price 8558
meat 8559
Jam@@ 8560
Leeds 8561
entr@@ 8562
Att@@ 8563
Columbia 8564
Gründen 8565
leiden 8566
kle@@ 8567
behörden 8568
sitzt 8569
Ful@@ 8570
End 8571
od@@ 8572
88 8573
solutions 8574
Dutzend 8575
Il@@ 8576
gelernt 8577
Besu@@ 8578
Vietnam 8579
Set 8580
schedule 8581
höchste 8582
interessiert 8583
teen 8584
minimum 8585
stimmte 8586
Vin@@ 8587
formed 8588
vin@@ 8589
Vorsitzender 8590
produziert 8591
Saison@@ 8592
Park@@ 8593
cky 8594
tensions 8595
politischer 8596
practices 8597
Angel@@ 8598
Tit@@ 8599
stiegen 8600
Interviews 8601
K-@@ 8602
ziel@@ 8603
Stürmer 8604
Denk@@ 8605
protective 8606
stocks 8607
off-@@ 8608
änder 8609
französische 8610
10,000 8611
Flu@@ 8612
Später 8613
lierte 8614
Asi@@ 8615
äm@@ 8616
complaint 8617
rol@@ 8618
trials 8619
zutiefst 8620
sicherstellen 8621
trotzdem 8622
Aktien@@ 8623
Gener@@ 8624
diagnosed 8625
frie@@ 8626
wussten 8627
gering@@ 8628
geblieben 8629
probe 8630
PR 8631
tie 8632
Treasury 8633
Golf 8634
anniversary 8635
recovered 8636
zeichnet 8637
lauf@@ 8638
Tech-@@ 8639
disaster 8640
award 8641
Frieden 8642
tende 8643
performed 8644
beauty 8645
suspected 8646
si 8647
Imp@@ 8648
ET 8649
Einheit 8650
army 8651
shouldn 8652
failing 8653
pack 8654
glück@@ 8655
Schließung 8656
Trade 8657
Lampard 8658
freie 8659
Sonder@@ 8660
Bab@@ 8661
wütend 8662
courts 8663
Wege 8664
ency 8665
beschlossen 8666
mechan@@ 8667
Angriffe 8668
uncertainty 8669
veteran 8670
wis@@ 8671
29. 8672
behaupten 8673
instance 8674
begins 8675
Gov. 8676
Play@@ 8677
Sav@@ 8678
Centers 8679
succ@@ 8680
atives 8681
ritt 8682
Action 8683
background 8684
rist@@ 8685
Krebs 8686
berech@@ 8687
thro@@ 8688
ress 8689
Jewish 8690
analyst 8691
Dublin 8692
Moscow 8693
abortion 8694
engaged 8695
Missbrauch 8696
partnership 8697
zerstört 8698
Ari@@ 8699
hergestellt 8700
News@@ 8701
q 8702
fü@@ 8703
wal 8704
unterwegs 8705
sustainable 8706
Terror@@ 8707
intensive 8708
Gemein@@ 8709
las 8710
eling 8711
Geor@@ 8712
Mourinho 8713
Fehl@@ 8714
care@@ 8715
jo 8716
ow@@ 8717
iss 8718
Carter 8719
uni@@ 8720
Kyle 8721
obvious 8722
Schnitt 8723
landen 8724
finance 8725
Medicine 8726
milli@@ 8727
Satz 8728
Schüsse 8729
Pun@@ 8730
pot 8731
reveals 8732
threatening 8733
sicht 8734
Gäste 8735
Syrien 8736
Louisiana 8737
Stil 8738
follows 8739
Rob 8740
lift 8741
Person@@ 8742
represents 8743
Ki@@ 8744
V-@@ 8745
saß 8746
upcoming 8747
14-@@ 8748
agents 8749
Cy@@ 8750
dien@@ 8751
therap@@ 8752
87 8753
Kern@@ 8754
Bureau 8755
folgte 8756
Einrichtungen 8757
spreading 8758
strah@@ 8759
tures 8760
Programme 8761
Anklage 8762
sozi@@ 8763
asser@@ 8764
Auge 8765
Krankheiten 8766
dun@@ 8767
bten 8768
10.000 8769
yers 8770
handling 8771
unge@@ 8772
hafte 8773
talked 8774
Orten 8775
Haft@@ 8776
eff@@ 8777
weigerte 8778
Schmerzen 8779
Lag@@ 8780
Get 8781
füllen 8782
benötigen 8783
targets 8784
anxiety 8785
geleitet 8786
rang@@ 8787
Stimmung 8788
impressive 8789
any@@ 8790
tries 8791
joining 8792
Lockdown-@@ 8793
Musk 8794
grade 8795
schottische 8796
cards 8797
argument 8798
Gefängnis@@ 8799
eindeutig 8800
Ausbildung 8801
Staates 8802
Fru@@ 8803
ausgelöst 8804
verpasst 8805
Dem 8806
ions 8807
quar@@ 8808
Militär 8809
erinnere 8810
79 8811
Warner 8812
factor 8813
gefordert 8814
aufen 8815
cop@@ 8816
ition@@ 8817
dieren 8818
Gur@@ 8819
Fury 8820
wander@@ 8821
Division 8822
Gran@@ 8823
Partnerschaft 8824
Wählern 8825
tering 8826
Roh@@ 8827
1998 8828
Clark 8829
reopening 8830
ao 8831
Margaret 8832
pounds 8833
vaccines 8834
Berufung 8835
retired 8836
roten 8837
Portland 8838
personnel 8839
Hi@@ 8840
betrachten 8841
surrounding 8842
Amerikas 8843
poverty 8844
Stat@@ 8845
dachten 8846
gedacht 8847
mins 8848
entry 8849
incredibly 8850
airline 8851
progressive 8852
All-@@ 8853
Standards 8854
inhaftiert 8855
Produkt 8856
ktion@@ 8857
permanent 8858
CI@@ 8859
mitglieder 8860
Diana 8861
exit 8862
umb@@ 8863
Rachel 8864
agenda 8865
visiting 8866
mögliche 8867
Glauben 8868
classic 8869
Pay@@ 8870
wealth 8871
Attorney 8872
systeme 8873
tiny 8874
Israeli 8875
denk@@ 8876
brand@@ 8877
compet@@ 8878
granted 8879
iff@@ 8880
intensi@@ 8881
neck 8882
PO@@ 8883
Airport 8884
Five 8885
defensive 8886
mun@@ 8887
Maduro 8888
Ereignisse 8889
buil@@ 8890
alien 8891
Parks 8892
Praxis 8893
blame 8894
happ@@ 8895
wasser@@ 8896
Grün@@ 8897
dorthin 8898
trol@@ 8899
ersetzen 8900
featured 8901
ministeriums 8902
at-@@ 8903
Nicola 8904
Lauf@@ 8905
Min 8906
24. 8907
mers 8908
abe 8909
household 8910
tue 8911
raus@@ 8912
ray 8913
Verbündeten 8914
Boy@@ 8915
Leistungen 8916
advance 8917
survive 8918
Elektro@@ 8919
22. 8920
Verbesserung 8921
-jähriger 8922
day@@ 8923
shirt 8924
fying 8925
gains 8926
nde 8927
ski@@ 8928
Marcus 8929
initiative 8930
orien 8931
refer@@ 8932
etten 8933
mäßig 8934
Bol@@ 8935
Spar@@ 8936
bewus@@ 8937
pregnant 8938
Matter 8939
wirken 8940
Chef@@ 8941
scientific 8942
1994 8943
Kel@@ 8944
Klopp 8945
alling 8946
cutting 8947
kürz@@ 8948
ergreifen 8949
nomin@@ 8950
Unterstützer 8951
discussed 8952
eting 8953
schie@@ 8954
Camp@@ 8955
behandeln 8956
handelte 8957
taten 8958
Oliver 8959
programm 8960
blieben 8961
histor@@ 8962
tief@@ 8963
Wood@@ 8964
offiziell 8965
elsewhere 8966
Leg@@ 8967
ry@@ 8968
summit 8969
Sender 8970
ek@@ 8971
tic@@ 8972
Islam@@ 8973
dedicated 8974
age@@ 8975
zäh@@ 8976
briefing 8977
competitive 8978
indischen 8979
Slo@@ 8980
uns@@ 8981
Put@@ 8982
Roy 8983
alists 8984
ballot 8985
brands 8986
Waren 8987
Jay 8988
jur@@ 8989
extension 8990
Ansichten 8991
Ci@@ 8992
drücken 8993
wedi 8994
Unsicherheit 8995
grounds 8996
remarks 8997
Haltung 8998
industrial 8999
author@@ 9000
platforms 9001
immune 9002
mobil@@ 9003
zeichen 9004
roles 9005
Unterdessen 9006
-Show 9007
Titel@@ 9008
ction 9009
kleiner 9010
Regionen 9011
Zy@@ 9012
Temperaturen 9013
aufhören 9014
essed 9015
Shel@@ 9016
D. 9017
illa 9018
.A. 9019
ING 9020
Clar@@ 9021
Prevention 9022
Local 9023
Sheriff 9024
accepted 9025
represent 9026
ause 9027
Schlag@@ 9028
properties 9029
voran@@ 9030
transmission 9031
Ach@@ 9032
Meeres@@ 9033
clothes 9034
besucht 9035
plac@@ 9036
ehen 9037
var@@ 9038
apparently 9039
tory 9040
Zuhause 9041
enthüllte 9042
zuversichtlich 9043
Rettungs@@ 9044
Tokyo 9045
harten 9046
que@@ 9047
Week 9048
Inst@@ 9049
movies 9050
investigating 9051
tale 9052
with@@ 9053
wuchs 9054
Doppel@@ 9055
camp@@ 9056
una 9057
Daher 9058
iner 9059
Gesundheit@@ 9060
Tempo 9061
classes 9062
angry 9063
finanzielle 9064
machine 9065
Wunsch 9066
estimates 9067
Kombination 9068
Iran@@ 9069
leich@@ 9070
verboten 9071
weißt 9072
wore 9073
Sing@@ 9074
expectations 9075
Kapit@@ 9076
Bell 9077
creative 9078
autom@@ 9079
Bla@@ 9080
Denn 9081
nen@@ 9082
Schreiben 9083
Mobil@@ 9084
constitutional 9085
ene@@ 9086
frage 9087
leiter 9088
Prin@@ 9089
zählt 9090
Guard 9091
Neuseeland 9092
Wissenschaft 9093
Cyber@@ 9094
Danny 9095
Grad 9096
Kapitän 9097
berichten 9098
commission 9099
Versprechen 9100
stet 9101
chat 9102
min 9103
sten@@ 9104
abroad 9105
'n 9106
kraft 9107
system@@ 9108
participants 9109
Mann@@ 9110
consistent 9111
sh 9112
Kamera 9113
Rah@@ 9114
mung 9115
sieren 9116
no-@@ 9117
enc@@ 9118
kontrollieren 9119
ticket 9120
Gründer 9121
Typ 9122
dio 9123
druck 9124
LO@@ 9125
erfüllen 9126
Dol@@ 9127
General@@ 9128
colour 9129
toler@@ 9130
employee 9131
Update 9132
keiten 9133
scre@@ 9134
wärts 9135
Fach@@ 9136
Pur@@ 9137
Republik 9138
Saf@@ 9139
Wechsel 9140
Haup@@ 9141
geändert 9142
Eri@@ 9143
X-@@ 9144
keen 9145
rup@@ 9146
Spannungen 9147
stronger 9148
gerte 9149
ements 9150
ags 9151
application 9152
schte 9153
facts 9154
predic@@ 9155
gelegenen 9156
ires 9157
witness 9158
lauf 9159
Transport 9160
Watson 9161
arbeiteten 9162
lis 9163
ritten 9164
leitete 9165
ald 9166
bedroom 9167
Spec@@ 9168
Mehrere 9169
Be 9170
empf@@ 9171
afford 9172
ees 9173
mur@@ 9174
freue 9175
schöne 9176
tischen 9177
investigate 9178
Sw@@ 9179
appointed 9180
izing 9181
demo@@ 9182
Dat@@ 9183
bahn 9184
Regen 9185
steam 9186
Englands 9187
Orleans 9188
schwe@@ 9189
Anruf 9190
Nich@@ 9191
Steuern 9192
starben 9193
tin@@ 9194
Bereichen 9195
TH@@ 9196
gestartet 9197
reduziert 9198
Pic@@ 9199
Perry 9200
Rou@@ 9201
Geburtstag 9202
Eff@@ 9203
Kriegs@@ 9204
concluded 9205
groß@@ 9206
Märkte 9207
actual 9208
hob 9209
Net@@ 9210
rated 9211
mistake 9212
Will@@ 9213
documentary 9214
Stärke 9215
utter 9216
Chin@@ 9217
Schulden 9218
partei@@ 9219
Well@@ 9220
D.C. 9221
effektiv 9222
Each 9223
Sco@@ 9224
enjoyed 9225
richtet 9226
Firmen 9227
gefahren 9228
sequ@@ 9229
analysts 9230
escape 9231
Dou@@ 9232
ato 9233
Bundesregierung 9234
miteinander 9235
84 9236
cancelled 9237
Eddie 9238
vie@@ 9239
Drogen 9240
Antworten 9241
Beh@@ 9242
alisierte 9243
olo@@ 9244
82 9245
beschuldigt 9246
schten 9247
brief 9248
tured 9249
mi 9250
set@@ 9251
faster 9252
Billy 9253
Beamter 9254
Ecke 9255
Cleveland 9256
College-@@ 9257
Gewinner 9258
uk@@ 9259
John@@ 9260
zo 9261
Fahrt 9262
grand 9263
Schlüssel 9264
drei@@ 9265
Show@@ 9266
Several 9267
bitte 9268
Cat@@ 9269
uring 9270
conf@@ 9271
employment 9272
teur 9273
Technology 9274
suddenly 9275
Häusern 9276
please 9277
Ehemann 9278
kannst 9279
83 9280
acking 9281
Fun@@ 9282
Keine 9283
Ministerium 9284
gic 9285
W. 9286
berater 9287
zei@@ 9288
Chil@@ 9289
beeinflussen 9290
Geheim@@ 9291
kurzen 9292
besseren 9293
rechts 9294
Scho@@ 9295
stayed 9296
Organization 9297
aben 9298
Arena 9299
Everyone 9300
reagiert 9301
beru@@ 9302
Irak 9303
Waffe 9304
percentage 9305
iche 9306
BA 9307
ament 9308
gay 9309
kts 9310
Umgebung 9311
stän@@ 9312
fla@@ 9313
extend 9314
ktiven 9315
leitet 9316
ogra@@ 9317
Fahrzeug 9318
Bücher 9319
parent 9320
Edward 9321
Capitol 9322
Orange 9323
tain@@ 9324
chi 9325
discussion 9326
optim@@ 9327
01 9328
86 9329
Mohammed 9330
Sturm 9331
campus 9332
löste 9333
Omar 9334
definitiv 9335
replied 9336
geäußert 9337
mentioned 9338
ckten 9339
bound 9340
SN@@ 9341
contest 9342
delayed 9343
zierten 9344
Bailey 9345
Angela 9346
knowing 9347
stete 9348
Provinz 9349
hosts 9350
indic@@ 9351
Strom@@ 9352
advised 9353
schneiden 9354
up-@@ 9355
verteidiger 9356
Barrett 9357
gigen 9358
Kap@@ 9359
vorstellen 9360
iertes 9361
saved 9362
menschlichen 9363
vil@@ 9364
Gründe 9365
remote 9366
dankbar 9367
opping 9368
suicide 9369
älteren 9370
'r 9371
Maß 9372
bench 9373
wich 9374
aster 9375
ware 9376
Clarke 9377
26. 9378
Kas@@ 9379
Tyson 9380
heutigen 9381
Konservativen 9382
Dodgers 9383
Baker 9384
Faktoren 9385
anywhere 9386
Bruce 9387
ce@@ 9388
direc@@ 9389
pes 9390
priv@@ 9391
mo 9392
ül@@ 9393
Produ@@ 9394
replaced 9395
schlimmsten 9396
HBO 9397
Ang@@ 9398
Chi@@ 9399
menschliche 9400
apping 9401
exciting 9402
comedy 9403
Dienst@@ 9404
vollständige 9405
diet 9406
Governor 9407
Schäden 9408
Aussage 9409
diseases 9410
stör@@ 9411
Tei@@ 9412
ange 9413
producer 9414
flü@@ 9415
stru@@ 9416
erhielten 9417
Susan 9418
Sachen 9419
Dienste 9420
Tau@@ 9421
schuss 9422
totally 9423
variety 9424
spec@@ 9425
Anf@@ 9426
fehl@@ 9427
wä@@ 9428
Run 9429
Respekt 9430
elli 9431
Ferguson 9432
maximum 9433
27. 9434
US-Dollar 9435
Haft 9436
Sobald 9437
drinking 9438
gesellschaft 9439
expand 9440
Küche 9441
properly 9442
120 9443
900 9444
gesammelt 9445
reck@@ 9446
Ox@@ 9447
Band@@ 9448
anced 9449
Maryland 9450
combat 9451
dit 9452
Histor@@ 9453
Mississippi 9454
ausgegeben 9455
deutet 9456
rü@@ 9457
bet 9458
finanz@@ 9459
viol@@ 9460
Kli@@ 9461
Tan@@ 9462
dium 9463
influ@@ 9464
hängen 9465
Maybe 9466
gig 9467
hire 9468
arbeiter 9469
kehrte 9470
dramatic 9471
shr@@ 9472
nes 9473
suff@@ 9474
König@@ 9475
Änderung 9476
Blues 9477
Wohl@@ 9478
verteidigen 9479
fought 9480
proper 9481
belief 9482
Immobilien@@ 9483
occup@@ 9484
arrival 9485
esse 9486
gun@@ 9487
Jedes 9488
geld 9489
Work@@ 9490
preparing 9491
Brief@@ 9492
horse 9493
IP@@ 9494
A.@@ 9495
defend 9496
ive 9497
Campbell 9498
schnitt 9499
By@@ 9500
günst@@ 9501
lichsten 9502
normally 9503
discussions 9504
iser 9505
desire 9506
lay 9507
Meister@@ 9508
flat@@ 9509
NY@@ 9510
gence 9511
schlimmer 9512
Gavin 9513
Nur@@ 9514
aga 9515
quiet 9516
GM 9517
Indiens 9518
Ky@@ 9519
Stock 9520
haltung 9521
ias 9522
Berg@@ 9523
jury 9524
informiert 9525
Eis 9526
pour 9527
actors 9528
thor@@ 9529
bills 9530
wahlen 9531
organ@@ 9532
anhaltenden 9533
Tha@@ 9534
Schei@@ 9535
conspiracy 9536
pressed 9537
recalled 9538
Over@@ 9539
DA@@ 9540
Hintergrund 9541
read@@ 9542
mäch@@ 9543
passen 9544
numerous 9545
gained 9546
ermutigen 9547
forget 9548
comfort 9549
G-@@ 9550
accident 9551
bestätigten 9552
technical 9553
rolled 9554
tau@@ 9555
Klub 9556
vic@@ 9557
Kamala 9558
labor 9559
Vorsitzenden 9560
eme 9561
investieren 9562
Commons 9563
gemeinsame 9564
vertreten 9565
Tier 9566
ug@@ 9567
republikanischen 9568
aden@@ 9569
aked 9570
Vorteil 9571
art@@ 9572
Arab 9573
Einnahmen 9574
finds 9575
Nadal 9576
Abteilung 9577
Thailand 9578
dom@@ 9579
top-@@ 9580
Trend 9581
rape 9582
ätz@@ 9583
SO@@ 9584
Cast@@ 9585
MS 9586
Dom@@ 9587
Book 9588
Momente 9589
Blut 9590
Rassen@@ 9591
Raum@@ 9592
Turkish 9593
28. 9594
verschoben 9595
followers 9596
bekannten 9597
Medicare 9598
relationships 9599
ano@@ 9600
ly-@@ 9601
Dean 9602
acle 9603
zin@@ 9604
Turner 9605
gehörte 9606
opposed 9607
Ann@@ 9608
deadline 9609
gift 9610
trau@@ 9611
Ruf 9612
jährlichen 9613
zurückzukehren 9614
hoped 9615
represented 9616
citing 9617
schei@@ 9618
tender 9619
erwischt 9620
betonte 9621
kehrt 9622
Hou@@ 9623
einfache 9624
Netzwerk 9625
Asked 9626
utz@@ 9627
Story 9628
ösen 9629
antly 9630
Besitz 9631
currency 9632
trained 9633
Fro@@ 9634
dau@@ 9635
offices 9636
encouraged 9637
laid 9638
broad@@ 9639
Alaska 9640
Lor@@ 9641
gerin 9642
pas 9643
soft 9644
üs@@ 9645
Heimat@@ 9646
witnesses 9647
gathered 9648
unbedingt 9649
dle 9650
flag 9651
getragen 9652
Having 9653
ora 9654
tem@@ 9655
uen 9656
wonderful 9657
extraordinary 9658
mol@@ 9659
noti@@ 9660
CC 9661
beobachtet 9662
griffen 9663
Dubai 9664
dient 9665
brilliant 9666
Pit@@ 9667
oner 9668
Ry@@ 9669
gefähr@@ 9670
tools 9671
Tat@@ 9672
emo@@ 9673
50,000 9674
borough 9675
Lock@@ 9676
radi@@ 9677
Bom@@ 9678
S. 9679
ough@@ 9680
theit 9681
ermutigt 9682
umzu@@ 9683
dying 9684
fam@@ 9685
prominent 9686
investigations 9687
treiben 9688
conclu@@ 9689
Meg@@ 9690
magazine 9691
81 9692
continu@@ 9693
deln 9694
Films 9695
pen 9696
Verlängerung 9697
und-@@ 9698
Apps 9699
fru@@ 9700
id-@@ 9701
son-@@ 9702
Identität 9703
privacy 9704
C.@@ 9705
einz@@ 9706
Indiana 9707
besondere 9708
Lieferung 9709
uted 9710
units 9711
favorite 9712
wandte 9713
full-@@ 9714
ologische 9715
punkten 9716
communications 9717
postete 9718
sinn@@ 9719
Hinweise 9720
dated 9721
individu@@ 9722
PHOTO 9723
xes 9724
NI@@ 9725
borders 9726
lan 9727
Miss@@ 9728
Nordirland 9729
1992 9730
absolute 9731
promote 9732
bild 9733
anfangen 9734
ativer 9735
ida 9736
joy 9737
arrive 9738
judges 9739
luxury 9740
officially 9741
hadn 9742
Eli@@ 9743
schrift 9744
gige 9745
enge 9746
somebody 9747
stellvertretende 9748
Bud@@ 9749
Schwar@@ 9750
regierung 9751
forcing 9752
Yorkshire 9753
Etwa 9754
Mount 9755
equal 9756
kreu@@ 9757
referred 9758
stepped 9759
ared 9760
sely 9761
well@@ 9762
engen 9763
Drama 9764
Studios 9765
reiche 9766
Ale@@ 9767
Farbe 9768
Techn@@ 9769
Sektor 9770
wage 9771
herr@@ 9772
Mrd. 9773
acknowledged 9774
ensu@@ 9775
Lux@@ 9776
Start@@ 9777
winds 9778
strongly 9779
erle@@ 9780
entering 9781
räu@@ 9782
Ok@@ 9783
ury 9784
zentren 9785
ämp@@ 9786
increases 9787
Kranken@@ 9788
Ltd 9789
leistungs@@ 9790
devastating 9791
esten 9792
aufzunehmen 9793
presidency 9794
zent@@ 9795
Aussicht 9796
mischen 9797
Bis@@ 9798
val 9799
Angelegenheiten 9800
motion 9801
athletes 9802
democratic 9803
rein 9804
Kumar 9805
advanced 9806
Field 9807
Streit 9808
Bristol 9809
benden 9810
Chairman 9811
Cardiff 9812
Following 9813
Campus 9814
abgesagt 9815
reads 9816
1996 9817
Wood 9818
ve-@@ 9819
setzung 9820
Jeffrey 9821
tight 9822
ura 9823
Van@@ 9824
chern 9825
vity 9826
Kris@@ 9827
Material 9828
province 9829
gewal@@ 9830
werk@@ 9831
Budget 9832
R. 9833
hitting 9834
Wall@@ 9835
adult 9836
klar@@ 9837
Absicht 9838
Tommy 9839
breite 9840
spokeswoman 9841
bran@@ 9842
captured 9843
she@@ 9844
seln 9845
effizi@@ 9846
vorsichtig 9847
kat@@ 9848
rap@@ 9849
ausschuss 9850
historischen 9851
klei@@ 9852
400@@ 9853
square 9854
Jr. 9855
xing 9856
einfacher 9857
function 9858
hero 9859
UR@@ 9860
erei 9861
lifted 9862
preis@@ 9863
Pradesh 9864
behalf 9865
Beschwerde 9866
Buck@@ 9867
fur@@ 9868
abor@@ 9869
irgendwann 9870
89 9871
erscheint 9872
Debüt 9873
rt.com 9874
Model 9875
verse 9876
Mitch 9877
poll@@ 9878
unusual 9879
Gem@@ 9880
ira 9881
proc@@ 9882
sche@@ 9883
fair@@ 9884
dence 9885
Mill@@ 9886
zulassen 9887
races 9888
mm 9889
Box 9890
Wein@@ 9891
reflect 9892
Erwartungen 9893
tourism 9894
Zellen 9895
spotted 9896
fees 9897
IT 9898
Prüfung 9899
Bilanz 9900
Touristen 9901
Coo@@ 9902
Mich@@ 9903
balls 9904
Facebook-@@ 9905
specifically 9906
sensitive 9907
patri@@ 9908
reducing 9909
ero 9910
ologischen 9911
proof 9912
HIV 9913
bestätigen 9914
abkommen 9915
Schluss 9916
blocked 9917
reich 9918
tis 9919
knee 9920
six-@@ 9921
sätze 9922
Oscar 9923
besuchte 9924
Olympic 9925
Big@@ 9926
nie@@ 9927
ckey 9928
erlitten 9929
speaks 9930
Himmel 9931
Next 9932
sorry 9933
vy 9934
finanziellen 9935
tribute 9936
Ohne 9937
Gewinn@@ 9938
Versch@@ 9939
dierung 9940
erzielen 9941
Referendum 9942
stärken 9943
Sheffield 9944
langer 9945
Note 9946
Gemeinschaften 9947
Block 9948
black@@ 9949
fa 9950
umin@@ 9951
Nag@@ 9952
load 9953
mph 9954
höhere 9955
proble@@ 9956
third-@@ 9957
Point 9958
alled 9959
Canadian 9960
Fluggesellschaften 9961
Harvey 9962
just@@ 9963
Run@@ 9964
wärts@@ 9965
geschäft 9966
gesucht 9967
Staat@@ 9968
terrible 9969
steckt 9970
Everton 9971
Jährigen 9972
Tötung 9973
performing 9974
Strom 9975
sionen 9976
Eines 9977
Phoenix 9978
cricket 9979
terrorist 9980
GO@@ 9981
Inhalte 9982
gefolgt 9983
daraus 9984
benötigt 9985
erre@@ 9986
Alb@@ 9987
cited 9988
mern 9989
fts 9990
marketing 9991
vorgeschlagen 9992
Hä@@ 9993
PD 9994
Institutionen 9995
Virgin 9996
schlag@@ 9997
limits 9998
bericht 9999
Maj@@ 10000
except 10001
pon@@ 10002
temp@@ 10003
beu@@ 10004
chem@@ 10005
Büros 10006
Händen 10007
fiscal 10008
Affairs 10009
klein@@ 10010
urt 10011
distr@@ 10012
Sus@@ 10013
überleben 10014
apps 10015
channel 10016
Nic@@ 10017
shutdown 10018
tickets 10019
trugen 10020
kol@@ 10021
passenger 10022
rapidly 10023
blow 10024
ulation 10025
weak@@ 10026
not@@ 10027
sight 10028
Meer 10029
formen 10030
McK@@ 10031
Moder@@ 10032
Down@@ 10033
sounds 10034
feed 10035
Brisbane 10036
document 10037
neys 10038
Wo 10039
Kane 10040
US-Präsident 10041
Hopkins 10042
avo@@ 10043
australische 10044
Aktion 10045
unding 10046
Gewinne 10047
MO@@ 10048
Moderator 10049
positiven 10050
routine 10051
Versorgung 10052
Holz@@ 10053
gefährlich 10054
verbinden 10055
Bad 10056
Ausmaß 10057
Clin@@ 10058
netz@@ 10059
Zw@@ 10060
schläge 10061
storage 10062
writes 10063
Gleich@@ 10064
museum 10065
Eu@@ 10066
echten 10067
epidemic 10068
dismissed 10069
bewegt 10070
prompted 10071
Aufnahme 10072
Brighton 10073
1995 10074
Nelson 10075
WM 10076
bly 10077
saving 10078
urgent 10079
92 10080
funktion@@ 10081
bruch 10082
nung 10083
portra@@ 10084
sugar 10085
reporter 10086
thoughts 10087
capable 10088
Wen@@ 10089
Mischung 10090
ollen 10091
3,000 10092
spirit 10093
verdäch@@ 10094
Geräte 10095
Sm@@ 10096
gegen@@ 10097
Weinstein 10098
applied 10099
Johnsons 10100
Sicherheit@@ 10101
Py@@ 10102
referring 10103
Zust@@ 10104
Mason 10105
Sem@@ 10106
Dow 10107
fix 10108
Mutter@@ 10109
Town 10110
Einrichtung 10111
Equ@@ 10112
Küste 10113
Jahrzehnte 10114
activist 10115
Sanktionen 10116
Stadion 10117
ater@@ 10118
bra 10119
yl 10120
istin 10121
one@@ 10122
Bargeld 10123
sharp 10124
eien 10125
Geschwindigkeit 10126
ali 10127
herauszufinden 10128
kg 10129
Unabhängigkeit 10130
Südkorea 10131
Protesten 10132
schlechten 10133
suggesting 10134
READ 10135
Klima@@ 10136
CS@@ 10137
Jessica 10138
af 10139
Lopez 10140
Pentagon 10141
opponents 10142
collec@@ 10143
infl@@ 10144
bright 10145
ghts 10146
der-@@ 10147
liefer@@ 10148
stellungen 10149
entscheidend 10150
firma 10151
length 10152
ip 10153
argumentiert 10154
sweet 10155
contrast 10156
Fein@@ 10157
wü@@ 10158
spaces 10159
ersetzt 10160
Aktivität 10161
Tote 10162
Arbeitgeber 10163
Vorstand 10164
schau@@ 10165
Exekutiv@@ 10166
unklar 10167
sixth 10168
mte 10169
betroffenen 10170
Dien@@ 10171
ests 10172
chose 10173
verkehr 10174
Genehmigung 10175
Oct. 10176
Werte 10177
strikes 10178
confirm 10179
engage 10180
spüren 10181
98 10182
Nutzung 10183
neither 10184
ffer 10185
vs. 10186
Schwarze 10187
EPA 10188
amo@@ 10189
Jo 10190
hör@@ 10191
icks 10192
wand 10193
iness 10194
Others 10195
isp@@ 10196
argumentierte 10197
elf 10198
travelling 10199
Erwachsene 10200
Such 10201
Xbox 10202
Physi@@ 10203
xer 10204
truck 10205
sexuellen 10206
map 10207
comm@@ 10208
Konjunktur@@ 10209
guide 10210
Barbara 10211
republikanische 10212
zufrieden 10213
einsch@@ 10214
serie 10215
Cent 10216
1,5 10217
Camp 10218
Cop@@ 10219
leb@@ 10220
fat 10221
Blake 10222
norm@@ 10223
sta 10224
zusammenarbeiten 10225
König 10226
TS 10227
Dank 10228
rän@@ 10229
schle@@ 10230
sparked 10231
Nov. 10232
Ide@@ 10233
Songs 10234
Djokovic 10235
ät@@ 10236
äs@@ 10237
18-@@ 10238
broadcast 10239
cope 10240
M. 10241
bags 10242
ON@@ 10243
keits@@ 10244
sympath@@ 10245
keit@@ 10246
Yu@@ 10247
Warnung 10248
conversations 10249
Coll@@ 10250
rag@@ 10251
1990 10252
Infrastruktur 10253
itions 10254
Brady 10255
chungen 10256
desperate 10257
formal 10258
Rub@@ 10259
stretch 10260
stärksten 10261
Brenn@@ 10262
Kredite 10263
Interessen 10264
gerettet 10265
ministerin 10266
circul@@ 10267
stands@@ 10268
Deshalb 10269
ößen 10270
Champion 10271
eastern 10272
sem@@ 10273
Dec. 10274
eds 10275
Unternehmens@@ 10276
ume 10277
Babys 10278
titles 10279
BO@@ 10280
indeed 10281
Wochen@@ 10282
Manchmal 10283
profitieren 10284
Hur@@ 10285
Oc@@ 10286
ami 10287
Bag@@ 10288
Sum@@ 10289
beizu@@ 10290
Kenya 10291
verbessert 10292
Revolution 10293
oma 10294
gesunken 10295
reicht 10296
samm@@ 10297
Frauen@@ 10298
Marken 10299
Jacob 10300
LESEN 10301
aul@@ 10302
Election 10303
inten@@ 10304
Hard@@ 10305
complaints 10306
24-@@ 10307
Federer 10308
Ras@@ 10309
nomination 10310
Markle 10311
grund@@ 10312
pled 10313
passes 10314
begun 10315
fik@@ 10316
Derby 10317
leit@@ 10318
terrorism 10319
Ham 10320
Multi@@ 10321
lying 10322
kommission 10323
3.000 10324
hinweg 10325
trei@@ 10326
gerung 10327
managing 10328
dow 10329
Papa 10330
Rollen 10331
UFC 10332
Baltimore 10333
Harvard 10334
Einwohner 10335
Termin@@ 10336
meals 10337
traditionellen 10338
Android 10339
eless 10340
networks 10341
Emmanuel 10342
PRNewswire 10343
ization 10344
aded 10345
abgesch@@ 10346
ohl@@ 10347
scores 10348
trillion 10349
Gesprächen 10350
glich 10351
innings 10352
veröffentlichen 10353
zi 10354
krat@@ 10355
Mordes 10356
Industrie 10357
besie@@ 10358
break@@ 10359
brutal 10360
Ruth 10361
Farm 10362
erstaunlich 10363
minority 10364
nobody 10365
tennis 10366
stro@@ 10367
älter 10368
cap 10369
ien@@ 10370
ility 10371
performances 10372
dete@@ 10373
Arbeiten 10374
politisch 10375
schock@@ 10376
Merkel 10377
combination 10378
Gehirn 10379
Gandhi 10380
Take 10381
Corporation 10382
NR@@ 10383
mont 10384
wonder 10385
lik@@ 10386
recommended 10387
Walmart 10388
anf@@ 10389
breiten 10390
holidays 10391
1989 10392
karte 10393
fare 10394
impro@@ 10395
tains 10396
Pf@@ 10397
argue 10398
Cav@@ 10399
ausgeschlossen 10400
Zweck 10401
modernen 10402
cia 10403
Typ@@ 10404
Gesundheitswesen 10405
Wur@@ 10406
identi@@ 10407
13.@@ 10408
interviews 10409
expects 10410
dal 10411
illen 10412
pilot 10413
Pad@@ 10414
west@@ 10415
destroyed 10416
theory 10417
Messi 10418
Zentral@@ 10419
ais 10420
Gebiete 10421
Kreuz@@ 10422
offenen 10423
pause 10424
bank@@ 10425
bie@@ 10426
Web@@ 10427
loser 10428
milit@@ 10429
extent 10430
Chem@@ 10431
oral 10432
Immun@@ 10433
halb 10434
Economic 10435
Zit@@ 10436
ow 10437
promising 10438
Lösungen 10439
Tiger 10440
ours 10441
strategic 10442
racing 10443
Ps 10444
Talent 10445
demanding 10446
Herald 10447
gehörten 10448
ague 10449
gestimmt 10450
Fak@@ 10451
bens 10452
erter 10453
Erkrankungen 10454
Brad 10455
vertreter 10456
communication 10457
gling 10458
earn 10459
solid 10460
Wind@@ 10461
resume 10462
unded 10463
fee 10464
requirements 10465
Farb@@ 10466
tur 10467
Squ@@ 10468
scra@@ 10469
zy@@ 10470
households 10471
danken 10472
herauszu@@ 10473
Nov@@ 10474
beendete 10475
frequently 10476
Werk 10477
Wesentlichen 10478
wünschen 10479
zurückge@@ 10480
loses 10481
altet 10482
stran@@ 10483
Öl 10484
äußern 10485
Lawrence 10486
WA@@ 10487
closure 10488
recover 10489
Sri 10490
Wit@@ 10491
arten 10492
questioned 10493
Universitäten 10494
collapse 10495
strict 10496
hn@@ 10497
Lohn@@ 10498
lob@@ 10499
stations 10500
Ray 10501
thrown 10502
Haf@@ 10503
ager 10504
erfordert 10505
Strand 10506
sicheren 10507
Egypt 10508
fies 10509
stadium 10510
Rio 10511
englischen 10512
Charakter 10513
aux 10514
Beschwerden 10515
noticed 10516
Fern@@ 10517
itude 10518
inch 10519
Phillips 10520
ago@@ 10521
fits 10522
upset 10523
Port 10524
Rezession 10525
overnight 10526
Any 10527
character@@ 10528
etz@@ 10529
opposite 10530
Zustimmung 10531
intense 10532
rolling 10533
selection 10534
erungs@@ 10535
tourists 10536
provo@@ 10537
Korruption 10538
Right 10539
Riv@@ 10540
UN-@@ 10541
Stimmzettel 10542
dn@@ 10543
prospect 10544
bow@@ 10545
97 10546
Ant@@ 10547
detailed 10548
gatherings 10549
hell 10550
stages 10551
startet 10552
Long@@ 10553
Schließlich 10554
hall 10555
Brasilien 10556
bere@@ 10557
Geburt 10558
keeps 10559
nennt 10560
err@@ 10561
küste 10562
sicherheit 10563
mention 10564
wahl 10565
esp@@ 10566
fra@@ 10567
Ausrüstung 10568
invited 10569
zeu@@ 10570
Karen 10571
kämpfte 10572
applications 10573
threw 10574
ON 10575
resident 10576
Gang 10577
eligible 10578
ex 10579
Krist@@ 10580
erungen 10581
ti 10582
chtung 10583
detail 10584
stal@@ 10585
Gest@@ 10586
isierten 10587
protest@@ 10588
anbieten 10589
girlfriend 10590
exposure 10591
legung 10592
covers 10593
Nam@@ 10594
Flo@@ 10595
14.@@ 10596
tiere 10597
Kol@@ 10598
nissen 10599
cast@@ 10600
stung 10601
Liam 10602
Mut@@ 10603
waters 10604
cat 10605
liberal 10606
moon 10607
Leader 10608
profile 10609
prin@@ 10610
PE@@ 10611
Herzogin 10612
Insgesamt 10613
elderly 10614
Civil 10615
ister 10616
incidents 10617
keit 10618
Anordnung 10619
Shows 10620
falsche 10621
diagno@@ 10622
sank 10623
overseas 10624
compete 10625
reli@@ 10626
Blan@@ 10627
Jugend@@ 10628
geschn@@ 10629
som@@ 10630
Weil 10631
aller@@ 10632
ord 10633
designer 10634
NH@@ 10635
predicted 10636
Studio 10637
Systems 10638
fairly 10639
Broad@@ 10640
jene 10641
Ausschuss 10642
Explosion 10643
deutschen 10644
Mes@@ 10645
Beau@@ 10646
Syn@@ 10647
schnelle 10648
master 10649
Ernährung 10650
wehr@@ 10651
Haare 10652
Poli@@ 10653
kles 10654
sitz 10655
factory 10656
fizierten 10657
Area 10658
Nad@@ 10659
Bell@@ 10660
direktor 10661
roy@@ 10662
agne 10663
läch@@ 10664
Edwards 10665
positi@@ 10666
safely 10667
Plattformen 10668
FO@@ 10669
excellent 10670
indicated 10671
entertainment 10672
sexuelle 10673
Bewertung 10674
featuring 10675
schwieriger 10676
Bars 10677
PR@@ 10678
dates 10679
funded 10680
Gelände 10681
necessarily 10682
Dorf 10683
Jesus 10684
Port@@ 10685
Schauspiel@@ 10686
pollution 10687
Maxwell 10688
Pho@@ 10689
peaceful 10690
slowly 10691
Teamkollegen 10692
lea@@ 10693
illed 10694
Durchschnitt 10695
Gesetzgebung 10696
ka@@ 10697
kanische 10698
Absol@@ 10699
Block@@ 10700
ila 10701
rant 10702
einig@@ 10703
Dokumente 10704
mitteln 10705
Med@@ 10706
downs 10707
heart@@ 10708
sich@@ 10709
ESPN 10710
stimulus 10711
nutzt 10712
scandal 10713
degrees 10714
gle@@ 10715
Carlos 10716
chosen 10717
Lad@@ 10718
ached 10719
spir@@ 10720
Arteta 10721
Forest 10722
22@@ 10723
assist 10724
entlich 10725
meal 10726
Fil@@ 10727
medicine 10728
Kundgebung 10729
beating 10730
meas@@ 10731
monitoring 10732
teure 10733
Barry 10734
Lou@@ 10735
Engl@@ 10736
Fonds 10737
outdoor 10738
tool 10739
Tickets 10740
Ermittler 10741
stern 10742
Authority 10743
argumentieren 10744
komme 10745
Funktion 10746
ed-@@ 10747
McGregor 10748
hotels 10749
krie@@ 10750
gut@@ 10751
inder 10752
Gastgeber 10753
mitten 10754
Account 10755
Francis 10756
kraft@@ 10757
Benjamin 10758
verpflichten 10759
cameras 10760
bod 10761
promises 10762
sä@@ 10763
mixed 10764
übertragen 10765
mans 10766
nd 10767
visits 10768
fonds 10769
ordin@@ 10770
raft 10771
Hem@@ 10772
Caroline 10773
unknown 10774
Weile 10775
achieved 10776
ced 10777
sentenced 10778
Ashley 10779
departure 10780
Bayern 10781
Premier-League-@@ 10782
moral 10783
Spr@@ 10784
foot@@ 10785
vorgestellt 10786
fantastic 10787
verändern 10788
witz 10789
isierte 10790
Eastern 10791
ativ@@ 10792
Lager 10793
Yemen 10794
gehandelt 10795
Rams 10796
Vereinten 10797
erschien 10798
lined 10799
Fünf@@ 10800
wahr 10801
fran@@ 10802
proj@@ 10803
Williamson 10804
finde 10805
Kop@@ 10806
beln 10807
kan 10808
Umwelt 10809
gelaufen 10810
shocked 10811
afraid 10812
junger 10813
Küsten@@ 10814
detained 10815
detention 10816
vorbei@@ 10817
91 10818
Straf@@ 10819
drew 10820
universities 10821
verst@@ 10822
Kingdom 10823
recession 10824
ton-@@ 10825
Tam@@ 10826
weekly 10827
put@@ 10828
lowest 10829
cell@@ 10830
Denver 10831
sach@@ 10832
Anleger 10833
seit@@ 10834
Mord 10835
schriften 10836
Noch 10837
Säu@@ 10838
packed 10839
isse 10840
96 10841
Nutz@@ 10842
eing 10843
hten 10844
rep@@ 10845
häu@@ 10846
announce 10847
invest 10848
prüfen 10849
Denken 10850
snow 10851
Sitze 10852
ft-@@ 10853
affairs 10854
Morris 10855
jet 10856
successfully 10857
traurig 10858
Seahawks 10859
investigators 10860
fährt 10861
irgendwo 10862
verz@@ 10863
Hau@@ 10864
mile 10865
93 10866
gathering 10867
Wars 10868
homeless 10869
Mess@@ 10870
erende 10871
literally 10872
newly 10873
Gesamtzahl 10874
verzweifelt 10875
atmosphere 10876
HS 10877
Kommun@@ 10878
94 10879
Kha@@ 10880
Missouri 10881
Kein 10882
consecutive 10883
fel 10884
Gun@@ 10885
dent 10886
golf 10887
Jede 10888
zahl 10889
typischerweise 10890
atur@@ 10891
voter 10892
cip@@ 10893
Königin 10894
zunehmen 10895
Dri@@ 10896
Brussels 10897
schlägen 10898
Aussagen 10899
Tw@@ 10900
rob@@ 10901
AD@@ 10902
adv@@ 10903
backing 10904
engagement 10905
jump 10906
Veränderung 10907
getrieben 10908
apped 10909
beeinflusst 10910
verbreitet 10911
Juli@@ 10912
Autoren 10913
context 10914
schafft 10915
Jake 10916
Aktiv@@ 10917
herum@@ 10918
tically 10919
Ken 10920
Verwaltung 10921
file 10922
immigrants 10923
Abstand 10924
WASHINGTON 10925
fron@@ 10926
Präsidentschafts@@ 10927
mist@@ 10928
Metropolitan 10929
Gas 10930
cabinet 10931
Farage 10932
Verpflichtung 10933
absence 10934
chaos 10935
bedeutete 10936
musical 10937
gelte 10938
recognition 10939
cooperation 10940
requests 10941
position@@ 10942
Hochzeit 10943
differences 10944
eingestellt 10945
diagnostiziert 10946
inflation 10947
ji@@ 10948
Dingen 10949
Theatre 10950
fielen 10951
Real@@ 10952
Season 10953
atz 10954
meist@@ 10955
administ@@ 10956
Stuart 10957
ruf 10958
Ö@@ 10959
Moon 10960
ausgewählt 10961
awareness 10962
preis 10963
oberste 10964
Nr. 10965
Sometimes 10966
battery 10967
collabor@@ 10968
Coronavirus-Fälle 10969
Kra@@ 10970
länder 10971
Nation@@ 10972
reputation 10973
Features 10974
dispute 10975
lor@@ 10976
Mehr@@ 10977
Get@@ 10978
kid 10979
weithin 10980
angemessen 10981
entschlossen 10982
auseinander@@ 10983
land-@@ 10984
Without 10985
monitor 10986
Bran@@ 10987
protecting 10988
championship 10989
string 10990
Leben@@ 10991
ify 10992
rapid 10993
brachten 10994
kap@@ 10995
aktu@@ 10996
Lincoln 10997
Recht@@ 10998
take@@ 10999
state-@@ 11000
ners 11001
1993 11002
Beteiligung 11003
Davies 11004
Pittsburgh 11005
deter 11006
Schau@@ 11007
refugees 11008
ple 11009
05 11010
ja@@ 11011
zieren 11012
funny 11013
stammt 11014
managers 11015
Kongresses 11016
vermisst 11017
Radi@@ 11018
ausländische 11019
höheren 11020
Arthur 11021
expansion 11022
sab@@ 11023
tödlichen 11024
Vit@@ 11025
wonach 11026
Agenten 11027
Hü@@ 11028
exist 11029
gehei@@ 11030
emen 11031
EC@@ 11032
Feuer@@ 11033
discrimination 11034
Come@@ 11035
vac@@ 11036
ez 11037
umgehen 11038
stie@@ 11039
bedroht 11040
bb@@ 11041
servation 11042
Turnier 11043
desto 11044
escal@@ 11045
gering 11046
Bolsonaro 11047
Meinungs@@ 11048
beziehen 11049
establish 11050
ungsan@@ 11051
damaged 11052
Country 11053
Hotel@@ 11054
Patel 11055
Second 11056
settlement 11057
Mars 11058
Av@@ 11059
settled 11060
reduction 11061
Fakten 11062
Garden 11063
polling 11064
Abendessen 11065
Allgemeinen 11066
Kamer@@ 11067
minor 11068
verstärkt 11069
-Seite 11070
tedly 11071
Juan 11072
Rücktritt 11073
mig@@ 11074
peri@@ 11075
Stanley 11076
Nicht-@@ 11077
dest 11078
Ausdruck 11079
Sta@@ 11080
Fahrzeuge 11081
konservativen 11082
dene 11083
itze 11084
nachhal@@ 11085
correc@@ 11086
ima 11087
perfekte 11088
encouraging 11089
langem 11090
betrachtet 11091
Treffer 11092
buyers 11093
ker@@ 11094
insi@@ 11095
legacy 11096
Sullivan 11097
enting 11098
pictured 11099
angs 11100
kostenlose 11101
Vic@@ 11102
schir@@ 11103
springen 11104
sty 11105
dauerte 11106
ices 11107
urban 11108
Andrews 11109
addressed 11110
sprecher 11111
Fa@@ 11112
Ros@@ 11113
ünst@@ 11114
praktisch 11115
compar@@ 11116
schrecklich 11117
schönen 11118
stimmten 11119
retirement 11120
Vorschläge 11121
Büro@@ 11122
nötig 11123
acked 11124
design@@ 11125
orte 11126
forest 11127
distribution 11128
ann 11129
Shanghai 11130
äußerte 11131
Bern@@ 11132
Mari@@ 11133
yr 11134
letztes 11135
tears 11136
testimony 11137
Duchess 11138
Portugal 11139
Speaker 11140
Perhaps 11141
000-@@ 11142
Austritt 11143
asylum 11144
stem 11145
Jan. 11146
inen 11147
wns 11148
Zölle 11149
Wallace 11150
electoral 11151
rt 11152
Entwicklungs@@ 11153
Bezirk 11154
editor 11155
Arm 11156
PG 11157
counted 11158
Chiefs 11159
boy@@ 11160
favor@@ 11161
gam@@ 11162
accurate 11163
Direc@@ 11164
Präsidentschaft 11165
Pflege@@ 11166
offs 11167
rs 11168
Lig@@ 11169
Teilnahme 11170
advertising 11171
Kommentar 11172
Glas@@ 11173
Innings 11174
flu 11175
rek@@ 11176
Schu@@ 11177
35@@ 11178
ield 11179
childhood 11180
Leiche 11181
by-@@ 11182
ud 11183
fined 11184
verbieten 11185
Narendra 11186
Roo@@ 11187
Botschafter 11188
capit@@ 11189
ktions@@ 11190
36@@ 11191
connect 11192
Must@@ 11193
Glück@@ 11194
Line 11195
smo@@ 11196
thes@@ 11197
Ori@@ 11198
ernannt 11199
bildung 11200
Uganda 11201
scri@@ 11202
investments 11203
Assembly 11204
stum@@ 11205
tit@@ 11206
meist 11207
Verhältnis 11208
Pick@@ 11209
Wetter@@ 11210
Chr@@ 11211
europäische 11212
itt 11213
tö@@ 11214
Sophie 11215
wachsende 11216
ym 11217
dynam@@ 11218
registriert 11219
Vorstellung 11220
drove 11221
evol@@ 11222
grateful 11223
afrikanischen 11224
Wayne 11225
rank 11226
Menschenrechts@@ 11227
verstanden 11228
erhält 11229
holt 11230
Aberdeen 11231
Kommunikation 11232
Offen@@ 11233
WhatsApp 11234
verriet 11235
collected 11236
meister 11237
campaigns 11238
anst@@ 11239
Ahmed 11240
abo@@ 11241
rugby 11242
Frühjahr 11243
unabhängige 11244
Sieger 11245
Toil@@ 11246
perspective 11247
pic@@ 11248
scher 11249
Ob 11250
indische 11251
jumped 11252
termin@@ 11253
unders 11254
Protection 11255
wachsenden 11256
Jahrhunderts 11257
ania 11258
stabil@@ 11259
suffer 11260
burning 11261
ranked 11262
erhöhte 11263
mainly 11264
ent-@@ 11265
berei@@ 11266
resulted 11267
B. 11268
diverse 11269
humanitarian 11270
nutzte 11271
Jer@@ 11272
ief 11273
Macht@@ 11274
Phil@@ 11275
Atem@@ 11276
Wind 11277
wie@@ 11278
Stress 11279
fragt 11280
pain@@ 11281
sman 11282
bow 11283
schaut 11284
Aufstieg 11285
akti@@ 11286
Policy 11287
absor@@ 11288
ae@@ 11289
nav@@ 11290
ums@@ 11291
Tas@@ 11292
spä@@ 11293
sufficient 11294
tour@@ 11295
11@@ 11296
river 11297
verpflich@@ 11298
Cra@@ 11299
Feu@@ 11300
Lane 11301
genossen 11302
Commissioner 11303
LE 11304
Ocasio-Cortez 11305
proposals 11306
tam@@ 11307
äd@@ 11308
aria 11309
petition 11310
Eth@@ 11311
boyfriend 11312
Übertragung 11313
Obje@@ 11314
Projekte 11315
answers 11316
revi@@ 11317
Grace 11318
calm 11319
thus 11320
Brooks 11321
Douglas 11322
fields 11323
ito 11324
Popul@@ 11325
bear 11326
celebrated 11327
Anerkennung 11328
native 11329
energ@@ 11330
sparen 11331
Hitze 11332
bie 11333
tos 11334
clash 11335
solcher 11336
ütz@@ 11337
sprech@@ 11338
1991 11339
Ausbruchs 11340
Stad@@ 11341
aving 11342
vic 11343
Ern@@ 11344
USC 11345
Cri@@ 11346
water@@ 11347
profits 11348
multi-@@ 11349
counter@@ 11350
pet 11351
bab@@ 11352
sand@@ 11353
Brett 11354
crazy 11355
steller 11356
derten 11357
walls 11358
Len@@ 11359
Toten 11360
itten 11361
Batter@@ 11362
klagen 11363
digungen 11364
för@@ 11365
deep@@ 11366
Day@@ 11367
Papier 11368
fas@@ 11369
fitness 11370
übt 11371
NB@@ 11372
quarterback 11373
Gerät 11374
Online 11375
krebs 11376
sichere 11377
hig@@ 11378
Which 11379
eigent@@ 11380
Ring 11381
Sony 11382
fi 11383
aling 11384
praised 11385
diente 11386
fruit 11387
kh 11388
Atmosphäre 11389
Stamm@@ 11390
Fort 11391
schutz 11392
disappointed 11393
sessions 11394
ellen@@ 11395
hosted 11396
liked 11397
tter@@ 11398
senator 11399
weis@@ 11400
währ@@ 11401
nehmer 11402
Lucas 11403
manner 11404
FA@@ 11405
ddy 11406
verl@@ 11407
F.@@ 11408
Nachmittag 11409
ace@@ 11410
teenager 11411
AB@@ 11412
aufnehmen 11413
congressional 11414
Agenda 11415
Bildschirm 11416
Booker 11417
Loch 11418
Luk@@ 11419
Stufe 11420
blin@@ 11421
umm@@ 11422
Cru@@ 11423
defender 11424
digitale 11425
ames 11426
Reser@@ 11427
adopted 11428
Fleisch 11429
Gei@@ 11430
Patri@@ 11431
inspiriert 11432
targeting 11433
yellow 11434
Kings 11435
Australiens 11436
milk 11437
kontrolle 11438
Rick 11439
apparent 11440
hungen 11441
staaten 11442
Boot 11443
Lennon 11444
contacted 11445
schütz@@ 11446
contracts 11447
emphas@@ 11448
kurzfrist@@ 11449
Sah@@ 11450
initi@@ 11451
krit@@ 11452
radik@@ 11453
berichteten 11454
chicken 11455
aka 11456
amt 11457
Tac@@ 11458
senen 11459
serves 11460
737 11461
clas@@ 11462
assessment 11463
File 11464
bewertet 11465
equity 11466
basketball 11467
Zug 11468
ael 11469
bi 11470
broad 11471
rechts@@ 11472
Mittelfeldspieler 11473
Whether 11474
gewährleisten 11475
Make 11476
Mom@@ 11477
Southampton 11478
bom@@ 11479
cruise 11480
zweites 11481
Larry 11482
erfordern 11483
mul@@ 11484
Head 11485
PC@@ 11486
a.m 11487
complicated 11488
Marie 11489
boten 11490
Scar@@ 11491
Zuvor 11492
Gulf 11493
blamed 11494
igation 11495
sech@@ 11496
AI 11497
Traum 11498
Virus@@ 11499
centres 11500
lay@@ 11501
Event 11502
negativ 11503
Ruhe 11504
barely 11505
dding 11506
origin@@ 11507
Ihres 11508
kleines 11509
taste 11510
berry 11511
sectors 11512
Billionen 11513
ay-@@ 11514
correct 11515
rang 11516
HS@@ 11517
drück@@ 11518
home@@ 11519
Gipfel 11520
gebiet 11521
märkte 11522
Erdogan 11523
lear@@ 11524
Netz 11525
strain 11526
waves 11527
Konferenz 11528
bery 11529
nominee 11530
Constitution 11531
ktivität 11532
Harrison 11533
divi@@ 11534
Pro-@@ 11535
passt 11536
ram 11537
supports 11538
Given 11539
Mob@@ 11540
Open@@ 11541
Versuche 11542
kolle@@ 11543
enhaus 11544
entgegen@@ 11545
neighborhood 11546
appearances 11547
iller 11548
dnis 11549
promin@@ 11550
20,000 11551
strö@@ 11552
kam@@ 11553
industries 11554
itzen 11555
Oper@@ 11556
will@@ 11557
Syrian 11558
Cross 11559
commun@@ 11560
stamm@@ 11561
tions@@ 11562
ova 11563
expecting 11564
resort 11565
Sweden 11566
Erwachsenen 11567
affordable 11568
criticized 11569
nachzu@@ 11570
Agentur 11571
Dig@@ 11572
verstoßen 11573
Nigel 11574
Parker 11575
welcomed 11576
bots 11577
legs 11578
endor@@ 11579
med@@ 11580
Express 11581
Tyler 11582
Wimbledon 11583
Cruz 11584
life-@@ 11585
erend 11586
keln 11587
Distancing 11588
Infektions@@ 11589
glichen 11590
großartige 11591
schil@@ 11592
shut@@ 11593
wechseln 11594
verfügen 11595
Cox 11596
normalen 11597
pas@@ 11598
RC 11599
kurze 11600
irgendeine 11601
stressed 11602
Arts 11603
ader 11604
gener 11605
Verzögerung 11606
everywhere 11607
zahl@@ 11608
creation 11609
schar@@ 11610
stopp@@ 11611
striker 11612
Itali@@ 11613
NHS-@@ 11614
casting 11615
forever 11616
Plastik@@ 11617
lustig 11618
Work 11619
Garten 11620
Kim@@ 11621
representing 11622
gesund 11623
onic 11624
durchzuführen 11625
hydro@@ 11626
arbeitung 11627
Singapore 11628
Boss 11629
Shah 11630
winners 11631
planes 11632
Cul@@ 11633
Neben@@ 11634
unterstützte 11635
kar 11636
uten 11637
sible 11638
unternommen 11639
cooking 11640
ema 11641
Down 11642
NATO 11643
prize 11644
arbeite 11645
ester@@ 11646
Flynn 11647
enttäuscht 11648
lover 11649
verlust 11650
2030 11651
broader 11652
ision 11653
lunch 11654
opens 11655
tan 11656
20.000 11657
21@@ 11658
Tokio 11659
hü@@ 11660
mem@@ 11661
überraschend 11662
ddi@@ 11663
forderten 11664
'We 11665
turing 11666
executives 11667
Hawaii 11668
femin@@ 11669
tenen 11670
Ole 11671
lar@@ 11672
ection 11673
samen 11674
Leider 11675
latter 11676
tele@@ 11677
Appe@@ 11678
Großen 11679
economies 11680
zählen 11681
Fantas@@ 11682
AC 11683
gerichtet 11684
Khal@@ 11685
Zone 11686
aussieht 11687
AT 11688
bewer@@ 11689
station@@ 11690
coll@@ 11691
feelings 11692
frame 11693
Tränen 11694
rati@@ 11695
Wett@@ 11696
iden 11697
straße 11698
oney 11699
Umständen 11700
breaks 11701
historical 11702
shoot 11703
THE 11704
Us 11705
klin@@ 11706
Intelligence 11707
Moskau 11708
switch 11709
Maßnahme 11710
Stau@@ 11711
unterzeichnet 11712
maß@@ 11713
counsel 11714
hinten 11715
abzuhalten 11716
wise 11717
Kri@@ 11718
wechsel@@ 11719
mten 11720
Fotogra@@ 11721
dlicher 11722
trinken 11723
Glob@@ 11724
E. 11725
Fen@@ 11726
ausgestrahlt 11727
filing 11728
rating 11729
pot@@ 11730
quant@@ 11731
Gall@@ 11732
Guardiola 11733
centers 11734
Katastrophe 11735
Vier 11736
bond 11737
gue 11738
tery 11739
s.@@ 11740
klagte 11741
Connor 11742
Pick 11743
left-@@ 11744
reasonable 11745
Chase 11746
Zahlungen 11747
electricity 11748
Organ@@ 11749
ashing 11750
emerging 11751
mitglied 11752
ichte 11753
Haust@@ 11754
franchise 11755
gerecht 11756
gy 11757
letters 11758
erhebliche 11759
Einigung 11760
anybody 11761
Realme 11762
drin 11763
obtained 11764
zieh@@ 11765
Derek 11766
Sowohl 11767
delivering 11768
volunteers 11769
yr@@ 11770
beaten 11771
cle 11772
crowds 11773
tain 11774
vorübergehend 11775
frequ@@ 11776
grenze 11777
worn 11778
niedrig 11779
shel@@ 11780
ologen 11781
ktiv@@ 11782
Prinzessin 11783
händler 11784
kostenlos 11785
constantly 11786
liner 11787
Vereinbarung 11788
category 11789
Tak@@ 11790
künst@@ 11791
Cole 11792
Refer@@ 11793
Fred 11794
vie 11795
'The 11796
Armut 11797
depression 11798
essentially 11799
manipul@@ 11800
parking 11801
vent 11802
zentr@@ 11803
favour 11804
fire@@ 11805
sektor 11806
konservative 11807
Ner@@ 11808
Angebote 11809
improving 11810
nehme 11811
lows 11812
massiven 11813
trainer 11814
1.5 11815
smoke 11816
leider 11817
auftreten 11818
hte 11819
coaches 11820
basiert 11821
regard 11822
teilzunehmen 11823
fie 11824
angs@@ 11825
frühe 11826
.... 11827
Tehran 11828
cep@@ 11829
walks 11830
bike 11831
oring 11832
M-@@ 11833
mess@@ 11834
Rate 11835
alization 11836
postponed 11837
powered 11838
rot@@ 11839
Kh@@ 11840
midfielder 11841
NC@@ 11842
Je 11843
Power@@ 11844
representative 11845
Diskussion 11846
erfahr@@ 11847
Premierministers 11848
ursprünglichen 11849
Yor@@ 11850
deployed 11851
Giants 11852
itors 11853
schnellen 11854
tent@@ 11855
appl@@ 11856
150@@ 11857
Eisen@@ 11858
gebunden 11859
professionals 11860
Bewusstsein 11861
Zoll@@ 11862
Wohnungs@@ 11863
nett 11864
klare 11865
beschei@@ 11866
branche 11867
belt 11868
enorme 11869
Schottlands 11870
fat@@ 11871
staff@@ 11872
cool@@ 11873
wick@@ 11874
Wander@@ 11875
gefährdet 11876
rest@@ 11877
scenario 11878
Abu 11879
Schwarzen 11880
sorgt 11881
sti@@ 11882
Ähn@@ 11883
erwarteten 11884
mining 11885
VA@@ 11886
nurses 11887
umfassen 11888
Zweiten 11889
einzelnen 11890
Geheimdienst@@ 11891
abgehalten 11892
öh@@ 11893
Telegraph 11894
Kenn@@ 11895
approximately 11896
oning 11897
Let@@ 11898
tweets 11899
Jets 11900
Cab@@ 11901
Phar@@ 11902
Mexican 11903
Gig@@ 11904
shore 11905
shine 11906
tally 11907
Pfizer 11908
Komment@@ 11909
Ep@@ 11910
ensuring 11911
beds 11912
anim@@ 11913
gelie@@ 11914
entliche 11915
flug@@ 11916
relative 11917
herz@@ 11918
verletz@@ 11919
fail 11920
unterstützten 11921
Af@@ 11922
ligh@@ 11923
acqu@@ 11924
weak 11925
Problemen 11926
Trafford 11927
Sky@@ 11928
iso@@ 11929
moderate 11930
scheinbar 11931
participate 11932
lem 11933
vention 11934
Leit@@ 11935
festgehalten 11936
mood 11937
tea 11938
untergraben 11939
reference 11940
Sozi@@ 11941
airlines 11942
dining 11943
neueste 11944
ol-@@ 11945
repeated 11946
Lassen 11947
Tweets 11948
weite 11949
Erinnerungen 11950
Lev@@ 11951
Dim@@ 11952
Kämpfe 11953
Wich@@ 11954
Kraft@@ 11955
Ron 11956
Runs 11957
fet@@ 11958
beschränkungen 11959
voc@@ 11960
aves 11961
counties 11962
gelöst 11963
Jack@@ 11964
gie 11965
recru@@ 11966
reforms 11967
loaded 11968
ergänzte 11969
Pak@@ 11970
cm 11971
Auftrag 11972
Alternative 11973
Fif@@ 11974
Sterling 11975
angefangen 11976
este 11977
od 11978
exemp@@ 11979
Rand 11980
liter@@ 11981
circ@@ 11982
Partner@@ 11983
dose 11984
ull 11985
verstehe 11986
vertre@@ 11987
Castle 11988
Kerl 11989
IN 11990
annt 11991
ausgaben 11992
shoulder 11993
absol@@ 11994
no-deal 11995
Haushalt 11996
satzes 11997
CN@@ 11998
liefert 11999
wirtschaft 12000
narrative 12001
constant 12002
Spenden@@ 12003
Dass 12004
Information 12005
Spencer 12006
ober@@ 12007
ding@@ 12008
cup 12009
schein@@ 12010
stände 12011
vorher 12012
clothing 12013
bricht 12014
proven 12015
gere@@ 12016
Hus@@ 12017
Tatort 12018
realised 12019
10,@@ 12020
Bron@@ 12021
robust 12022
strange 12023
Strictly 12024
Hear@@ 12025
elite 12026
surveillance 12027
fic@@ 12028
B.@@ 12029
Loo@@ 12030
Strafe 12031
rier 12032
Keith 12033
koordin@@ 12034
icky 12035
Schaffung 12036
beh@@ 12037
enable 12038
16-@@ 12039
Tampa 12040
rough 12041
verfol@@ 12042
Archite@@ 12043
Quarterback 12044
hä@@ 12045
zimmer 12046
Dick@@ 12047
aggressi@@ 12048
Materialien 12049
consul@@ 12050
Bond 12051
aims 12052
fed 12053
over-@@ 12054
dra 12055
Officials 12056
extra@@ 12057
Store 12058
responding 12059
Jean 12060
buch 12061
nationaler 12062
schrei@@ 12063
Medikament 12064
personally 12065
struc@@ 12066
abgegeben 12067
windows 12068
enorm 12069
erholen 12070
Colin 12071
recording 12072
Zim@@ 12073
voices 12074
awards 12075
ty-@@ 12076
verabschiedet 12077
Essex 12078
eingerichtet 12079
viel@@ 12080
zählung 12081
ancy 12082
gewachsen 12083
Eve 12084
igung 12085
.org 12086
Stu@@ 12087
Filmen 12088
Ingenie@@ 12089
Anzeige 12090
book@@ 12091
Untersuchungen 12092
blockieren 12093
stunning 12094
NEW 12095
estimate 12096
hopefully 12097
lec@@ 12098
Colle@@ 12099
roots 12100
Leonard 12101
niedriger 12102
Streitkräfte 12103
listening 12104
favor 12105
legten 12106
Präsenz 12107
Lauren 12108
lehr@@ 12109
überzeu@@ 12110
tter 12111
immun@@ 12112
ques 12113
Oberste 12114
Erd@@ 12115
einzelne 12116
fir@@ 12117
insur@@ 12118
Fluss 12119
dauert 12120
teaching 12121
birds 12122
Bauern 12123
tun@@ 12124
gif@@ 12125
siv 12126
schlechter 12127
chens 12128
überzeugt 12129
Bezirks@@ 12130
zusammenzuarbeiten 12131
omie 12132
Kok@@ 12133
Rosen@@ 12134
medic@@ 12135
Anzeigen 12136
dict@@ 12137
übernommen 12138
Impfstoffe 12139
psychischen 12140
innovative 12141
employers 12142
mie@@ 12143
Mem@@ 12144
Exchange 12145
bon 12146
darf 12147
liegenden 12148
Ziel@@ 12149
Puerto 12150
appointment 12151
aching 12152
mad 12153
Lyn@@ 12154
alarm@@ 12155
arriving 12156
sexueller 12157
unge 12158
champions 12159
hof 12160
statt@@ 12161
Grunde 12162
Vent@@ 12163
iro 12164
modi@@ 12165
theme 12166
awarded 12167
Hinweis 12168
Republi@@ 12169
appearing 12170
1984 12171
Emer@@ 12172
Lucy 12173
Europas 12174
pass@@ 12175
Ann 12176
FOTO 12177
nah 12178
attacking 12179
Handvoll 12180
hoffentlich 12181
innov@@ 12182
realise 12183
owns 12184
wehren 12185
withdrawal 12186
Dreh@@ 12187
stake 12188
Zudem 12189
regeln 12190
warnt 12191
criticised 12192
dasselbe 12193
ml 12194
rollen 12195
ul 12196
Crystal 12197
elements 12198
integr@@ 12199
Rec@@ 12200
sme@@ 12201
Fü@@ 12202
asks 12203
kommun@@ 12204
Assist@@ 12205
lieber 12206
amounts 12207
Call 12208
Thr@@ 12209
falschen 12210
lier 12211
charging 12212
matic 12213
selected 12214
hinunter 12215
quit 12216
-off 12217
Freund@@ 12218
Verfassungs@@ 12219
plo@@ 12220
Crew 12221
entsch@@ 12222
short@@ 12223
Orlando 12224
eth 12225
rechtliche 12226
bottle 12227
vielfäl@@ 12228
contained 12229
taught 12230
big@@ 12231
kas 12232
scared 12233
haber 12234
iconic 12235
Kul@@ 12236
pleaded 12237
Vaters 12238
Dete@@ 12239
etab@@ 12240
roo@@ 12241
überprüft 12242
Pos@@ 12243
hang 12244
liebt 12245
schlafen 12246
aturen 12247
Händler 12248
arly 12249
Schuss@@ 12250
basically 12251
veränder@@ 12252
Fan@@ 12253
Regierung@@ 12254
schlossen 12255
Epidemie 12256
Jazeera 12257
Technologie@@ 12258
involvement 12259
Costa 12260
Memorial 12261
bewe@@ 12262
retailers 12263
westlichen 12264
Universal 12265
teu@@ 12266
zustellen 12267
Boys 12268
BE@@ 12269
Frei@@ 12270
GDP 12271
alert 12272
bewegung 12273
verzeichnete 12274
defended 12275
klingt 12276
bestehenden 12277
beweisen 12278
nat@@ 12279
Wilder 12280
advert@@ 12281
power@@ 12282
verringern 12283
gemis@@ 12284
steten 12285
see@@ 12286
shar@@ 12287
ürt 12288
Dau@@ 12289
Men 12290
gänge 12291
Greece 12292
handful 12293
dez 12294
Hoff@@ 12295
dic 12296
Amanda 12297
pft 12298
setzten 12299
Hals 12300
unch 12301
gru@@ 12302
savings 12303
verzeichnet 12304
ints 12305
licherweise 12306
getrennt 12307
manche 12308
mates 12309
missions 12310
betrie@@ 12311
cut@@ 12312
solar 12313
Bann@@ 12314
Wach@@ 12315
Metro@@ 12316
Einwanderungs@@ 12317
n-@@ 12318
Bak@@ 12319
Freien 12320
anderswo 12321
ects 12322
Alliance 12323
erlassen 12324
griff 12325
Catholic 12326
Oli@@ 12327
embar@@ 12328
zahlt 12329
badly 12330
experiencing 12331
sicht@@ 12332
stance 12333
sum 12334
Happy 12335
einzudämmen 12336
urging 12337
guess 12338
wahre 12339
Überraschung 12340
defen@@ 12341
deserve 12342
Ny@@ 12343
atz@@ 12344
Deleg@@ 12345
iste 12346
li 12347
mad@@ 12348
Lager@@ 12349
betr@@ 12350
P. 12351
enger 12352
organisations 12353
Haz@@ 12354
Seitdem 12355
Forsch@@ 12356
klasse 12357
Bahn@@ 12358
Olympischen 12359
Programms 12360
benef@@ 12361
Hektar 12362
medizin@@ 12363
writers 12364
abhalten 12365
Jury 12366
Erst@@ 12367
Presse 12368
thi@@ 12369
Henderson 12370
noting 12371
Erbe 12372
extre@@ 12373
gungs@@ 12374
marsch@@ 12375
tracks 12376
gewannen 12377
Cer@@ 12378
Pla@@ 12379
Part@@ 12380
UCLA 12381
Aktionen 12382
Geldstrafe 12383
dende 12384
Review 12385
buchstäblich 12386
colon@@ 12387
fizierte 12388
fehlt 12389
dish 12390
Kab@@ 12391
Drit@@ 12392
25-@@ 12393
fishing 12394
19.@@ 12395
Cros@@ 12396
haus@@ 12397
krise 12398
omen 12399
betrieben 12400
wöch@@ 12401
Tonnen 12402
diplomatic 12403
producers 12404
rechnen 12405
phy 12406
Hersteller 12407
aled 12408
dering 12409
iny 12410
isolieren 12411
opponent 12412
Patriots 12413
odd 12414
genehmig@@ 12415
expanded 12416
gedreht 12417
halb@@ 12418
resi@@ 12419
4,000 12420
Play 12421
Eröffnungs@@ 12422
Ev@@ 12423
konstru@@ 12424
schwerer 12425
Beim 12426
asch@@ 12427
kenne 12428
gewandt 12429
substantial 12430
Flugzeuge 12431
warnings 12432
4.000 12433
15.@@ 12434
enormous 12435
somewhere 12436
protein 12437
kä@@ 12438
aufgeregt 12439
band@@ 12440
plätze 12441
werke 12442
dou@@ 12443
hard-@@ 12444
nurse 12445
achte 12446
Industri@@ 12447
ll@@ 12448
ity@@ 12449
respectively 12450
Chic@@ 12451
gemäß 12452
Rebecca 12453
brauche 12454
oll 12455
possession 12456
tum 12457
Verkehr 12458
elektr@@ 12459
welt 12460
ho 12461
ok 12462
Krankenschwestern 12463
att 12464
Oakland 12465
frau@@ 12466
Gefühle 12467
ambassador 12468
authors 12469
meanwhile 12470
nachzudenken 12471
berat@@ 12472
describe 12473
lessons 12474
Flücht@@ 12475
warming 12476
long@@ 12477
cleaning 12478
37@@ 12479
Zie@@ 12480
Cher@@ 12481
hinterlassen 12482
vermutlich 12483
oming 12484
Gan@@ 12485
cream 12486
ems 12487
cus 12488
esische 12489
freut 12490
entspricht 12491
convinced 12492
demanded 12493
2025 12494
irgendetwas 12495
massi@@ 12496
wel 12497
Dakota 12498
brenn@@ 12499
dman 12500
kehr@@ 12501
quis@@ 12502
stück 12503
Ted 12504
tent 12505
Einstellung 12506
Thank 12507
Wür@@ 12508
außen 12509
Einen 12510
Friends 12511
Nominierung 12512
Europäische 12513
goo@@ 12514
ified 12515
unfair 12516
durchaus 12517
Govern@@ 12518
Rob@@ 12519
kaufte 12520
Kie@@ 12521
Schil@@ 12522
Ze@@ 12523
lovely 12524
secured 12525
äumen 12526
Vorbereitung 12527
Wy@@ 12528
concept 12529
schlugen 12530
solange 12531
zierte 12532
Protest@@ 12533
öse 12534
Aug. 12535
ICE 12536
missile 12537
nicht-@@ 12538
Hughes 12539
Place 12540
natürliche 12541
hear@@ 12542
Rasse 12543
sustained 12544
tätig 12545
aufnahme 12546
leistung 12547
nehm@@ 12548
pleased 12549
ature 12550
bekomme 12551
Mahlzeiten 12552
Sunak 12553
industri@@ 12554
kalifornischen 12555
impor@@ 12556
tox@@ 12557
buch@@ 12558
Einklang 12559
Netanyahu 12560
flag@@ 12561
critic@@ 12562
schu@@ 12563
Data 12564
choices 12565
Tower 12566
aufgewachsen 12567
zeug 12568
schnell@@ 12569
useful 12570
chemical 12571
wächst 12572
aj@@ 12573
itis 12574
verwandeln 12575
dos 12576
rieben 12577
Cabinet 12578
scar@@ 12579
stock@@ 12580
wasser 12581
ograph@@ 12582
technologies 12583
Warriors 12584
Ric@@ 12585
alist@@ 12586
kli@@ 12587
unds 12588
tolle 12589
deutsche 12590
Europ@@ 12591
Tele@@ 12592
Transfer@@ 12593
hundred 12594
Beru@@ 12595
bia 12596
wodurch 12597
Vermont 12598
arian 12599
Blasio 12600
neuro@@ 12601
weiten 12602
moral@@ 12603
beunruhig@@ 12604
aufgebaut 12605
ausschusses 12606
gesperrt 12607
steu@@ 12608
Clau@@ 12609
ramp@@ 12610
abin@@ 12611
pling 12612
Kurz@@ 12613
breit@@ 12614
ScienceDaily 12615
spon@@ 12616
Samm@@ 12617
Widerstand 12618
habit@@ 12619
ign 12620
lower@@ 12621
Brüssel 12622
resulting 12623
Entschuldigung 12624
intervention 12625
producing 12626
Deals 12627
divided 12628
cial 12629
fers 12630
Golf@@ 12631
Presse@@ 12632
requested 12633
Mechan@@ 12634
exclu@@ 12635
Sicher@@ 12636
faszin@@ 12637
headquarters 12638
pal 12639
par 12640
äub@@ 12641
Age 12642
continent 12643
hired 12644
Erkrankung 12645
drin@@ 12646
ic-@@ 12647
survived 12648
Krankenhäusern 12649
alisten 12650
pension@@ 12651
providers 12652
Reed 12653
bus@@ 12654
Thanksgiving 12655
Julia 12656
Arab@@ 12657
ris 12658
landed 12659
-and-@@ 12660
Hunde 12661
ichts@@ 12662
defeated 12663
packt 12664
roman@@ 12665
digitalen 12666
vieler 12667
Stock@@ 12668
Johnny 12669
Königreichs 12670
arch 12671
counter 12672
Aff@@ 12673
igners 12674
cents 12675
pub 12676
äger 12677
crude 12678
emer@@ 12679
vierte 12680
Schumer 12681
gerich@@ 12682
hörige 12683
Boy 12684
digten 12685
appreci@@ 12686
blocks 12687
irt 12688
Agent 12689
brothers 12690
Jerry 12691
fled 12692
produktion 12693
Smart 12694
lichkeits@@ 12695
linge 12696
odds 12697
präsentieren 12698
Ronaldo 12699
clip 12700
con 12701
Swe@@ 12702
130 12703
acken 12704
rarely 12705
C. 12706
Generalstaatsanwalt 12707
UC@@ 12708
collective 12709
Meister 12710
verstorbenen 12711
Climate 12712
musst 12713
verlangt 12714
onder@@ 12715
Alkohol 12716
etti 12717
jan 12718
Brad@@ 12719
Führungskräfte 12720
eskal@@ 12721
besiegte 12722
renov@@ 12723
S.@@ 12724
beschä@@ 12725
orie 12726
relatives 12727
gelesen 12728
flex@@ 12729
Proz@@ 12730
killer 12731
nachrichten 12732
Hypothe@@ 12733
pressing 12734
single-@@ 12735
Senatorin 12736
plate 12737
Head@@ 12738
academic 12739
dominated 12740
enter@@ 12741
Marshall 12742
Regisseur 12743
'It 12744
silence 12745
350 12746
bewerten 12747
recommendations 12748
past@@ 12749
Serge@@ 12750
ruft 12751
Rechnung 12752
fung@@ 12753
sla@@ 12754
Überschwemmungen 12755
Deputy 12756
Nachrichtenagentur 12757
crore 12758
Standort 12759
monthly 12760
pression 12761
Koh@@ 12762
gekämpft 12763
metal 12764
Helen 12765
Shane 12766
Zer@@ 12767
kräften 12768
schockiert 12769
effekti@@ 12770
arguing 12771
zeitig 12772
reichte 12773
tone 12774
anhaltende 12775
remin@@ 12776
temporarily 12777
Maharashtra 12778
tägliche 12779
loc@@ 12780
occasion 12781
struktur@@ 12782
Forum 12783
trips 12784
Knie 12785
Luis 12786
Tax@@ 12787
tired 12788
besitzer 12789
knife 12790
wages 12791
visible 12792
Indeed 12793
explore 12794
asing 12795
jung@@ 12796
sorgte 12797
okay 12798
welfare 12799
lobte 12800
Yang 12801
Bevor 12802
anzubieten 12803
PP@@ 12804
tile 12805
Reid 12806
überwachen 12807
Ahnung 12808
procedures 12809
11-@@ 12810
distri@@ 12811
Zwei-@@ 12812
ethnic 12813
generations 12814
schwä@@ 12815
striking 12816
Ander@@ 12817
Blo@@ 12818
ati 12819
urs@@ 12820
Die@@ 12821
Gerichte 12822
clock 12823
train@@ 12824
Nordkorea 12825
hren 12826
FL 12827
CO 12828
attending 12829
sieg 12830
Pat 12831
isolated 12832
kicked 12833
mom 12834
ssi@@ 12835
steh@@ 12836
lierten 12837
drawing 12838
ific@@ 12839
Isolation 12840
verrückt 12841
Impf@@ 12842
cry 12843
verpasste 12844
Dennis 12845
frem@@ 12846
num@@ 12847
scrutiny 12848
Broadway 12849
Mir 12850
Generationen 12851
wy 12852
employed 12853
line-@@ 12854
Julian 12855
recogn@@ 12856
ite-@@ 12857
surprising 12858
updates 12859
geräte 12860
Frem@@ 12861
mög@@ 12862
müsste 12863
tragedy 12864
Befürworter 12865
Call@@ 12866
Cir@@ 12867
Festnahme 12868
Aufzeichnungen 12869
Inneren 12870
bail 12871
schaute 12872
zwang 12873
memories 12874
Hack@@ 12875
contribute 12876
Come 12877
ghter 12878
Kategorie 12879
Stan@@ 12880
betreibt 12881
versorgung 12882
schätzt 12883
Funktionen 12884
Gesundheitsversorgung 12885
Kohlen@@ 12886
as-@@ 12887
Aston 12888
Faktor 12889
anyway 12890
Sonntag@@ 12891
alisierten 12892
wies@@ 12893
Brandon 12894
örtlichen 12895
terror 12896
episodes 12897
towns 12898
decent 12899
Milwaukee 12900
vertrag 12901
overs 12902
Michel 12903
45@@ 12904
hospit@@ 12905
Nathan 12906
Welsh 12907
advis@@ 12908
Tasche 12909
ine-@@ 12910
Finance 12911
schre@@ 12912
Andre@@ 12913
fünften 12914
verhe@@ 12915
Swift 12916
Produktions@@ 12917
solve 12918
stür@@ 12919
Woman 12920
Wohltätigkeitsorganisation 12921
agreements 12922
zweiter 12923
mere 12924
sized 12925
spike 12926
schreck@@ 12927
Cann@@ 12928
Jugendliche 12929
Mie@@ 12930
sanc@@ 12931
strafe 12932
liebte 12933
wohl@@ 12934
schaff@@ 12935
een 12936
Water 12937
rushed 12938
durchschnittliche 12939
edd 12940
salary 12941
Mö@@ 12942
Todd 12943
Connecticut 12944
überzeugen 12945
law@@ 12946
register 12947
venue 12948
Verurteilung 12949
asted 12950
splan 12951
Vielfalt 12952
proceedings 12953
Schülern 12954
Sech@@ 12955
dered 12956
gos 12957
lett 12958
verwandelt 12959
ständige 12960
Mnuchin 12961
16.@@ 12962
Favorit 12963
Führ@@ 12964
Klobuchar 12965
boards 12966
versprach 12967
entscheidender 12968
throwing 12969
grat@@ 12970
sley 12971
behin@@ 12972
verheiratet 12973
Zimbabwe 12974
carefully 12975
fei@@ 12976
pending 12977
Verluste 12978
Girl 12979
Spei@@ 12980
deinen 12981
Feh@@ 12982
Hinsicht 12983
Hit 12984
filmed 12985
jährlich 12986
kette 12987
Argument 12988
ydd 12989
nei@@ 12990
” 12991
mae 12992
zellen 12993
ziert 12994
finale 12995
Versicher@@ 12996
dressed 12997
Werbung 12998
spielten 12999
Maguire 13000
ausgehen 13001
ials 13002
samples 13003
Everything 13004
Kit@@ 13005
Things 13006
laufenden 13007
Mord@@ 13008
Program 13009
ergeben 13010
Digital 13011
veranlasste 13012
perfectly 13013
productive 13014
Bin@@ 13015
globally 13016
regardless 13017
enjoying 13018
Jen@@ 13019
Kolle@@ 13020
margin@@ 13021
twe@@ 13022
Frank@@ 13023
Std. 13024
gewalttä@@ 13025
äufen 13026
conver@@ 13027
erledigen 13028
verlegt 13029
gefüllt 13030
gert 13031
progressi@@ 13032
approached 13033
änge 13034
stä@@ 13035
Zweit@@ 13036
iti 13037
Juventus 13038
rail 13039
äuß@@ 13040
Vorder@@ 13041
remarkable 13042
coal 13043
Läden 13044
loves 13045
Ear@@ 13046
express 13047
landing 13048
Gewerkschaft 13049
Leitung 13050
Mik@@ 13051
dan 13052
fighters 13053
häufiger 13054
You@@ 13055
abandoned 13056
aters 13057
outbreaks 13058
kennt 13059
Besetzung 13060
Sul@@ 13061
einfachen 13062
gran@@ 13063
Invest@@ 13064
dressing 13065
Johns 13066
Konten 13067
camps 13068
harassment 13069
tion-@@ 13070
zusammenzu@@ 13071
Kurz 13072
erwähnt 13073
Pflicht 13074
pregnancy 13075
Univers@@ 13076
guest 13077
Künst@@ 13078
accusations 13079
careful 13080
graduate 13081
canceled 13082
zentrale 13083
esischen 13084
freiheit 13085
urge 13086
12,@@ 13087
niemanden 13088
resistance 13089
Hope 13090
spi@@ 13091
tradition 13092
Schatten 13093
forming 13094
tiefen 13095
Anführer 13096
Rav@@ 13097
Way 13098
konferenz 13099
whe@@ 13100
Ton 13101
Gottes@@ 13102
geliebt 13103
icht 13104
ype 13105
amer@@ 13106
celebration 13107
viewed 13108
kü@@ 13109
schwierigen 13110
zukünftige 13111
subsi@@ 13112
deemed 13113
heißen 13114
waited 13115
fundamental 13116
gestoppt 13117
moderne 13118
uting 13119
NBA-@@ 13120
Newsweek 13121
TE 13122
aufgestellt 13123
may@@ 13124
passi@@ 13125
resses 13126
nein 13127
bewältigen 13128
cting 13129
erhe@@ 13130
dürften 13131
Seoul 13132
Windsor 13133
kombin@@ 13134
annte 13135
arts 13136
spac@@ 13137
commit 13138
ography 13139
signal 13140
Sach@@ 13141
guarantee 13142
Zinsen 13143
legend 13144
Neue 13145
observed 13146
Din@@ 13147
Freedom 13148
equally 13149
ologe 13150
prosecutor 13151
Fair 13152
metres 13153
A. 13154
Chan@@ 13155
entin 13156
permission 13157
diskutiert 13158
gedrängt 13159
yo 13160
History 13161
method 13162
qualified 13163
Vorgehen 13164
fläche 13165
poin@@ 13166
geist@@ 13167
befand 13168
Shor@@ 13169
explosion 13170
steigern 13171
traditionelle 13172
Klim@@ 13173
prob@@ 13174
Bedarf 13175
collaboration 13176
Diskussionen 13177
warnen 13178
erlauben 13179
ings@@ 13180
Utd 13181
Vie@@ 13182
ont@@ 13183
Produzenten 13184
Kanz@@ 13185
Oberfläche 13186
Richterin 13187
stric@@ 13188
rolle 13189
Sharma 13190
bergen 13191
physically 13192
Dancing 13193
Catherine 13194
verärgert 13195
figen 13196
sole 13197
Countys 13198
verpassen 13199
Rashford 13200
ergriffen 13201
enes 13202
L. 13203
Nature 13204
flav@@ 13205
Linda 13206
Versammlung 13207
Emergency 13208
Zeremonie 13209
uro@@ 13210
vermis@@ 13211
gig@@ 13212
ult 13213
unwahrscheinlich 13214
Bot@@ 13215
ible 13216
t. 13217
comment@@ 13218
mith 13219
Näch@@ 13220
Staff@@ 13221
hop 13222
olle@@ 13223
Handel@@ 13224
Dru@@ 13225
Updates 13226
eled 13227
baut 13228
Gle@@ 13229
woh@@ 13230
Paso 13231
boot 13232
schienen 13233
Kauf@@ 13234
Que@@ 13235
anischer 13236
nights 13237
guns 13238
befürwor@@ 13239
polit@@ 13240
dian 13241
Mund 13242
Snap@@ 13243
gebildet 13244
Ä@@ 13245
encing 13246
tigungs@@ 13247
Beobach@@ 13248
Baseball 13249
ancing 13250
gewicht 13251
2024 13252
eased 13253
publication 13254
gles 13255
öff@@ 13256
Innenstadt 13257
UAE 13258
defending 13259
nursing 13260
Jay@@ 13261
Tem@@ 13262
bü@@ 13263
GH@@ 13264
Mack@@ 13265
zte 13266
Wand 13267
landete 13268
stop@@ 13269
Lieblings@@ 13270
Prof. 13271
compensation 13272
geplanten 13273
Wohnungen 13274
acceler@@ 13275
dging 13276
plot 13277
wein@@ 13278
Russ@@ 13279
begangen 13280
din 13281
lle 13282
Tai@@ 13283
akh 13284
implemented 13285
Unterstütz@@ 13286
boxes 13287
school@@ 13288
Schmerz 13289
Fas@@ 13290
Have 13291
gebung 13292
glaubte 13293
mistakes 13294
Bus 13295
s. 13296
schmerzen 13297
begeistert 13298
ix 13299
landscape 13300
delays 13301
begrenzt 13302
borne 13303
for-@@ 13304
pursue 13305
Nationale 13306
parliamentary 13307
funeral 13308
Bradley 13309
Leser 13310
landesweit 13311
pa 13312
Umstände 13313
hall@@ 13314
veget@@ 13315
zung 13316
hoher 13317
Koalition 13318
ND@@ 13319
dopp@@ 13320
wanting 13321
Geschmack 13322
übrig 13323
aths 13324
South@@ 13325
Wald@@ 13326
benannt 13327
leben@@ 13328
Charaktere 13329
Roy@@ 13330
feuert 13331
Unfortunately 13332
affili@@ 13333
mode 13334
Lyon 13335
Arm@@ 13336
atures 13337
extensive 13338
panic 13339
Silva 13340
activ@@ 13341
inher@@ 13342
versi@@ 13343
chester 13344
Mo 13345
cles 13346
rounds 13347
schießen 13348
famili@@ 13349
foundation 13350
ländlichen 13351
Schwan@@ 13352
eigen@@ 13353
label 13354
phe@@ 13355
Mobile 13356
Safety 13357
omy 13358
38@@ 13359
Diabetes 13360
Water@@ 13361
Olympics 13362
billions 13363
donations 13364
jähriger 13365
stability 13366
drinks 13367
gerät 13368
Temp@@ 13369
ports 13370
tnis 13371
Schwer@@ 13372
Unterricht 13373
Nicole 13374
Please 13375
luck 13376
Megan 13377
gefäl@@ 13378
stirbt 13379
treatments 13380
Kultur@@ 13381
singing 13382
Zoll 13383
caf@@ 13384
bad@@ 13385
shoes 13386
verfassungs@@ 13387
mangel@@ 13388
oph@@ 13389
49@@ 13390
updated 13391
Later 13392
streit@@ 13393
situations 13394
betrug 13395
per-@@ 13396
sudden 13397
zusagen 13398
Studi@@ 13399
entreprene@@ 13400
graben 13401
zie@@ 13402
terung 13403
Impfstoff@@ 13404
Rel@@ 13405
honor 13406
Senatoren 13407
Lebensmitteln 13408
chy 13409
Vermögen 13410
Terry 13411
2023 13412
Eigen@@ 13413
processes 13414
Hilfs@@ 13415
improvement 13416
integri@@ 13417
Äußerungen 13418
Offensichtlich 13419
specialist 13420
diabetes 13421
volume 13422
Clo@@ 13423
appreciate 13424
Formen 13425
ev 13426
kompliz@@ 13427
Convention 13428
kamp@@ 13429
omin@@ 13430
ruhig 13431
client 13432
ocean 13433
theater 13434
Direktorin 13435
Tragödie 13436
alty 13437
decre@@ 13438
Ment@@ 13439
momentum 13440
überwälti@@ 13441
Carrie 13442
dings 13443
lev@@ 13444
Ins@@ 13445
Kontakt@@ 13446
banking 13447
Gray 13448
reise 13449
Econom@@ 13450
sions@@ 13451
Operationen 13452
steuer 13453
Mindestens 13454
darstellen 13455
erkannte 13456
kost@@ 13457
auto@@ 13458
deutete 13459
Schauen 13460
objec@@ 13461
Gareth 13462
maintained 13463
Schock 13464
fund@@ 13465
tension 13466
Lea@@ 13467
Kapoor 13468
beantragen 13469
unmittel@@ 13470
Bad@@ 13471
drehte 13472
Struktur 13473
derungen 13474
amp 13475
Jung@@ 13476
plant@@ 13477
consumption 13478
was@@ 13479
Fort@@ 13480
representatives 13481
FT@@ 13482
Mi 13483
canc@@ 13484
konkre@@ 13485
Liz@@ 13486
fäh@@ 13487
Muslims 13488
Sanchez 13489
Schätzungen 13490
Koll@@ 13491
Eng@@ 13492
zun@@ 13493
-to-@@ 13494
Anwesen 13495
Regime 13496
attempting 13497
cover@@ 13498
Motor 13499
versammlung 13500
geschwin@@ 13501
Perth 13502
Konflikt 13503
hardly 13504
highlighted 13505
ital 13506
treating 13507
äter 13508
Gove 13509
cott 13510
fortgesetzt 13511
ration@@ 13512
beer 13513
infectious 13514
journal 13515
stehenden 13516
atively 13517
Kashmir 13518
describes 13519
knü@@ 13520
pledged 13521
prim@@ 13522
sexuell 13523
theast 13524
zerstör@@ 13525
AM 13526
PI@@ 13527
Schie@@ 13528
Yankees 13529
21-@@ 13530
Being 13531
Gabriel 13532
Weltgesundheitsorganisation 13533
diagnosis 13534
trends 13535
ential 13536
Einkaufs@@ 13537
Tennis 13538
daughters 13539
Personal@@ 13540
implement 13541
Datum 13542
nose 13543
wildlife 13544
Code 13545
jailed 13546
unk@@ 13547
Schne@@ 13548
besonderen 13549
hierher 13550
ros 13551
Bundes 13552
1980 13553
Gat@@ 13554
collect 13555
sits 13556
Ron@@ 13557
Kunden@@ 13558
leiden@@ 13559
Rund 13560
noise 13561
ons@@ 13562
Robin 13563
eas@@ 13564
AL 13565
Poll@@ 13566
Produkten 13567
beleb@@ 13568
impose 13569
Zeug 13570
nock 13571
Bereiche 13572
immer@@ 13573
stagmorgen 13574
tively 13575
verschlim@@ 13576
Landkreis 13577
alo@@ 13578
Gesundheitsminister 13579
Schwe@@ 13580
Greater 13581
Som@@ 13582
seemingly 13583
Frist 13584
Polizist 13585
hung@@ 13586
Halbfinale 13587
Lern@@ 13588
Meisterschaft 13589
resolve 13590
13-@@ 13591
Entlassung 13592
radical 13593
rufe 13594
Höchst@@ 13595
Sid@@ 13596
null 13597
occur 13598
verbot 13599
East@@ 13600
Emissionen 13601
Pir@@ 13602
W-@@ 13603
armen 13604
Carroll 13605
Handelsabkommen 13606
arzt 13607
attra@@ 13608
Kanal 13609
ikon@@ 13610
equivalent 13611
erb@@ 13612
Kleid 13613
dans 13614
rechtlichen 13615
Dort 13616
capture 13617
Emirates 13618
Albert 13619
Chuck 13620
holi@@ 13621
lion 13622
wache 13623
association 13624
Amber 13625
tips 13626
Labour-Partei 13627
baseball 13628
daraufhin 13629
umzugehen 13630
cket 13631
efficient 13632
pages 13633
Change 13634
Regist@@ 13635
decor@@ 13636
gesetze 13637
ishes 13638
semble 13639
crowded 13640
conscious 13641
enken 13642
Corp 13643
Malaysia 13644
aufrechtzuerhalten 13645
stolen 13646
verletzungen 13647
Kell@@ 13648
trains 13649
Kilometer 13650
ashed 13651
bre 13652
condem@@ 13653
ope 13654
Pflanzen 13655
Nachbar@@ 13656
Fli@@ 13657
GP 13658
Haushalte 13659
TO 13660
negoti@@ 13661
quarters 13662
Captain 13663
Computer 13664
Ukrainian 13665
wol@@ 13666
1990s 13667
Zivil@@ 13668
virtually 13669
aktive 13670
Kro@@ 13671
flächen 13672
march 13673
outstanding 13674
Beat@@ 13675
semi-@@ 13676
1980s 13677
Diplom@@ 13678
berühmten 13679
fantast@@ 13680
ppen@@ 13681
Entertainment 13682
Erleichterung 13683
Money 13684
kanischen 13685
int@@ 13686
Garcia 13687
Polit@@ 13688
Saints 13689
mountain 13690
weapon 13691
Bildschir@@ 13692
ankün@@ 13693
dün@@ 13694
shed 13695
sigkeit 13696
drinnen 13697
istic 13698
statist@@ 13699
Demokratischen 13700
Vide@@ 13701
ected 13702
GE 13703
bread 13704
hill 13705
Woo@@ 13706
irgendeiner 13707
Erhöhung 13708
venture 13709
passion 13710
Karten 13711
III 13712
Inseln 13713
Cal 13714
Vorwürfen 13715
tracking 13716
dead@@ 13717
realist@@ 13718
PM@@ 13719
adap@@ 13720
engine 13721
ordinary 13722
stammen 13723
WH@@ 13724
cheap 13725
Commonwealth 13726
Frau@@ 13727
demonstrations 13728
depth 13729
rator 13730
vertei@@ 13731
Gesam@@ 13732
Sitz@@ 13733
Tragen 13734
herausforder@@ 13735
999 13736
Gates 13737
verbreiten 13738
DP 13739
DS 13740
McG@@ 13741
migrant 13742
Umfeld 13743
blind 13744
elev@@ 13745
risen 13746
1988 13747
eröffnete 13748
grant 13749
partly 13750
ax 13751
historische 13752
Rit@@ 13753
Alters@@ 13754
Justizministerium 13755
pink 13756
Blair 13757
Marc 13758
Bobby 13759
ardo 13760
Begriff 13761
E-Mails 13762
Keir 13763
lav@@ 13764
hinzugefügt 13765
spreche 13766
passierte 13767
Sammlung 13768
sist@@ 13769
wash 13770
Moo@@ 13771
oli 13772
steuern 13773
tauchen 13774
valuable 13775
Palestinian 13776
Reformen 13777
bestritten 13778
fec@@ 13779
irre@@ 13780
stig@@ 13781
Musi@@ 13782
smartphone 13783
tierung 13784
cen@@ 13785
här@@ 13786
impacts 13787
nehmer@@ 13788
typical 13789
Dance 13790
gear 13791
exklu@@ 13792
heim 13793
Systeme 13794
gab@@ 13795
illustr@@ 13796
beinhaltet 13797
Joint 13798
finanzieren 13799
Gehalts@@ 13800
breakfast 13801
perpet@@ 13802
neutr@@ 13803
belieb@@ 13804
cted 13805
Stanford 13806
emails 13807
ingham 13808
Aufgaben 13809
Kü@@ 13810
erheblich 13811
zurückzuführen 13812
babies 13813
ranks 13814
mption 13815
enko 13816
Bezos 13817
Clu@@ 13818
Verdächtigen 13819
hal 13820
survi@@ 13821
Comp@@ 13822
Delta 13823
ancient 13824
iri 13825
picking 13826
Wird 13827
freigelassen 13828
nirgendwo 13829
organiz@@ 13830
politically 13831
Hit@@ 13832
Erst 13833
Kompon@@ 13834
entation 13835
Deb@@ 13836
bens@@ 13837
error 13838
CD@@ 13839
anzugehen 13840
entdeckte 13841
gym 13842
emon@@ 13843
schwarzer 13844
Cancer 13845
Glas 13846
drast@@ 13847
appt 13848
leitende 13849
SD@@ 13850
Stein@@ 13851
Umsetzung 13852
bone 13853
Lanka 13854
lab 13855
Bedürf@@ 13856
cross-@@ 13857
erhoben 13858
announcing 13859
Krebs@@ 13860
Nahen 13861
somehow 13862
Seven 13863
ventionen 13864
rennen 13865
hochrangige 13866
roof 13867
lingen 13868
Cla@@ 13869
Zins@@ 13870
erstellen 13871
schrieben 13872
Lesen 13873
basierend 13874
rus 13875
Schweden 13876
gewis@@ 13877
ruppe 13878
zurückgekehrt 13879
Betrug 13880
McCarthy 13881
Ten 13882
Mindest@@ 13883
civilians 13884
concentr@@ 13885
organisiert 13886
pattern 13887
vertraut 13888
immunity 13889
sinken 13890
aut@@ 13891
Feb. 13892
Kay@@ 13893
agte 13894
kontrolliert 13895
tei@@ 13896
Inzwischen 13897
cleared 13898
doc@@ 13899
senators 13900
betrieb 13901
bias 13902
hypo@@ 13903
erlitt 13904
investig@@ 13905
Technologien 13906
doppelt 13907
recy@@ 13908
Berat@@ 13909
Fris@@ 13910
liger 13911
versprochen 13912
weichen 13913
Cath@@ 13914
ides 13915
ox@@ 13916
weltweiten 13917
regulatory 13918
Tun@@ 13919
enne 13920
nungen 13921
orten 13922
phen@@ 13923
hopeful 13924
Mam@@ 13925
districts 13926
shaw 13927
Symp@@ 13928
Trends 13929
associate 13930
comprehensive 13931
durchschnittlich 13932
Abbott 13933
Jes@@ 13934
zentralen 13935
Empfehlungen 13936
fischen 13937
swing 13938
Rekru@@ 13939
kümmert 13940
kleinere 13941
verhängt 13942
Feier@@ 13943
temper@@ 13944
Rückstand 13945
asp@@ 13946
debü@@ 13947
smile 13948
prakti@@ 13949
verk@@ 13950
Offizier 13951
Pep@@ 13952
Tie@@ 13953
Nah@@ 13954
Thrones 13955
Corn@@ 13956
unlike 13957
Ex 13958
Positionen 13959
controls 13960
EN 13961
filming 13962
Schiff@@ 13963
gegenseitig 13964
setz@@ 13965
Kapazität 13966
Stro@@ 13967
cla@@ 13968
wee@@ 13969
ähnlicher 13970
populations 13971
Tigers 13972
gg@@ 13973
ausländischen 13974
Ocean 13975
geschützt 13976
.C. 13977
Aj@@ 13978
Herstellung 13979
vorzubereiten 13980
Vorschriften 13981
adop@@ 13982
anymore 13983
chtet 13984
sensor 13985
Saisons 13986
Schlafzimmer 13987
Tig@@ 13988
italienischen 13989
politician 13990
maj@@ 13991
prognostiziert 13992
Angels 13993
Dabei 13994
Girls 13995
IO@@ 13996
feiert 13997
Bedürfnisse 13998
lust@@ 13999
unabhängigen 14000
Schi@@ 14001
Tanz@@ 14002
Mod@@ 14003
afri@@ 14004
fak@@ 14005
horror 14006
pupils 14007
tok@@ 14008
J.@@ 14009
30.000 14010
eter 14011
17.@@ 14012
Mittelpunkt 14013
betrifft 14014
hinsichtlich 14015
verlangsamen 14016
verlängert 14017
Anbieter 14018
Vik@@ 14019
dialogue 14020
globe 14021
17-@@ 14022
Griff 14023
actively 14024
beanspru@@ 14025
exports 14026
aufbauen 14027
earth 14028
sprang 14029
Nase 14030
zulegen 14031
schein 14032
survival 14033
uli@@ 14034
AN 14035
Gruppen@@ 14036
Staatschef 14037
monat@@ 14038
filling 14039
Moderatorin 14040
Walter 14041
Förderung 14042
Report 14043
richtung 14044
ultimate 14045
Flut 14046
kämp@@ 14047
ailed 14048
rebounds 14049
schwierige 14050
Aufbau 14051
Sally 14052
leichte 14053
zell@@ 14054
Abkommens 14055
rats 14056
Dark 14057
gestre@@ 14058
hidden 14059
speziell 14060
Hass@@ 14061
30,000 14062
schwanger 14063
virtu@@ 14064
Louise 14065
Wähler@@ 14066
800@@ 14067
Holl@@ 14068
1987 14069
Maine 14070
ber-@@ 14071
Woh@@ 14072
angle 14073
begrün@@ 14074
interess@@ 14075
Wang 14076
Player 14077
Wirtschaft@@ 14078
blan@@ 14079
Prozesses 14080
republi@@ 14081
screening 14082
Student 14083
Bennett 14084
grenz@@ 14085
hoben 14086
controversy 14087
impressed 14088
Pferd 14089
ingredients 14090
rums 14091
1990er 14092
Julie 14093
Vorher@@ 14094
Innovation 14095
Dutch 14096
ignored 14097
depending 14098
health@@ 14099
Amerikanern 14100
gegenüber@@ 14101
tötete 14102
oh 14103
And@@ 14104
bef@@ 14105
podcast 14106
ücke 14107
Franklin 14108
High-@@ 14109
flooding 14110
Erkenntnisse 14111
Starmer 14112
Through 14113
gonna 14114
1980er 14115
Stacey 14116
ständigen 14117
NC 14118
Spre@@ 14119
leute 14120
vertritt 14121
entlichen 14122
Satell@@ 14123
Spezi@@ 14124
lichste 14125
bahn@@ 14126
host@@ 14127
lement 14128
Ereignis 14129
aler@@ 14130
thin 14131
unterschiedliche 14132
venues 14133
Archie 14134
discovery 14135
räume 14136
Adelaide 14137
ragende 14138
Aufruf 14139
citizenship 14140
Baum@@ 14141
versus 14142
Cent@@ 14143
Pogba 14144
focusing 14145
ico 14146
natürlichen 14147
ktur 14148
mannschaft 14149
ification 14150
1986 14151
accompl@@ 14152
wünschte 14153
Internet@@ 14154
Racing 14155
replacement 14156
schreckliche 14157
stap@@ 14158
Jenn@@ 14159
einheit 14160
möglichkeiten 14161
stunden 14162
bestritt 14163
joke 14164
Lot@@ 14165
jährliche 14166
selt 14167
challenged 14168
CBD 14169
Drug 14170
Poland 14171
cats 14172
foods 14173
icken 14174
beschreibt 14175
verwies 14176
Oval 14177
Zuckerberg 14178
geladen 14179
genes 14180
oles@@ 14181
sleeping 14182
Vari@@ 14183
ergän@@ 14184
vertrau@@ 14185
agt 14186
Immobilien 14187
wling 14188
Andrea 14189
script 14190
Tap@@ 14191
UT@@ 14192
Brust@@ 14193
finanziert 14194
IB@@ 14195
Eigentümer 14196
Hey 14197
duties 14198
verstärken 14199
Stücke 14200
lington 14201
musi@@ 14202
ungser@@ 14203
Gemeinde@@ 14204
Runden 14205
Researchers 14206
Spor@@ 14207
visu@@ 14208
Ethiopia 14209
erwartete 14210
.. 14211
underlying 14212
Latin 14213
therapie 14214
auff@@ 14215
kampagne 14216
losigkeit 14217
plain@@ 14218
Famili@@ 14219
Soleimani 14220
Übergang 14221
Rebounds 14222
ausgeben 14223
scheit@@ 14224
rote 14225
sick@@ 14226
rub@@ 14227
sache 14228
Betracht 14229
alisation 14230
beeindruckt 14231
2.5 14232
amm 14233
fever 14234
free@@ 14235
ural 14236
Al-@@ 14237
anding 14238
Midlands 14239
angeführt 14240
bekamen 14241
shadow 14242
dropping 14243
Foo@@ 14244
hunder@@ 14245
intention 14246
bst@@ 14247
Rum@@ 14248
consu@@ 14249
Om@@ 14250
Part 14251
agers 14252
ausgeb@@ 14253
Moun@@ 14254
dreht 14255
Liebes@@ 14256
Offensive 14257
genetic 14258
gewöhn@@ 14259
nominated 14260
sent@@ 14261
Hob@@ 14262
theatre 14263
ula 14264
000@@ 14265
Industrial 14266
disruption 14267
tioned 14268
Pressemitteilung 14269
Wand@@ 14270
cris@@ 14271
ereignete 14272
Celebrity 14273
Gehir@@ 14274
ähr@@ 14275
Jar@@ 14276
apo@@ 14277
fixed 14278
Stimmabgabe 14279
wochen@@ 14280
Burns 14281
atten 14282
closures 14283
ppte 14284
Reichweite 14285
Ruhestand 14286
engineering 14287
Hart 14288
lessly 14289
Wann 14290
Kamp@@ 14291
kostet 14292
Airways 14293
Lib 14294
stärk@@ 14295
1979 14296
Beiträge 14297
bemerkte 14298
bestimmt 14299
sporting 14300
verlängern 14301
beantworten 14302
evalu@@ 14303
begrenzte 14304
beschreiben 14305
readers 14306
Lak@@ 14307
vorderster 14308
bour@@ 14309
iss@@ 14310
than@@ 14311
willkommen 14312
Arbeitslosigkeit 14313
Vereine 14314
qualität 14315
Hak@@ 14316
M.@@ 14317
Ye@@ 14318
counting 14319
suspects 14320
ungewöhnlich 14321
D.@@ 14322
genet@@ 14323
night@@ 14324
Goldman 14325
U.N. 14326
Eröffnung 14327
year-old 14328
Diejenigen 14329
suspension 14330
feh@@ 14331
erwiesen 14332
promo@@ 14333
diction 14334
fatal 14335
guar@@ 14336
hochkarä@@ 14337
offene 14338
seized 14339
Bild@@ 14340
Stakes 14341
verliert 14342
Diagnose 14343
Fili@@ 14344
Parlaments 14345
SpaceX 14346
diges 14347
outlets 14348
stück@@ 14349
Muster 14350
fizierung 14351
insu@@ 14352
Legende 14353
less@@ 14354
longtime 14355
pris@@ 14356
verhalten 14357
expor@@ 14358
vil 14359
Gesetzes 14360
Wahr@@ 14361
accompanied 14362
antreten 14363
cloud 14364
swimming 14365
isoliert 14366
Bäume 14367
Stokes 14368
Wade 14369
mandatory 14370
cyn@@ 14371
drone 14372
Alamy 14373
Mercedes 14374
Samuel 14375
lane 14376
traten 14377
Partners 14378
drückte 14379
Arkansas 14380
orn 14381
Internationalen 14382
Islam 14383
eingesch@@ 14384
lick 14385
Übernahme 14386
mäß@@ 14387
stürzte 14388
Emotionen 14389
guards 14390
Geschäften 14391
Hör@@ 14392
Konz@@ 14393
Beine 14394
jahrzehntel@@ 14395
langfristige 14396
worthy 14397
Federation 14398
organised 14399
Dienstagabend 14400
Never 14401
beschleunigen 14402
checked 14403
weitermachen 14404
shelter 14405
Szenen 14406
bowl 14407
nick@@ 14408
Eigent@@ 14409
Knight 14410
Nutzen 14411
Sinne 14412
gewisse 14413
iest 14414
lifestyle 14415
anticipated 14416
druck@@ 14417
Again 14418
rush 14419
Individu@@ 14420
101 14421
Challenge 14422
Hamp@@ 14423
Schicksal 14424
Diam@@ 14425
Witz 14426
klu@@ 14427
unions 14428
cook 14429
expression 14430
relation 14431
chts@@ 14432
Guy 14433
educ@@ 14434
pubs 14435
tear 14436
Prot@@ 14437
dere 14438
beschäftigen 14439
betre@@ 14440
entwicklung 14441
09 14442
appel@@ 14443
methods 14444
eggs 14445
erhältlich 14446
Gebühren 14447
Rodriguez 14448
greift 14449
impacted 14450
gegenwär@@ 14451
wäh@@ 14452
Curtis 14453
Gunnar 14454
sur 14455
33@@ 14456
Marvel 14457
Milliard@@ 14458
arguments 14459
durchführen 14460
wealthy 14461
Ab 14462
Zeitplan 14463
Fashion 14464
Hall@@ 14465
öpf@@ 14466
schrecklichen 14467
VO@@ 14468
monum@@ 14469
Around 14470
Border 14471
einigung 14472
seventh 14473
pointing 14474
Tradition 14475
schätze 14476
pan 14477
plau@@ 14478
leichter 14479
riefen 14480
self 14481
defined 14482
kandid@@ 14483
Beatmungs@@ 14484
Eigentum 14485
Farben 14486
erenden 14487
versammeln 14488
const@@ 14489
kinds 14490
Clubs 14491
Mohamed 14492
erholt 14493
berüch@@ 14494
dimen@@ 14495
früh@@ 14496
Haar@@ 14497
Yard-@@ 14498
Claire 14499
Verbre@@ 14500
assured 14501
unken 14502
zuhalten 14503
Autob@@ 14504
Gir@@ 14505
reliable 14506
Calif 14507
verraten 14508
entscheidende 14509
ikes 14510
kurzem 14511
Ankl@@ 14512
letting 14513
shocking 14514
Pictures 14515
fav@@ 14516
hinein 14517
krankungen 14518
ignorieren 14519
scope 14520
Belfast 14521
Wells 14522
waffen 14523
Beit@@ 14524
UC 14525
besitzen 14526
Redak@@ 14527
serviert 14528
studied 14529
tragte 14530
schaffte 14531
classi@@ 14532
affair 14533
droht 14534
Sciences 14535
coordin@@ 14536
clear@@ 14537
hanging 14538
prisoners 14539
fasst 14540
gather 14541
Ellis 14542
heu@@ 14543
tank 14544
God@@ 14545
NA 14546
acey 14547
oli@@ 14548
dadurch 14549
innovation 14550
derer 14551
ganzes 14552
orienti@@ 14553
präsen@@ 14554
film@@ 14555
letz@@ 14556
abil@@ 14557
conclusion 14558
E.@@ 14559
Monica 14560
teilungen 14561
consistently 14562
gege@@ 14563
ousness 14564
schalten 14565
Bildern 14566
Fehlverhalten 14567
disrup@@ 14568
verkaufte 14569
bomb 14570
exam@@ 14571
Gut@@ 14572
Panik 14573
stürzen 14574
kehren 14575
kick@@ 14576
removal 14577
GM@@ 14578
Greek 14579
Studenten@@ 14580
chest 14581
plast@@ 14582
Wes@@ 14583
sauber@@ 14584
Werbe@@ 14585
burden 14586
fted 14587
struggles 14588
Jan 14589
geseh@@ 14590
ctive 14591
verbin@@ 14592
Freitagabend 14593
eingeliefert 14594
depic@@ 14595
erstellt 14596
Hafen 14597
expanding 14598
ologists 14599
Gilli@@ 14600
Bachel@@ 14601
Kämpfer 14602
gefühlt 14603
tracing 14604
Einwander@@ 14605
MB@@ 14606
Mauer 14607
affen 14608
illu@@ 14609
somewhat 14610
dreimal 14611
arti@@ 14612
chocolate 14613
erfüllt 14614
Spenden 14615
Ass@@ 14616
survivors 14617
verlangen 14618
fighter 14619
aktion 14620
lakh 14621
encies 14622
lifting 14623
worfen 14624
Unfall 14625
soil 14626
tap@@ 14627
Sign@@ 14628
banken 14629
nutzten 14630
structures 14631
Landwirtschaft 14632
ollah 14633
Li 14634
hou@@ 14635
sprü@@ 14636
Lach@@ 14637
directors 14638
1000 14639
exhibition 14640
jüngeren 14641
liege 14642
wre@@ 14643
alliance 14644
dienstes 14645
overcome 14646
Mountain 14647
Authorities 14648
Fab@@ 14649
Flucht 14650
besitzt 14651
Ginsburg 14652
keeper 14653
Fei@@ 14654
Verletz@@ 14655
Ursache 14656
jung 14657
wl 14658
Job@@ 14659
stär@@ 14660
asts 14661
chi@@ 14662
Australier 14663
I.@@ 14664
speaker 14665
erfol@@ 14666
Wild 14667
kochen 14668
Fund@@ 14669
Melania 14670
Mick 14671
Page 14672
dran 14673
statistics 14674
züge 14675
investiert 14676
processing 14677
sogenannten 14678
tops 14679
zitierte 14680
Charak@@ 14681
Kindes 14682
Kolum@@ 14683
cans 14684
dors 14685
inspec@@ 14686
pension 14687
stairs 14688
Fitness@@ 14689
Nasdaq 14690
Benz@@ 14691
Landschaft 14692
promoting 14693
L.@@ 14694
notwendige 14695
Bein 14696
ignor@@ 14697
lockdowns 14698
alleg@@ 14699
Read 14700
allgemeine 14701
ditions 14702
Rebellion 14703
Tausenden 14704
stren@@ 14705
übernahm 14706
doses 14707
confi@@ 14708
Amendment 14709
Georgi@@ 14710
immen@@ 14711
sätzen 14712
bote 14713
RA 14714
admits 14715
Zahlung 14716
scho@@ 14717
ungst@@ 14718
Dw@@ 14719
Olymp@@ 14720
Wahrscheinlichkeit 14721
ails 14722
Alber@@ 14723
geleistet 14724
poli@@ 14725
Hir@@ 14726
articles 14727
eland 14728
Institution 14729
Software 14730
Technik 14731
erinnen 14732
schaden 14733
verantwor@@ 14734
erfolgt 14735
robu@@ 14736
ambitious 14737
entdecken 14738
fragten 14739
quote 14740
wahren 14741
zeugen 14742
08 14743
infrage 14744
settle 14745
publi@@ 14746
umfangre@@ 14747
YORK 14748
introduce 14749
refle@@ 14750
Botschaften 14751
divorce 14752
oon 14753
Nigerian 14754
rid 14755
einsetzen 14756
halbe 14757
Klassen@@ 14758
asha 14759
recognize 14760
Überwachung 14761
freundlich 14762
Zo@@ 14763
2,5 14764
Abschnitt 14765
geschätzt 14766
40-@@ 14767
drückt 14768
resigned 14769
zü@@ 14770
Dow@@ 14771
Nicholas 14772
Netherlands 14773
complained 14774
denden 14775
dramatisch 14776
exclusive 14777
pati@@ 14778
Bö@@ 14779
GE@@ 14780
Gerrard 14781
sender 14782
kne@@ 14783
mandate 14784
Einwanderer 14785
schlimm 14786
siven 14787
zustand 14788
Bewer@@ 14789
Gemüse 14790
celebrating 14791
chil@@ 14792
Beweis 14793
Robertson 14794
Verhand@@ 14795
Zahn@@ 14796
colleague 14797
prefer 14798
workforce 14799
contin@@ 14800
Haben 14801
ungewöhn@@ 14802
ID@@ 14803
unveiled 14804
Podcast 14805
Vertre@@ 14806
recognise 14807
organisationen 14808
ia@@ 14809
Elliott 14810
hero@@ 14811
Cincinnati 14812
benach@@ 14813
thei@@ 14814
bold 14815
quir@@ 14816
1969 14817
Bry@@ 14818
hoff@@ 14819
vo 14820
diesjährigen 14821
Geschle@@ 14822
beruf@@ 14823
calcul@@ 14824
practical 14825
bun@@ 14826
deficit 14827
demonstr@@ 14828
derselben 14829
diesmal 14830
Hoffnungen 14831
aufmerksam 14832
Drive 14833
Rol@@ 14834
auswirken 14835
Masters 14836
Schnee 14837
UP@@ 14838
acre 14839
rte 14840
Lagos 14841
Late 14842
ignoriert 14843
Future 14844
Emo@@ 14845
Opfern 14846
dicht 14847
primarily 14848
ener@@ 14849
gescheit@@ 14850
einig 14851
oos 14852
vert 14853
Pac@@ 14854
geord@@ 14855
Trop@@ 14856
geführten 14857
trainieren 14858
ingt 14859
versicherung 14860
Länge 14861
schluss 14862
AP@@ 14863
Siege 14864
contains 14865
Olivia 14866
Rain@@ 14867
Reisende 14868
Unterhaus 14869
Patient 14870
hams 14871
motiv@@ 14872
Dollar-@@ 14873
ital@@ 14874
näch@@ 14875
IM@@ 14876
Kerry 14877
Territ@@ 14878
Wick@@ 14879
pfte 14880
Konfli@@ 14881
Schriftsteller 14882
dier 14883
privileg@@ 14884
Lok@@ 14885
1st 14886
Liebling@@ 14887
bele@@ 14888
opped 14889
rupt 14890
Amazon@@ 14891
Resolution 14892
washing 14893
EN@@ 14894
gelang 14895
partisan 14896
traction 14897
zten 14898
Fortschritt 14899
beauf@@ 14900
vergan@@ 14901
BBC-@@ 14902
clar@@ 14903
Russlands 14904
tees 14905
exter@@ 14906
movements 14907
teilung 14908
sty@@ 14909
Derzeit 14910
Off 14911
Overs 14912
lists 14913
mord@@ 14914
ownership 14915
kandi@@ 14916
attitude 14917
Nichts 14918
aufgehoben 14919
protocols 14920
scientist 14921
18.@@ 14922
Tum@@ 14923
regulation 14924
sert 14925
stab 14926
Frie@@ 14927
investigated 14928
Donnerstagabend 14929
Kobe 14930
Match@@ 14931
ennt 14932
Beyond 14933
Until 14934
richter 14935
Americ@@ 14936
honour 14937
Dosen 14938
deeper 14939
fachen 14940
ES 14941
Holly 14942
deckung 14943
exact 14944
spie@@ 14945
firing 14946
reti@@ 14947
stur@@ 14948
zeige 14949
Bestes 14950
Mode 14951
Small 14952
WWE 14953
launching 14954
prosecution 14955
Krankenschwester 14956
erleichtern 14957
reass@@ 14958
Harper 14959
seltsam 14960
b-@@ 14961
salt 14962
Cornwall 14963
Mei@@ 14964
hair@@ 14965
headlines 14966
Arbeitslosen@@ 14967
Ferne 14968
tnis@@ 14969
gestohlen 14970
vertrauen 14971
äum@@ 14972
Griechenland 14973
Hannah 14974
lun@@ 14975
Chel@@ 14976
Experte 14977
quo 14978
restore 14979
Arme@@ 14980
Martinez 14981
Wirk@@ 14982
gotten 14983
Empf@@ 14984
integrity 14985
besu@@ 14986
instrum@@ 14987
telefon@@ 14988
Las@@ 14989
Lebanon 14990
Vergewaltigung 14991
posting 14992
sidel@@ 14993
Halloween 14994
tiefer 14995
Starts 14996
kits 14997
zehn@@ 14998
gled 14999
Ellen 15000
Liter@@ 15001
insists 15002
Weltkrieg 15003
ht@@ 15004
resignation 15005
zugelassen 15006
Anrufe 15007
Sad@@ 15008
erwar@@ 15009
painful 15010
downtown 15011
statue 15012
0s 15013
Ther@@ 15014
häl@@ 15015
irgend@@ 15016
Seh@@ 15017
gründen 15018
machines 15019
reviewed 15020
breathing 15021
seeks 15022
Besitz@@ 15023
neutral 15024
ET@@ 15025
erlaubte 15026
vorgenommen 15027
bestimm@@ 15028
Rico 15029
Bün@@ 15030
Episode 15031
Richmond 15032
einrichtungen 15033
Carl@@ 15034
Montagabend 15035
Reaktionen 15036
assembly 15037
damaligen 15038
resu@@ 15039
GO 15040
Sper@@ 15041
Wir@@ 15042
Les 15043
transform@@ 15044
bares 15045
establishment 15046
shaped 15047
gels 15048
Gleiche 15049
Verst@@ 15050
addressing 15051
chains 15052
cos 15053
formation 15054
Mond 15055
united 15056
wendet 15057
Schwein@@ 15058
celebrity 15059
gelangen 15060
lady 15061
delighted 15062
Gen 15063
Unruhen 15064
herein@@ 15065
hinzufügen 15066
expan@@ 15067
lokaler 15068
ohn 15069
wounded 15070
Meh@@ 15071
Ermitt@@ 15072
aven 15073
craft 15074
generated 15075
Handeln 15076
erklär@@ 15077
irischen 15078
waschen 15079
Brü@@ 15080
Effekt 15081
Single 15082
branch 15083
documented 15084
ERA 15085
Callum 15086
Sara 15087
gereist 15088
ua 15089
hydr@@ 15090
personality 15091
verstän@@ 15092
me-@@ 15093
chtete 15094
Clip 15095
Conn@@ 15096
stoß 15097
comparison 15098
runter@@ 15099
wirksam 15100
Damals 15101
ichts 15102
posten 15103
Flüchtlinge 15104
Zwischen@@ 15105
Tesco 15106
elektron@@ 15107
roll@@ 15108
Duncan 15109
begrüßt 15110
Politik@@ 15111
Rice 15112
kontak@@ 15113
damaging 15114
staat 15115
schau 15116
upper 15117
aired 15118
citizen 15119
dil@@ 15120
ografie 15121
Leidenschaft 15122
Piers 15123
Son 15124
stoffen 15125
-Sprecher 15126
orous 15127
spartei 15128
Gesichtsmasken 15129
anzunehmen 15130
wechsel 15131
Jared 15132
aufnahmen 15133
gerechnet 15134
solo 15135
Trauer 15136
Trennung 15137
theat@@ 15138
Wandel 15139
ields 15140
sig@@ 15141
Barrel 15142
Kabinetts@@ 15143
rage 15144
32@@ 15145
bevorzu@@ 15146
courage 15147
wichtigste 15148
Stich@@ 15149
zahlreiche 15150
Did 15151
Gremium 15152
allzu 15153
bloo@@ 15154
alarm 15155
contribution 15156
secre@@ 15157
Früher 15158
Walsh 15159
qui 15160
Ghana 15161
paint 15162
tene 15163
Ehe@@ 15164
concert 15165
pin@@ 15166
Emir@@ 15167
Sig@@ 15168
margin 15169
sitzung 15170
dü@@ 15171
Freilassung 15172
Queens 15173
britischer 15174
mer-@@ 15175
sheet 15176
tragic 15177
män@@ 15178
v. 15179
ise@@ 15180
mass@@ 15181
präsentiert 15182
haf@@ 15183
Bereitstellung 15184
empfohlen 15185
legitim@@ 15186
omed 15187
BT 15188
Jama@@ 15189
Lun@@ 15190
brillan@@ 15191
34@@ 15192
Alex@@ 15193
residence 15194
Termin 15195
ahnen 15196
Studien@@ 15197
verweigert 15198
Lis@@ 15199
Volkswirtschaften 15200
grab@@ 15201
schließ@@ 15202
steuer@@ 15203
versteht 15204
Demokrat 15205
RELATED 15206
aspects 15207
gesunde 15208
enormen 15209
gin 15210
Verbreitung 15211
Warnungen 15212
itting 15213
O-@@ 15214
stol@@ 15215
unexpected 15216
Autom@@ 15217
commen@@ 15218
lit 15219
timing 15220
vis 15221
Nashville 15222
hinzuzufügen 15223
liqu@@ 15224
ime 15225
Rogers 15226
assist@@ 15227
Asien 15228
niedrigen 15229
surely 15230
vorsitz@@ 15231
schm@@ 15232
trauma 15233
Armen 15234
Danke 15235
Netanjahu 15236
tho@@ 15237
ähn@@ 15238
Illu@@ 15239
graphic 15240
beschäf@@ 15241
commented 15242
inging 15243
Gren@@ 15244
institution 15245
oper 15246
Gh@@ 15247
acke 15248
itime 15249
lasting 15250
Herzog 15251
minds 15252
light@@ 15253
Harb@@ 15254
anzen 15255
touched 15256
Mode@@ 15257
Premiere 15258
lain 15259
narrow 15260
rom 15261
strafen 15262
submitted 15263
eingeladen 15264
laugh 15265
dien 15266
dor 15267
lings 15268
thousand 15269
Caf@@ 15270
Drag@@ 15271
lebten 15272
abe@@ 15273
recognized 15274
gle 15275
equality 15276
otic 15277
rot 15278
Obama-@@ 15279
Wettbewer@@ 15280
bereitet 15281
breach 15282
Lastwagen 15283
grades 15284
transparent 15285
Plak@@ 15286
VE 15287
ions@@ 15288
Hot 15289
Regel@@ 15290
casts 15291
Extre@@ 15292
beträgt 15293
sicherer 15294
Alice 15295
coaching 15296
ia-@@ 15297
weißer 15298
Samstagabend 15299
WS@@ 15300
alize 15301
holes 15302
assists 15303
dring@@ 15304
height 15305
versammelten 15306
Mali@@ 15307
strengthen 15308
Them@@ 15309
investing 15310
usi@@ 15311
revolution 15312
Holmes 15313
Nie@@ 15314
nervous 15315
ticul@@ 15316
Ausnahme 15317
Letzte 15318
aum 15319
oxygen 15320
Flagge 15321
periods 15322
tionally 15323
arrangements 15324
relie@@ 15325
Chand@@ 15326
Mig@@ 15327
festgelegt 15328
Star-@@ 15329
kämpften 15330
Ausliefer@@ 15331
afrikanische 15332
alise 15333
morgens 15334
segment 15335
Qual@@ 15336
ernden 15337
Bele@@ 15338
dents 15339
Of@@ 15340
PlayStation 15341
etten@@ 15342
fault 15343
irs 15344
pound 15345
extrem@@ 15346
nachdenken 15347
neigen 15348
DJ 15349
begrenzen 15350
bezo@@ 15351
olly 15352
Stun@@ 15353
nehmern 15354
transpor@@ 15355
wartet 15356
Bruno 15357
weis 15358
zitiert 15359
übertrag@@ 15360
Geschenk 15361
Lynch 15362
generate 15363
umge@@ 15364
vowed 15365
edition 15366
Demonstrationen 15367
Fis@@ 15368
Gesundheits- 15369
bird 15370
cheese 15371
digkeit 15372
Carl 15373
arab@@ 15374
konkurrieren 15375
nex@@ 15376
stops 15377
Diskriminierung 15378
Pati@@ 15379
fod 15380
Ausgabe 15381
sende 15382
ration 15383
sprache 15384
Entdeckung 15385
Obviously 15386
Ski@@ 15387
Abgeordneter 15388
betont 15389
mild 15390
Arzneimittel@@ 15391
studying 15392
dreams 15393
feared 15394
quoted 15395
Anstrengung 15396
papers 15397
Nothing 15398
conce@@ 15399
Investment 15400
Morgen@@ 15401
Zul@@ 15402
surrounded 15403
Chefs 15404
Kolon@@ 15405
handel 15406
Depressionen 15407
Switzerland 15408
competing 15409
highlight 15410
Assange 15411
respiratory 15412
snap 15413
cancel 15414
deny 15415
optimistic 15416
ppy 15417
waff@@ 15418
Final 15419
violations 15420
Hart@@ 15421
OS 15422
ique 15423
Investig@@ 15424
Jon@@ 15425
entkommen 15426
sene 15427
Past@@ 15428
Ray@@ 15429
geschossen 15430
ongs 15431
beruhig@@ 15432
lining 15433
locken 15434
Bisher 15435
Shin@@ 15436
Brazilian 15437
Ward 15438
beliebten 15439
meaningful 15440
pern 15441
stif@@ 15442
cake 15443
engag@@ 15444
Bournemouth 15445
ffed 15446
Beverly 15447
encounter 15448
Schiedsrichter 15449
Trudeau 15450
Flammen 15451
automat@@ 15452
ger-@@ 15453
involves 15454
klein 15455
ändert 15456
Rugby-@@ 15457
forschung 15458
backlash 15459
lok@@ 15460
spezi@@ 15461
Studies 15462
geschnitten 15463
occasions 15464
ruh@@ 15465
russ@@ 15466
gin@@ 15467
loy@@ 15468
Modelle 15469
Veter@@ 15470
jeg@@ 15471
ätze 15472
Crow@@ 15473
Text 15474
eo 15475
sechs@@ 15476
induc@@ 15477
langfristigen 15478
charakter@@ 15479
grü@@ 15480
organized 15481
Fon@@ 15482
Secret 15483
are-@@ 15484
go-@@ 15485
menu 15486
Wunder 15487
painting 15488
Einzelpersonen 15489
Liberal 15490
ana@@ 15491
overwhelming 15492
Easter 15493
getreten 15494
lasse 15495
Pok@@ 15496
triggered 15497
Wolf 15498
mind@@ 15499
Eagles 15500
emplo@@ 15501
75@@ 15502
Blau@@ 15503
Rut@@ 15504
inspiri@@ 15505
lowing 15506
Präsidentin 15507
anno@@ 15508
nets 15509
ook 15510
year-@@ 15511
F. 15512
Shaw 15513
lifetime 15514
umstrittenen 15515
vergeben 15516
dokum@@ 15517
revolution@@ 15518
toxic 15519
Bemühen 15520
constitu@@ 15521
spezifische 15522
blockiert 15523
Nixon 15524
bemühungen 15525
lake 15526
Amtsenthebungsverfahren 15527
collapsed 15528
kanischer 15529
Barri@@ 15530
amer 15531
sitz@@ 15532
ungs- 15533
iranischen 15534
sic 15535
1970s 15536
beaches 15537
kritischen 15538
tual 15539
brown 15540
legislative 15541
ories 15542
vali@@ 15543
Kräfte 15544
Rahul 15545
dancing 15546
diff@@ 15547
digit@@ 15548
Verwaltungs@@ 15549
fath@@ 15550
inda 15551
sphase 15552
öffnet 15553
pulling 15554
Bhar@@ 15555
Chancellor 15556
Flor@@ 15557
Castro 15558
Sl@@ 15559
Victor 15560
begleitet 15561
crow@@ 15562
ights 15563
nas@@ 15564
Horiz@@ 15565
metho@@ 15566
führender 15567
prev@@ 15568
Arbeitsplatz 15569
Behandlungen 15570
Zwischenzeit 15571
basierte 15572
Klei@@ 15573
bekann@@ 15574
Rodgers 15575
developments 15576
flug 15577
reiste 15578
traumat@@ 15579
Fame 15580
bull@@ 15581
Ägypten 15582
oes 15583
koreanischen 15584
secondary 15585
stopping 15586
erschüt@@ 15587
unterstütz@@ 15588
jahrelang 15589
Rettung 15590
Zucker 15591
destination 15592
plä@@ 15593
Lächeln 15594
achtet 15595
bathroom 15596
Feld@@ 15597
indu@@ 15598
minü@@ 15599
responses 15600
gler 15601
kit 15602
pert 15603
I. 15604
ior 15605
Oil 15606
klären 15607
11,@@ 15608
Performance 15609
eu 15610
Abwehr 15611
Schlagzeilen 15612
ard-@@ 15613
cardi@@ 15614
auton@@ 15615
seven-@@ 15616
verwen@@ 15617
brauchten 15618
iff 15619
visi@@ 15620
atoes 15621
autor@@ 15622
Piloten 15623
fäl@@ 15624
Annahme 15625
Dist@@ 15626
messen 15627
Erlaubnis 15628
Influ@@ 15629
Millionen-@@ 15630
ohn@@ 15631
clin@@ 15632
öffentlicher 15633
ino@@ 15634
universal 15635
älle 15636
ernsthaft 15637
silver 15638
häus@@ 15639
runde 15640
verteilt 15641
Erkenn@@ 15642
Kommentaren 15643
angeb@@ 15644
fügen 15645
hot@@ 15646
riding 15647
gans 15648
iz 15649
yen 15650
Gaz@@ 15651
trail 15652
Rash@@ 15653
speculation 15654
steady 15655
Strafverfolgungsbehörden 15656
poses 15657
verbesser@@ 15658
warns 15659
Versammlungen 15660
glam@@ 15661
helicopter 15662
Abraham 15663
Ausstellung 15664
Dylan 15665
büro 15666
Ronald 15667
explic@@ 15668
erns 15669
tious 15670
inspiration 15671
sk 15672
golden 15673
Mittwochabend 15674
Sohnes 15675
ichtet 15676
wind@@ 15677
Disne@@ 15678
Kaution 15679
Mac 15680
Austausch 15681
Mül@@ 15682
fuß@@ 15683
auto 15684
erzäh@@ 15685
judi@@ 15686
navig@@ 15687
volat@@ 15688
Foster 15689
erkennt 15690
NFL-@@ 15691
aktiven 15692
appe 15693
frü@@ 15694
humanity 15695
tendenziell 15696
villa 15697
Ökonomen 15698
Gesundheitsministerium 15699
jud@@ 15700
requiring 15701
etary 15702
mutmaßlichen 15703
produkte 15704
Größ@@ 15705
frustrated 15706
1985 15707
itable 15708
orchest@@ 15709
Art@@ 15710
rekru@@ 15711
110 15712
answered 15713
Fron@@ 15714
ausgesprochen 15715
nachmittag 15716
Kaffee 15717
spruch 15718
zusätz@@ 15719
180 15720
illo 15721
wechselte 15722
istisch 15723
zit@@ 15724
BB@@ 15725
Neill 15726
Schwangerschaft 15727
Brun@@ 15728
Einwanderung 15729
Valent@@ 15730
Vermögens@@ 15731
hosting 15732
notwendigen 15733
offense 15734
toilet 15735
Konto 15736
MC@@ 15737
convention 15738
Schönheit 15739
Heart 15740
acquired 15741
expenses 15742
Fünf 15743
auffor@@ 15744
crossed 15745
Milliarde 15746
Schulter 15747
drohen 15748
Reform 15749
easing 15750
pä@@ 15751
stroke 15752
zufällig 15753
akzeptiert 15754
Drew 15755
Kardashian 15756
Raab 15757
interference 15758
Anim@@ 15759
govern@@ 15760
privat 15761
procedure 15762
rab@@ 15763
Übergriffe 15764
Conor 15765
Model@@ 15766
aj 15767
cryp@@ 15768
everyday 15769
fungs@@ 15770
tivity 15771
spolitik 15772
Ministerpräsidenten 15773
jer@@ 15774
CCTV 15775
Sänger 15776
discher 15777
wid@@ 15778
wom@@ 15779
Doug 15780
Indians 15781
anticip@@ 15782
screen@@ 15783
20.@@ 15784
Owen 15785
anch@@ 15786
östlich 15787
Milan 15788
artige 15789
inos 15790
Somalia 15791
unted 15792
Dach 15793
Gerichts 15794
Redmi 15795
konserv@@ 15796
Aufsicht 15797
Dub@@ 15798
Singapur 15799
kauf@@ 15800
unteren 15801
Conservatives 15802
OnePlus 15803
depends 15804
Dram@@ 15805
Hung@@ 15806
Pariser 15807
acing 15808
bewahren 15809
Dev@@ 15810
compromise 15811
drängt 15812
Einheiten 15813
Village 15814
richtete 15815
underway 15816
warfen 15817
Libya 15818
Adv@@ 15819
differently 15820
fassen 15821
hub 15822
kop@@ 15823
gesunden 15824
japanischen 15825
promp@@ 15826
Anforderungen 15827
tren@@ 15828
Dokument 15829
contacts 15830
Madison 15831
alising 15832
aufeinander@@ 15833
kommende 15834
Lloyd 15835
containing 15836
fs@@ 15837
jenen 15838
1970er 15839
approve 15840
tom 15841
astro@@ 15842
mainland 15843
Astros 15844
holder 15845
restricted 15846
tle 15847
Außenministerium 15848
Commer@@ 15849
finishing 15850
ota 15851
sexually 15852
akers 15853
Jerusalem 15854
Much 15855
compli@@ 15856
Flü@@ 15857
Freitag@@ 15858
Leichen 15859
adjust@@ 15860
dominant 15861
entwickelte 15862
ßes 15863
abhängig 15864
600@@ 15865
concrete 15866
CF@@ 15867
acti@@ 15868
breiteren 15869
doubled 15870
has@@ 15871
portfolio 15872
rer 15873
Krie@@ 15874
Jugendlichen 15875
loyal 15876
alia 15877
zur@@ 15878
beliebt 15879
kathol@@ 15880
ISIS 15881
assu@@ 15882
cannabis 15883
invested 15884
steel 15885
tödliche 15886
Mittagessen 15887
Rishi 15888
gien 15889
scheiden 15890
ückt 15891
Ever@@ 15892
Sound 15893
prescri@@ 15894
ranging 15895
6.000 15896
entitled 15897
flüch@@ 15898
Fla 15899
abol@@ 15900
bid@@ 15901
mothers 15902
signature 15903
terten 15904
Feuerwehr@@ 15905
Laufen 15906
Reds 15907
gestürzt 15908
Angriffs 15909
COVID-19-Pandemie 15910
Heathrow 15911
Helden 15912
betreiben 15913
greif@@ 15914
lia 15915
streben 15916
Brendan 15917
ettel 15918
LGBTQ 15919
demonstrators 15920
ian@@ 15921
schäd@@ 15922
wechselt 15923
Bun@@ 15924
Stir@@ 15925
membership 15926
Öko@@ 15927
Forderung 15928
Light@@ 15929
Securities 15930
inequality 15931
wäch@@ 15932
39@@ 15933
dramatically 15934
ständen 15935
staat@@ 15936
Arz@@ 15937
Chile 15938
Travel 15939
Australians 15940
Polen 15941
vegan 15942
Darin 15943
ält 15944
östlichen 15945
protestieren 15946
aces 15947
treibt 15948
Gab@@ 15949
Jahre@@ 15950
Joel 15951
Obdach@@ 15952
civilian 15953
geweigert 15954
Hoo@@ 15955
urin 15956
läng@@ 15957
outcomes 15958
Magic 15959
Rechenschaft 15960
Sharon 15961
fis@@ 15962
frist@@ 15963
gefeiert 15964
uch 15965
Autorin 15966
Pflege 15967
jub@@ 15968
Situationen 15969
highlights 15970
strategies 15971
Silver 15972
Brüder 15973
Inside 15974
verhand@@ 15975
prakt@@ 15976
Jean-@@ 15977
accessible 15978
erstaunliche 15979
zeichneten 15980
Große 15981
Veteranen 15982
Zus@@ 15983
Stur@@ 15984
devastated 15985
frequent 15986
vollständigen 15987
ism@@ 15988
voy 15989
virtuellen 15990
Assistant 15991
Privatsphäre 15992
keinem 15993
Verweis 15994
compliance 15995
räger 15996
Ple@@ 15997
Wein 15998
carries 15999
disappointing 16000
violation 16001
disgu@@ 16002
fter 16003
sprung 16004
ungsprozess 16005
condemned 16006
witnessed 16007
ME 16008
fold 16009
rah 16010
Teenag@@ 16011
Gesetzgeber 16012
Hat 16013
crossing 16014
afro@@ 16015
frustration 16016
Christine 16017
Organis@@ 16018
zeug@@ 16019
Weiß@@ 16020
Funktion@@ 16021
Rory 16022
Hongkonger 16023
Mütter 16024
bacteria 16025
spons@@ 16026
1981 16027
digkeiten 16028
haz@@ 16029
-F@@ 16030
eta 16031
schär@@ 16032
CR@@ 16033
Gesichts@@ 16034
Perspektive 16035
discover 16036
Cymru 16037
Scientists 16038
contracted 16039
ichen 16040
klaren 16041
profit@@ 16042
02 16043
reverse 16044
schü@@ 16045
regionalen 16046
trägen 16047
Verpflichtungen 16048
attrac@@ 16049
Nearly 16050
arri@@ 16051
fes@@ 16052
https 16053
eem 16054
idi@@ 16055
whis@@ 16056
fache 16057
horses 16058
affir@@ 16059
sang 16060
twit@@ 16061
Hudson 16062
kritisierte 16063
[...]
