32584 4
, 4
. 5
the 6
" 7
in 8
to 9
die 10
der 11
und 12
of 13
and 14
a 15
zu 16
von 17
's 18
that 19
dass 20
den 21
for 22
is 23
on 24
ist 25
was 26
: 27
das 28
an 29
es 30
für 31
- 32
The 33
auf 34
mit 35
sie 36
eine 37
with 38
er 39
ein 40
it 41
as 42
I 43
um 44
als 45
nicht 46
des 47
sagte 48
at 49
im 50
said 51
be 52
) 53
( 54
have 55
sich 56
are 57
dem 58
Die 59
he 60
by 61
from 62
has 63
Sie 64
hat 65
' 66
war 67
haben 68
his 69
werden 70
am 71
einem 72
einen 73
wird 74
not 75
will 76
einer 77
so 78
ich 79
wurde 80
sind 81
wie 82
this 83
they 84
we 85
über 86
wir 87
or 88
who 89
their 90
you 91
but 92
't 93
sein 94
had 95
-@@ 96
been 97
aus 98
Es 99
nach 100
In 101
aber 102
auch 103
Ich 104
her 105
? 106
were 107
more 108
oder 109
It 110
Der 111
all 112
one 113
which 114
also 115
about 116
can 117
out 118
up 119
people 120
s 121
she 122
Trump 123
would 124
ihre 125
un@@ 126
after 127
Das 128
its 129
vor 130
wenn 131
bei 132
seine 133
mehr 134
when 135
hatte 136
time 137
Menschen 138
wurden 139
re@@ 140
i 141
than 142
He 143
A 144
there 145
nur 146
$ 147
We 148
our 149
Er 150
S@@ 151
over 152
während 153
Jahr 154
en@@ 155
But 156
an@@ 157
Wir 158
% 159
into 160
können 161
ver@@ 162
like 163
just 164
man 165
durch 166
/ 167
what 168
er@@ 169
o 170
in@@ 171
first 172
year 173
do 174
new 175
k@@ 176
them 177
K@@ 178
bis 179
if 180
other 181
two 182
could 183
my 184
ing 185
s@@ 186
kann 187
A@@ 188
ten 189
T@@ 190
; 191
B@@ 192
zum 193
diese 194
some 195
t@@ 196
Aber 197
G@@ 198
noch 199
d@@ 200
würde 201
P@@ 202
no 203
me 204
D@@ 205
last 206
gibt 207
him 208
now 209
New 210
en 211
back 212
L@@ 213
waren 214
immer 215
y 216
gegen 217
W@@ 218
years 219
b@@ 220
M@@ 221
F@@ 222
p@@ 223
ab@@ 224
te 225
N@@ 226
get 227
C@@ 228
habe 229
us 230
t 231
uns 232
ed 233
eines 234
f@@ 235
alle 236
1 237
E@@ 238
zwei 239
dieser 240
only 241
H@@ 242
da 243
keine 244
R@@ 245
how 246
seiner 247
because 248
nachdem 249
before 250
being 251
This 252
Zeit 253
way 254
zur 255
ers 256
m@@ 257
g@@ 258
e 259
ge@@ 260
y@@ 261
your 262
be@@ 263
ation 264
end 265
2 266
most 267
10 268
're 269
Jahren 270
o@@ 271
where 272
al@@ 273
! 274
mich 275
st@@ 276
de 277
O@@ 278
ein@@ 279
told 280
könnte 281
e@@ 282
letzten 283
ch@@ 284
n@@ 285
Ein 286
sagt 287
And 288
ihr 289
day 290
sehr 291
off 292
unter 293
any 294
al 295
ihren 296
many 297
diesem 298
government 299
ar@@ 300
made 301
going 302
well 303
down 304
very 305
h@@ 306
while 307
make 308
andere 309
z@@ 310
says 311
work 312
those 313
ische 314
l@@ 315
against 316
aus@@ 317
able 318
don 319
weil 320
tun 321
ter 322
ihn 323
2020 324
m 325
then 326
They 327
through 328
w@@ 329
home 330
even 331
Regierung 332
c@@ 333
ihrer 334
China 335
during 336
anderen 337
seinen 338
go 339
Und 340
Wenn 341
sehen 342
ung 343
el@@ 344
jetzt 345
Ver@@ 346
week 347
de@@ 348
An@@ 349
Frau 350
V@@ 351
think 352
2019 353
Unternehmen 354
three 355
3 356
gehen 357
still 358
ts 359
country 360
viele 361
seit 362
ischen 363
einige 364
wieder 365
viel 366
take 367
k 368
ersten 369
müssen 370
should 371
sei 372
i@@ 373
sagen 374
She 375
ate 376
drei 377
Woche 378
see 379
auf@@ 380
u@@ 381
around 382
world 383
much 384
5 385
these 386
such 387
There 388
on@@ 389
ungen 390
know 391
ar 392
did 393
20 394
per 395
've 396
gab 397
Millionen 398
since 399
ro@@ 400
machen 401
4 402
Jahre 403
need 404
state 405
J@@ 406
Re@@ 407
ent@@ 408
Z@@ 409
Ab@@ 410
zwischen 411
le 412
including 413
du 414
] 415
[ 416
coronavirus 417
Mr 418
dann 419
dies 420
... 421
ie 422
sch@@ 423
million 424
I@@ 425
US 426
want 427
di@@ 428
say 429
u 430
between 431
r@@ 432
Herr 433
York 434
is@@ 435
am@@ 436
may 437
That 438
men 439
bin 440
wirklich 441
United 442
or@@ 443
good 444
dis@@ 445
v@@ 446
seinem 447
es@@ 448
30 449
darauf 450
neue 451
wo 452
'm 453
3@@ 454
ated 455
ob 456
hatten 457
at@@ 458
If 459
2018 460
j@@ 461
Be@@ 462
etwas 463
n 464
Land 465
under 466
Biden 467
g 468
dieses 469
really 470
public 471
set 472
& 473
part 474
Sch@@ 475
Im 476
le@@ 477
team 478
Leben 479
sp@@ 480
Tag 481
über@@ 482
p 483
right 484
th@@ 485
Prozent 486
health 487
next 488
life 489
ri@@ 490
it@@ 491
Welt 492
ern 493
um@@ 494
a@@ 495
family 496
help 497
6 498
In@@ 499
son 500
police 501
You 502
unsere 503
li@@ 504
gen 505
4@@ 506
As 507
hinzu 508
Eine 509
-- 510
come 511
Präsident 512
London 513
vom 514
as@@ 515
U.S. 516
So 517
game 518
same 519
own 520
days 521
President 522
d 523
kommen 524
got 525
too 526
ti@@ 527
another 528
gut 529
St@@ 530
use 531
found 532
7 533
UK 534
Al@@ 535
Spiel 536
both 537
fast 538
15 539
ting 540
enden 541
company 542
ge 543
mir 544
ag@@ 545
place 546
ad@@ 547
ungs@@ 548
U@@ 549
Als 550
e-@@ 551
'@@ 552
added 553
12 554
se 555
Mar@@ 556
ch 557
season 558
Johnson 559
long 560
Teil 561
USA 562
show 563
neuen 564
age 565
fügte 566
ly 567
denen 568
geben 569
liche 570
8 571
b 572
Art 573
ohne 574
former 575
bevor 576
support 577
ihrem 578
Ende 579
ieren 580
ihnen 581
University 582
ende 583
US-@@ 584
second 585
ur@@ 586
19@@ 587
ant 588
used 589
l 590
selbst 591
5@@ 592
Credit 593
ins 594
president 595
Mann 596
number 597
co@@ 598
put 599
würden 600
ab 601
ted 602
ihm 603
sollte 604
sh@@ 605
less 606
best 607
Mr. 608
House 609
ine 610
se@@ 611
* 612
2017 613
sten 614
four 615
COVID-19 616
erste 617
nie 618
Y@@ 619
einfach 620
according 621
2016 622
wegen 623
zurück 624
9 625
City 626
away 627
Vor@@ 628
never 629
American 630
isch 631
ac@@ 632
left 633
Un@@ 634
England 635
muss 636
50 637
cases 638
ating 639
system 640
here 641
alles 642
6@@ 643
vier 644
ale 645
every 646
zu@@ 647
women 648
When 649
7@@ 650
April 651
Ein@@ 652
ging 653
Coronavirus 654
indem 655
-S@@ 656
erhalten 657
meine 658
lot 659
Er@@ 660
month 661
called 662
across 663
For 664
children 665
iert 666
geht 667
bo@@ 668
Washington 669
National 670
11 671
John 672
ter@@ 673
months 674
News 675
lo@@ 676
lichen 677
Co@@ 678
Familie 679
8@@ 680
Arbeit 681
O 682
vor@@ 683
st 684
social 685
heute 686
Kinder 687
Le@@ 688
Uhr 689
case 690
without 691
ger@@ 692
pandemic 693
diesen 694
halten 695
led 696
Ihre 697
Donald 698
gemacht 699
Mal 700
lich 701
play 702
deal 703
On 704
der@@ 705
te@@ 706
Frauen 707
won 708
dazu 709
One 710
ler 711
denke 712
op@@ 713
Polizei 714
Dollar 715
im@@ 716
könnten 717
seen 718
South 719
ic 720
group 721
win 722
große 723
few 724
Stadt 725
something 726
didn 727
Staaten 728
came 729
De@@ 730
th 731
ens 732
things 733
em@@ 734
2@@ 735
night 736
later 737
Aus@@ 738
z 739
Team 740
Geschichte 741
Haus 742
side 743
etwa 744
f 745
Dies 746
look 747
ans 748
bringen 749
ck@@ 750
worden 751
city 752
ap@@ 753
top 754
November 755
ton 756
each 757
already 758
might 759
took 760
ings 761
bereits 762
tr@@ 763
h 764
ley 765
ke 766
League 767
again 768
working 769
Ro@@ 770
ent 771
wollen 772
Weg 773
S 774
ul@@ 775
big 776
Ar@@ 777
darüber 778
five 779
el 780
September 781
100 782
until 783
change 784
Diese 785
hier 786
po@@ 787
media 788
point 789
.@@ 790
Während 791
kam 792
to@@ 793
EU 794
unter@@ 795
bekommen 796
spielen 797
großen 798
better 799
C 800
different 801
sollten 802
ia 803
cent 804
far 805
9@@ 806
Saison 807
ä@@ 808
high 809
pro@@ 810
start 811
ol@@ 812
weniger 813
14 814
ste 815
25 816
Mo@@ 817
con@@ 818
line 819
wäre 820
arbeiten 821
making 822
land 823
always 824
little 825
Ch@@ 826
Fall 827
ak@@ 828
meisten 829
party 830
Spieler 831
Hause 832
bleiben 833
pro 834
early 835
Brexit 836
jedoch 837
Friday 838
State 839
ierte 840
face 841
went 842
si@@ 843
ne@@ 844
wissen 845
pre@@ 846
care 847
Minister 848
18 849
Dinge 850
fünf 851
ha@@ 852
World 853
beiden 854
sk@@ 855
Ge@@ 856
Monday 857
gesagt 858
virus 859
David 860
Vereinigten 861
political 862
May 863
past 864
weeks 865
business 866
online 867
report 868
ds 869
helfen 870
ations 871
später 872
wahrscheinlich 873
Was 874
et 875
40 876
reported 877
ger 878
et@@ 879
having 880
'll 881
August 882
qu@@ 883
Getty 884
Con@@ 885
il@@ 886
x 887
us@@ 888
ir@@ 889
election 890
Leute 891
Wochen 892
Twitter 893
great 894
sagten 895
ra@@ 896
nächsten 897
os 898
What 899
ischer 900
times 901
chen 902
Mc@@ 903
obwohl 904
West 905
davon 906
ons 907
est 908
1@@ 909
campaign 910
t-@@ 911
ei@@ 912
local 913
ne 914
Sh@@ 915
einschließlich 916
keep 917
Tuesday 918
statement 919
law 920
money 921
Wie 922
due 923
least 924
half 925
does 926
At 927
bekannt 928
tes 929
kein 930
Sunday 931
feel 932
school 933
Am 934
must 935
Dr. 936
zusammen 937
death 938
whether 939
thing 940
16 941
news 942
today 943
daran 944
ago 945
jeder 946
find 947
konnte 948
red 949
damit 950
les 951
mo@@ 952
ho@@ 953
taken 954
market 955
head 956
13 957
ing@@ 958
run 959
gesehen 960
-year-old 961
ere 962
asked 963
kommt 964
weitere 965
Unterstützung 966
ten@@ 967
ding 968
Car@@ 969
become 970
per@@ 971
finden 972
officials 973
T 974
Bo@@ 975
Lage 976
Weise 977
saying 978
s-@@ 979
den@@ 980
Wednesday 981
live 982
w 983
he@@ 984
weiter 985
E 986
nehmen 987
important 988
likely 989
Monat 990
Thursday 991
Reihe 992
players 993
ierten 994
ever 995
Covid-19 996
doing 997
court 998
ber@@ 999
among 1000
power 1001
r 1002
Gruppe 1003
Se@@ 1004
lassen 1005
Erklärung 1006
Par@@ 1007
person 1008
sicher 1009
au@@ 1010
hit 1011
do@@ 1012
c 1013
Bar@@ 1014
give 1015
wrote 1016
schrieb 1017
ganzen 1018
countries 1019
ve 1020
James 1021
move 1022
sen 1023
Virus 1024
we@@ 1025
together 1026
members 1027
March 1028
om@@ 1029
Joe 1030
'd 1031
comes 1032
six 1033
why 1034
ig@@ 1035
done 1036
plan 1037
par@@ 1038
Seite 1039
No 1040
24 1041
taking 1042
19 1043
17 1044
enough 1045
gen@@ 1046
ors 1047
ies 1048
Los 1049
North 1050
a-@@ 1051
national 1052
werde 1053
ic@@ 1054
Nach 1055
y-@@ 1056
vergangenen 1057
announced 1058
ty 1059
recent 1060
dafür 1061
Mon@@ 1062
BBC 1063
British 1064
stand 1065
given 1066
ates 1067
young 1068
P 1069
risk 1070
Facebook 1071
Montag 1072
coming 1073
Präsidenten 1074
bar 1075
d-@@ 1076
macht 1077
Michael 1078
However 1079
love 1080
ster 1081
Sp@@ 1082
sogar 1083
close 1084
White 1085
ous 1086
Street 1087
old 1088
though 1089
After 1090
open 1091
ally 1092
Tage 1093
County 1094
data 1095
ken 1096
versuchen 1097
br@@ 1098
zeigen 1099
Health 1100
her@@ 1101
getting 1102
Großbritannien 1103
letzte 1104
decision 1105
future 1106
so@@ 1107
points 1108
ben 1109
over@@ 1110
expected 1111
Iran 1112
eigenen 1113
März 1114
Geld 1115
using 1116
sechs 1117
B 1118
zurück@@ 1119
percent 1120
Milliarden 1121
ner 1122
looking 1123
hard 1124
woman 1125
With 1126
house 1127
States 1128
several 1129
allem 1130
continue 1131
ie@@ 1132
res 1133
All 1134
schnell 1135
started 1136
ad 1137
Angeles 1138
Frage 1139
pe@@ 1140
workers 1141
Dienstag 1142
following 1143
all@@ 1144
R 1145
free 1146
x@@ 1147
based 1148
ys 1149
Freitag 1150
others 1151
darunter 1152
Saturday 1153
staff 1154
clear 1155
ze 1156
Kon@@ 1157
nen 1158
weiß 1159
Di@@ 1160
sa@@ 1161
video 1162
known 1163
ck 1164
M 1165
Har@@ 1166
Entscheidung 1167
TV 1168
food 1169
sc@@ 1170
field 1171
alen 1172
water 1173
While 1174
rate 1175
hours 1176
died 1177
ker 1178
America 1179
bedeutet 1180
security 1181
thought 1182
yet 1183
information 1184
21 1185
To 1186
often 1187
call 1188
fen 1189
paar 1190
Ex@@ 1191
Partei 1192
mon@@ 1193
possible 1194
Mittwoch 1195
series 1196
bl@@ 1197
yn 1198
Mitarbeiter 1199
trying 1200
once 1201
mis@@ 1202
2015 1203
order 1204
führen 1205
Pro@@ 1206
Donnerstag 1207
Pandemie 1208
community 1209
Department 1210
fall 1211
real 1212
Mutter 1213
D 1214
keinen 1215
fl@@ 1216
further 1217
Instagram 1218
billion 1219
mein 1220
job 1221
lange 1222
positive 1223
ber 1224
war@@ 1225
weiterhin 1226
ou@@ 1227
verwendet 1228
gegenüber 1229
Times 1230
small 1231
ach@@ 1232
late 1233
unserer 1234
Black 1235
companies 1236
Police 1237
final 1238
star 1239
third 1240
fer@@ 1241
hätte 1242
up@@ 1243
ish 1244
ex@@ 1245
wenig 1246
Jahres 1247
sondern 1248
Für 1249
let 1250
Park 1251
oft 1252
doesn 1253
ru@@ 1254
Wahl 1255
lost 1256
action 1257
su@@ 1258
jeden 1259
bu@@ 1260
lead 1261
allen 1262
games 1263
Bericht 1264
En@@ 1265
low 1266
L 1267
minister 1268
inter@@ 1269
Person 1270
ks 1271
Herrn 1272
Lo@@ 1273
ity 1274
ist@@ 1275
begann 1276
pay 1277
George 1278
Me@@ 1279
Ho@@ 1280
ator 1281
India 1282
outside 1283
ey 1284
behind 1285
weit 1286
vielleicht 1287
return 1288
area 1289
F 1290
tions 1291
Anfang 1292
Fälle 1293
economic 1294
within 1295
gewinnen 1296
ige 1297
held 1298
bit 1299
wanted 1300
ien 1301
22 1302
Po@@ 1303
id 1304
ft 1305
ff@@ 1306
San 1307
Mit 1308
ise 1309
getan 1310
mer@@ 1311
em 1312
global 1313
ters 1314
major 1315
veröffentlicht 1316
sen@@ 1317
warum 1318
earlier 1319
Fans 1320
crisis 1321
Ne@@ 1322
Nähe 1323
level 1324
licher 1325
Platz 1326
states 1327
ded 1328
His 1329
en-@@ 1330
full 1331
Show 1332
N 1333
gebracht 1334
European 1335
ung@@ 1336
course 1337
Ihr 1338
gel@@ 1339
under@@ 1340
key 1341
for@@ 1342
besten 1343
1.@@ 1344
AP 1345
office 1346
almost 1347
Boris 1348
dort 1349
Reuters 1350
try 1351
ell 1352
ce 1353
zweiten 1354
Chief 1355
pl@@ 1356
study 1357
My 1358
ling 1359
vote 1360
Stunden 1361
June 1362
Bild 1363
av@@ 1364
An 1365
ance 1366
stop 1367
ry 1368
played 1369
Bank 1370
service 1371
hin@@ 1372
sprechen 1373
X@@ 1374
services 1375
leben 1376
process 1377
ure 1378
zeigt 1379
sure 1380
lockdown 1381
besser 1382
18@@ 1383
test 1384
body 1385
gewesen 1386
Gu@@ 1387
believe 1388
Menge 1389
sowie 1390
go@@ 1391
club 1392
history 1393
ig 1394
economy 1395
kind 1396
ary 1397
along 1398
v 1399
hin 1400
eren 1401
tern 1402
stehen 1403
tigen 1404
Patienten 1405
saw 1406
len 1407
nichts 1408
ier@@ 1409
ite 1410
ina 1411
international 1412
ert 1413
fire 1414
ier 1415
room 1416
Manchester 1417
igen 1418
Rolle 1419
wobei 1420
Man@@ 1421
und@@ 1422
film 1423
elle 1424
dy 1425
genug 1426
Auf@@ 1427
ran@@ 1428
ver 1429
forward 1430
no@@ 1431
ik@@ 1432
ser@@ 1433
verlassen 1434
California 1435
and@@ 1436
stellen 1437
com@@ 1438
fans 1439
la@@ 1440
est@@ 1441
car 1442
Australia 1443
vi@@ 1444
front 1445
ing-@@ 1446
hinter 1447
60 1448
Some 1449
Sonntag 1450
Union 1451
ot@@ 1452
Paul 1453
man@@ 1454
Auf 1455
ganz 1456
chief 1457
ph@@ 1458
Juni 1459
alt 1460
ü@@ 1461
rund 1462
500 1463
af@@ 1464
ene 1465
me@@ 1466
Minuten 1467
erwartet 1468
Court 1469
Mai 1470
role 1471
means 1472
Untersuchung 1473
plans 1474
bereit 1475
Januar 1476
ps 1477
story 1478
eln 1479
Trumps 1480
hand 1481
er-@@ 1482
large 1483
lives 1484
seines 1485
gegeben 1486
1,@@ 1487
leader 1488
ian 1489
control 1490
ö@@ 1491
10@@ 1492
name 1493
private 1494
ts@@ 1495
enen 1496
moment 1497
Qu@@ 1498
zuvor 1499
20@@ 1500
Politik 1501
Her@@ 1502
began 1503
leave 1504
ehemalige 1505
unterstützen 1506
Su@@ 1507
trade 1508
ma@@ 1509
on-@@ 1510
Labour 1511
record 1512
air 1513
einmal 1514
patients 1515
black 1516
Medien 1517
director 1518
23 1519
ati@@ 1520
cht 1521
einigen 1522
Dezember 1523
hospital 1524
aufgrund 1525
minutes 1526
available 1527
shows 1528
bar@@ 1529
id@@ 1530
industry 1531
released 1532
ahead 1533
policy 1534
la 1535
car@@ 1536
Oktober 1537
form 1538
ange@@ 1539
Landes 1540
machte 1541
Informationen 1542
ball 1543
July 1544
Maßnahmen 1545
ses 1546
ur 1547
ay 1548
El@@ 1549
everyone 1550
fact 1551
Moment 1552
ents 1553
Tod 1554
ob@@ 1555
shot 1556
board 1557
.com 1558
playing 1559
Cup 1560
Britain 1561
students 1562
Amazon 1563
scheint 1564
issues 1565
acht 1566
Center 1567
Samstag 1568
Texas 1569
nearly 1570
mar@@ 1571
financial 1572
steht 1573
Ort 1574
Zahl 1575
issue 1576
everything 1577
ves 1578
Chinese 1579
experience 1580
Film 1581
ability 1582
bi@@ 1583
ut@@ 1584
gesch@@ 1585
isches 1586
official 1587
Democratic 1588
ard 1589
führte 1590
needed 1591
gleichen 1592
someone 1593
Monaten 1594
felt 1595
makes 1596
treffen 1597
2014 1598
current 1599
diejenigen 1600
Ber@@ 1601
Day 1602
Auswirkungen 1603
white 1604
wollte 1605
Problem 1606
Juli 1607
position 1608
zen 1609
military 1610
gerade 1611
Scotland 1612
meeting 1613
tion 1614
Premier 1615
iz@@ 1616
couple 1617
ziehen 1618
became 1619
response 1620
Spiele 1621
fight 1622
Einige 1623
setzen 1624
Monate 1625
gu@@ 1626
friends 1627
act 1628
Daten 1629
Image 1630
durch@@ 1631
Studie 1632
ment 1633
Party 1634
event 1635
result 1636
Staat 1637
Now 1638
Jones 1639
wer 1640
Gericht 1641
ant@@ 1642
stay 1643
tige 1644
stellte 1645
mehrere 1646
Ma@@ 1647
innerhalb 1648
nun 1649
space 1650
Zukunft 1651
denken 1652
Kunden 1653
ast@@ 1654
versucht 1655
book 1656
kt 1657
situation 1658
confirmed 1659
ed@@ 1660
Du@@ 1661
needs 1662
ways 1663
2.@@ 1664
liches 1665
Über@@ 1666
ihres 1667
öffentlichen 1668
January 1669
provide 1670
beide 1671
eb@@ 1672
los 1673
period 1674
Or@@ 1675
sah 1676
travel 1677
min@@ 1678
du@@ 1679
cken 1680
Star 1681
near 1682
out@@ 1683
killed 1684
Cor@@ 1685
administration 1686
human 1687
gi@@ 1688
Wirtschaft 1689
Smith 1690
research 1691
ill 1692
recently 1693
Video 1694
federal 1695
är@@ 1696
ausge@@ 1697
hope 1698
Images 1699
Wahl@@ 1700
light 1701
ender 1702
größten 1703
möchte 1704
Nacht 1705
These 1706
medical 1707
kon@@ 1708
morning 1709
rights 1710
Sicherheit 1711
# 1712
include 1713
race 1714
phone 1715
meiner 1716
tet 1717
wasn 1718
parents 1719
Fragen 1720
fr@@ 1721
actually 1722
himself 1723
Democrats 1724
October 1725
2,@@ 1726
ders 1727
Harry 1728
Kar@@ 1729
vielen 1730
unseren 1731
Unter@@ 1732
gl@@ 1733
anything 1734
Beamte 1735
il 1736
Tagen 1737
total 1738
mother 1739
Ziel 1740
end@@ 1741
So@@ 1742
impact 1743
Ad@@ 1744
NHS 1745
ste@@ 1746
ges@@ 1747
Männer 1748
attack 1749
spread 1750
Sieg 1751
ationen 1752
Per@@ 1753
getroffen 1754
areas 1755
School 1756
Europe 1757
al-@@ 1758
results 1759
Min@@ 1760
cut 1761
3.@@ 1762
living 1763
gr@@ 1764
Gesundheit 1765
child 1766
ore 1767
running 1768
Mark 1769
Vater 1770
Mike 1771
Mor@@ 1772
lang 1773
27 1774
verloren 1775
wichtig 1776
People 1777
December 1778
Florida 1779
strong 1780
general 1781
@ 1782
problem 1783
Eltern 1784
ern@@ 1785
beginnen 1786
soon 1787
International 1788
gute 1789
list 1790
re 1791
wer@@ 1792
Man 1793
26 1794
Do@@ 1795
difficult 1796
mit@@ 1797
Bu@@ 1798
sent 1799
leaders 1800
cr@@ 1801
especially 1802
35 1803
Namen 1804
War@@ 1805
bring 1806
Japan 1807
mer 1808
geb@@ 1809
ang 1810
gt 1811
tragen 1812
ziemlich 1813
evidence 1814
despite 1815
els 1816
Li@@ 1817
jede 1818
Demokraten 1819
building 1820
Ms 1821
stage 1822
Kampf 1823
mindestens 1824
200 1825
Inter@@ 1826
80 1827
cher 1828
Br@@ 1829
bre@@ 1830
Sanders 1831
legal 1832
unser 1833
ta@@ 1834
Com@@ 1835
increase 1836
hand@@ 1837
stre@@ 1838
Gesundheits@@ 1839
Club 1840
allowed 1841
nation 1842
measures 1843
dr@@ 1844
Andrew 1845
ics 1846
ang@@ 1847
Th@@ 1848
deaths 1849
lose 1850
ehemaligen 1851
potential 1852
wife 1853
share 1854
summer 1855
Wales 1856
Liverpool 1857
received 1858
Sun 1859
28 1860
tra@@ 1861
Tri@@ 1862
politischen 1863
G 1864
ms 1865
nothing 1866
turn 1867
ster@@ 1868
Pre@@ 1869
investigation 1870
möglich 1871
ven@@ 1872
au 1873
fallen 1874
di 1875
ra 1876
seven 1877
Go@@ 1878
sel@@ 1879
sowohl 1880
verwenden 1881
via 1882
ell@@ 1883
CEO 1884
player 1885
Hälfte 1886
Bi@@ 1887
genommen 1888
Apple 1889
0 1890
General 1891
remain 1892
rather 1893
Möglichkeit 1894
We@@ 1895
mu@@ 1896
ana 1897
tri@@ 1898
einzige 1899
gefunden 1900
Google 1901
whose 1902
derzeit 1903
father 1904
CNN 1905
How 1906
access 1907
gh@@ 1908
ya 1909
Punkte 1910
personal 1911
Gefühl 1912
Also 1913
Ergebnisse 1914
Sk@@ 1915
king 1916
fi@@ 1917
worked 1918
Nation 1919
King 1920
ka 1921
ful 1922
East 1923
ec@@ 1924
genau 1925
ma 1926
hold 1927
seien 1928
fe@@ 1929
He@@ 1930
Du 1931
fin@@ 1932
however 1933
zeit 1934
latest 1935
nahm 1936
sozialen 1937
Region 1938
match 1939
hätten 1940
To@@ 1941
career 1942
31 1943
force 1944
cks 1945
erten 1946
Americans 1947
lin@@ 1948
growth 1949
special 1950
ums 1951
gest@@ 1952
ko@@ 1953
ill@@ 1954
ellen 1955
Ko@@ 1956
ci@@ 1957
tu@@ 1958
safe 1959
Nach@@ 1960
erin 1961
Hand@@ 1962
ak 1963
net 1964
che 1965
Christmas 1966
disease 1967
Gar@@ 1968
question 1969
entfernt 1970
member 1971
showed 1972
chance 1973
themselves 1974
rest 1975
ches 1976
Ac@@ 1977
Kampagne 1978
Chris 1979
ess 1980
worth 1981
gra@@ 1982
Um@@ 1983
sieben 1984
ness 1985
rules 1986
currently 1987
Ke@@ 1988
beim 1989
reports 1990
gave 1991
offer 1992
Krankenhaus 1993
Obwohl 1994
erreichen 1995
region 1996
met 1997
matter 1998
glauben 1999
longer 2000
zusammen@@ 2001
enten 2002
größte 2003
soll 2004
Prime 2005
att@@ 2006
britischen 2007
whole 2008
Schritt 2009
jemand 2010
jedes 2011
brauchen 2012
groups 2013
wh@@ 2014
fe 2015
zahlen 2016
bad 2017
Our 2018
in-@@ 2019
Ste@@ 2020
Bre@@ 2021
meinen 2022
29 2023
“ 2024
Robert 2025
turned 2026
Ihnen 2027
ground 2028
cost 2029
climate 2030
loss 2031
X 2032
businesses 2033
isn 2034
pressure 2035
safety 2036
erte 2037
.. 2038
nach@@ 2039
idea 2040
Alter 2041
ub@@ 2042
tive 2043
single 2044
Beispiel 2045
ganze 2046
Hilfe 2047
ats 2048
bel@@ 2049
schwer 2050
Pl@@ 2051
Teams 2052
ah 2053
bank 2054
Te@@ 2055
70 2056
town 2057
huge 2058
90 2059
men@@ 2060
Dar@@ 2061
cor@@ 2062
neu 2063
K 2064
ars 2065
biggest 2066
ah@@ 2067
kaufen 2068
Africa 2069
revealed 2070
des@@ 2071
Europa 2072
än@@ 2073
dessen 2074
Chance 2075
Februar 2076
ales 2077
12@@ 2078
außerhalb 2079
rise 2080
interview 2081
sieht 2082
changes 2083
Tests 2084
45 2085
involved 2086
weg 2087
Deal 2088
tell 2089
price 2090
dar@@ 2091
fo@@ 2092
tre@@ 2093
Situation 2094
Sohn 2095
Office 2096
mat@@ 2097
ges 2098
Williams 2099
Service 2100
klar 2101
stark 2102
schlug 2103
officers 2104
del@@ 2105
paid 2106
executive 2107
France 2108
konnten 2109
Last 2110
ut 2111
eight 2112
Pe@@ 2113
Congress 2114
goal 2115
higher 2116
bel 2117
Russia 2118
sub@@ 2119
Fox 2120
testing 2121
rec@@ 2122
continued 2123
authorities 2124
leading 2125
ann@@ 2126
Tom 2127
anyone 2128
According 2129
claims 2130
fully 2131
interest 2132
Um 2133
manager 2134
zweite 2135
fre@@ 2136
A-@@ 2137
spent 2138
re-@@ 2139
Ak@@ 2140
Group 2141
Q@@ 2142
Grund 2143
Col@@ 2144
similar 2145
0@@ 2146
har@@ 2147
eh@@ 2148
Mu@@ 2149
Probleme 2150
inside 2151
Prozess 2152
post 2153
allow 2154
football 2155
schließen 2156
meinem 2157
families 2158
quite 2159
Premierminister 2160
17@@ 2161
Reaktion 2162
Plan 2163
gestellt 2164
politische 2165
Association 2166
cannot 2167
Sal@@ 2168
Sicherheits@@ 2169
tung 2170
ford 2171
2021 2172
Chelsea 2173
res@@ 2174
4.@@ 2175
yn@@ 2176
16@@ 2177
Royal 2178
training 2179
daughter 2180
Press 2181
dachte 2182
gs 2183
ical 2184
Government 2185
erklärte 2186
round 2187
ens@@ 2188
sense 2189
hören 2190
art 2191
ying 2192
quickly 2193
Rück@@ 2194
voters 2195
Professor 2196
heart 2197
ir 2198
brought 2199
Verfügung 2200
fest 2201
Am@@ 2202
quarter 2203
che@@ 2204
Jo@@ 2205
release 2206
laut 2207
ok@@ 2208
shared 2209
happened 2210
closed 2211
press 2212
Macht 2213
ep@@ 2214
Viele 2215
Mitglieder 2216
ney 2217
o-@@ 2218
No@@ 2219
ving 2220
det 2221
Auch 2222
getötet 2223
remains 2224
geschlossen 2225
Sa@@ 2226
Regel 2227
Wasser 2228
Familien 2229
je 2230
break 2231
que 2232
zer@@ 2233
dern 2234
ets 2235
self-@@ 2236
ich@@ 2237
Behörden 2238
ative 2239
music 2240
Spiel@@ 2241
jobs 2242
wants 2243
Schule 2244
lu@@ 2245
Bur@@ 2246
either 2247
normal 2248
Führer 2249
technology 2250
heard 2251
step 2252
Öffentlichkeit 2253
Zu@@ 2254
short 2255
anderer 2256
hal@@ 2257
Mal@@ 2258
Druck 2259
ence 2260
Harris 2261
development 2262
Lu@@ 2263
probably 2264
dich 2265
Gr@@ 2266
oil 2267
ensure 2268
Gemeinschaft 2269
vo@@ 2270
example 2271
legen 2272
Y 2273
Angst 2274
fand 2275
ble 2276
Ru@@ 2277
bleibt 2278
claimed 2279
gets 2280
senior 2281
+ 2282
un 2283
rates 2284
Indien 2285
ta 2286
thousands 2287
aten 2288
Personen 2289
Schul@@ 2290
ile 2291
2013 2292
Länder 2293
14@@ 2294
West@@ 2295
bietet 2296
schools 2297
Paar 2298
Lockdown 2299
hart 2300
Seattle 2301
understand 2302
schaffen 2303
2012 2304
passiert 2305
Tr@@ 2306
talk 2307
liegt 2308
ship 2309
sprach 2310
alten 2311
meet 2312
Opfer 2313
00 2314
Of 2315
Paris 2316
Republican 2317
schw@@ 2318
U 2319
significant 2320
Foto 2321
Ger@@ 2322
Seine 2323
3,@@ 2324
ändern 2325
ve@@ 2326
Au@@ 2327
kämpfen 2328
fühlen 2329
efforts 2330
Char@@ 2331
ierung 2332
Peter 2333
bieten 2334
Polizei@@ 2335
ff 2336
Tochter 2337
heraus 2338
stellt 2339
Israel 2340
tax 2341
By 2342
foreign 2343
5.@@ 2344
Scott 2345
Senate 2346
gewann 2347
weekend 2348
denn 2349
Arsenal 2350
border 2351
terms 2352
Gen@@ 2353
trial 2354
Anzahl 2355
customers 2356
College 2357
cre@@ 2358
Mädchen 2359
conditions 2360
view 2361
Punkt 2362
Markt 2363
ke@@ 2364
fer 2365
Tra@@ 2366
mean 2367
accused 2368
schließlich 2369
AN@@ 2370
ready 2371
restrictions 2372
elt 2373
forced 2374
fest@@ 2375
az@@ 2376
Haupt@@ 2377
ones 2378
date 2379
wei@@ 2380
opportunity 2381
Studenten 2382
teilen 2383
lokalen 2384
ended 2385
Krankheit 2386
takes 2387
Test 2388
versch@@ 2389
Not 2390
High 2391
particularly 2392
co-@@ 2393
violence 2394
Lin@@ 2395
Bill 2396
Sen@@ 2397
ach 2398
co 2399
Sache 2400
tro@@ 2401
Brown 2402
emergency 2403
events 2404
range 2405
previous 2406
Kind 2407
relationship 2408
Entwicklung 2409
schützen 2410
French 2411
tested 2412
serious 2413
met@@ 2414
Thomas 2415
tried 2416
energy 2417
5-@@ 2418
Fl@@ 2419
officer 2420
Post 2421
Sprecher 2422
La@@ 2423
kte 2424
Gi@@ 2425
ven 2426
outbreak 2427
treatment 2428
Demonstranten 2429
„ 2430
Obama 2431
products 2432
Bl@@ 2433
works 2434
kl@@ 2435
hinaus 2436
tete 2437
pa@@ 2438
sur@@ 2439
bed 2440
3-@@ 2441
Führung 2442
Königreich 2443
Gesetz 2444
chten 2445
tig 2446
aged 2447
ay@@ 2448
February 2449
ack 2450
Sha@@ 2451
capital 2452
Even 2453
gewonnen 2454
ities 2455
Act 2456
musste 2457
looked 2458
gone 2459
arbeitet 2460
performance 2461
amerikanischen 2462
ben@@ 2463
Ergebnis 2464
öffentliche 2465
nutzen 2466
pp@@ 2467
direkt 2468
teams 2469
Kosten 2470
kurz 2471
concerns 2472
Ball 2473
H 2474
amp@@ 2475
kleinen 2476
aller 2477
kids 2478
previously 2479
wood 2480
unterstützt 2481
focus 2482
create 2483
starb 2484
Ländern 2485
helped 2486
presidential 2487
ism 2488
lan@@ 2489
2-@@ 2490
Nor@@ 2491
Martin 2492
decided 2493
instead 2494
non-@@ 2495
gleiche 2496
kleine 2497
Straße 2498
Wil@@ 2499
demand 2500
sts 2501
mel@@ 2502
bri@@ 2503
Krise 2504
majority 2505
Neu@@ 2506
sofort 2507
Gewalt 2508
ants 2509
ast 2510
looks 2511
Richter 2512
growing 2513
anti-@@ 2514
aw@@ 2515
str@@ 2516
pen@@ 2517
main 2518
30@@ 2519
oo@@ 2520
Dis@@ 2521
program 2522
happen 2523
happy 2524
knew 2525
form@@ 2526
winning 2527
Rennen 2528
Schulen 2529
Bezug 2530
protect 2531
da@@ 2532
-jährige 2533
W 2534
aren 2535
Mat@@ 2536
Coronavirus-@@ 2537
tatsächlich 2538
geführt 2539
homes 2540
Australian 2541
published 2542
US@@ 2543
gehört 2544
Form 2545
term 2546
ages 2547
Da 2548
Island 2549
vaccine 2550
Kontrolle 2551
Richard 2552
problems 2553
Boden 2554
Council 2555
sl@@ 2556
beste 2557
ass@@ 2558
enz@@ 2559
ire 2560
else 2561
spielte 2562
agreement 2563
gespielt 2564
numbers 2565
Mac@@ 2566
Ha@@ 2567
related 2568
verschiedenen 2569
Ireland 2570
System 2571
auszu@@ 2572
average 2573
ically 2574
sales 2575
aff@@ 2576
unten 2577
visit 2578
0.@@ 2579
questions 2580
15@@ 2581
nächste 2582
ade 2583
tests 2584
Doch 2585
ham 2586
cause 2587
lung 2588
mor@@ 2589
read 2590
hen 2591
moved 2592
Gra@@ 2593
bare 2594
ice 2595
britische 2596
Scottish 2597
reason 2598
levels 2599
vis@@ 2600
seems 2601
Fin@@ 2602
Kindern 2603
lower 2604
born 2605
eng@@ 2606
Im@@ 2607
production 2608
goes 2609
inc@@ 2610
6.@@ 2611
husband 2612
calls 2613
sw@@ 2614
Institute 2615
Mit@@ 2616
por@@ 2617
cur@@ 2618
Mas@@ 2619
coach 2620
abzu@@ 2621
residents 2622
Amerikaner 2623
conference 2624
Kim 2625
largest 2626
Karriere 2627
Ju@@ 2628
Abend 2629
Treffen 2630
Manager 2631
Many 2632
Wähler 2633
message 2634
Super@@ 2635
ette 2636
Regeln 2637
Bemühungen 2638
More 2639
ls 2640
ion 2641
project 2642
friend 2643
Website 2644
road 2645
ments 2646
First 2647
chen@@ 2648
glaube 2649
suchen 2650
sm@@ 2651
Finanz@@ 2652
mental 2653
ente 2654
agency 2655
D-@@ 2656
50@@ 2657
besteht 2658
agen 2659
Reise 2660
changed 2661
adding 2662
Ser@@ 2663
Sport 2664
Sydney 2665
Warren 2666
described 2667
buy 2668
to-@@ 2669
host 2670
sicherzustellen 2671
Bundes@@ 2672
Mitte 2673
watch 2674
Serie 2675
letter 2676
Zu 2677
Auto 2678
fell 2679
wor@@ 2680
bt 2681
sion 2682
geworden 2683
systems 2684
Job 2685
kamen 2686
Sir 2687
William 2688
Online-@@ 2689
wrong 2690
rit@@ 2691
included 2692
Netflix 2693
Bro@@ 2694
site 2695
je@@ 2696
Australien 2697
Her 2698
hands 2699
gro@@ 2700
Carolina 2701
Preis 2702
employees 2703
an-@@ 2704
erklärt 2705
land@@ 2706
ators 2707
Kopf 2708
Far@@ 2709
appeared 2710
dri@@ 2711
voll 2712
nationalen 2713
weiteren 2714
contact 2715
ib@@ 2716
pri@@ 2717
jedem 2718
Hong 2719
Justice 2720
getestet 2721
amount 2722
zog 2723
popular 2724
pf@@ 2725
Geschäft 2726
Fällen 2727
Is 2728
plant 2729
Freunde 2730
ik 2731
ning 2732
Open 2733
hält 2734
Taylor 2735
ns 2736
Rs 2737
account 2738
– 2739
300 2740
approach 2741
Trainer 2742
fragen 2743
class 2744
For@@ 2745
13@@ 2746
Von 2747
Hor@@ 2748
Risiko 2749
ong 2750
Behandlung 2751
bur@@ 2752
lichkeit 2753
hour 2754
2011 2755
berichtete 2756
berg 2757
Idee 2758
weg@@ 2759
protests 2760
arrested 2761
Ukraine 2762
back@@ 2763
Recht 2764
frühen 2765
ath@@ 2766
Big 2767
führt 2768
population 2769
words 2770
challenge 2771
ja 2772
sign 2773
7.@@ 2774
tiert 2775
Nachdem 2776
ane 2777
hr@@ 2778
trotz 2779
firm 2780
reach 2781
Forscher 2782
giving 2783
certain 2784
gte 2785
named 2786
32 2787
bs 2788
enti@@ 2789
Hill 2790
Star@@ 2791
stra@@ 2792
schaft 2793
kre@@ 2794
Wochenende 2795
itself 2796
caused 2797
sex 2798
amid 2799
warned 2800
Todesfälle 2801
rat@@ 2802
anders 2803
forces 2804
Executive 2805
Zugang 2806
towards 2807
Sommer 2808
Two 2809
win@@ 2810
behauptet 2811
Beziehung 2812
leaving 2813
ue 2814
Freund 2815
row 2816
solche 2817
ists 2818
easy 2819
99 2820
Chicago 2821
spielt 2822
0,@@ 2823
zeigte 2824
verstehen 2825
immediately 2826
Jetzt 2827
darum 2828
PA 2829
Raum 2830
leicht 2831
schlagen 2832
couldn 2833
victory 2834
Kandidaten 2835
urs 2836
starting 2837
Green 2838
ams 2839
ai 2840
comp@@ 2841
ß@@ 2842
Organisation 2843
places 2844
parts 2845
gezeigt 2846
Beginn 2847
Beweise 2848
entwickelt 2849
Dr 2850
effort 2851
mal 2852
Position 2853
kt@@ 2854
Nachrichten 2855
dre@@ 2856
kten 2857
Che@@ 2858
Liste 2859
ask 2860
track 2861
gre@@ 2862
true 2863
traf 2864
langen 2865
Steve 2866
one-@@ 2867
4-@@ 2868
followed 2869
Wert 2870
agreed 2871
gar@@ 2872
ität 2873
Kong 2874
vers 2875
incident 2876
gas 2877
ring 2878
berichtet 2879
fahren 2880
Mer@@ 2881
Weißen 2882
lack 2883
dung 2884
tiger 2885
Tatsache 2886
RE@@ 2887
opening 2888
failed 2889
Russian 2890
7-@@ 2891
Vor 2892
quality 2893
teten 2894
bill 2895
Erfahrung 2896
besch@@ 2897
stri@@ 2898
Queen 2899
ess@@ 2900
comment 2901
dritten 2902
durchgeführt 2903
gingen 2904
Ri@@ 2905
Anstieg 2906
2010 2907
tw@@ 2908
col@@ 2909
Russland 2910
ation@@ 2911
Lee 2912
increased 2913
Fe@@ 2914
sal@@ 2915
Zahlen 2916
Laut 2917
beat 2918
From 2919
unternehmen 2920
C-@@ 2921
Kom@@ 2922
Programm 2923
charge 2924
As@@ 2925
Bel@@ 2926
Rest 2927
users 2928
großer 2929
gew@@ 2930
isten 2931
ären 2932
ads 2933
75 2934
includes 2935
heraus@@ 2936
alone 2937
Ben@@ 2938
Körper 2939
passed 2940
offen 2941
daily 2942
Spielen 2943
ek@@ 2944
build 2945
above 2946
tur@@ 2947
nine 2948
ara 2949
ines 2950
positiv 2951
ktion 2952
star@@ 2953
Francisco 2954
tieren 2955
neben 2956
sha@@ 2957
dead 2958
Interview 2959
wusste 2960
ris@@ 2961
seeing 2962
deren 2963
compared 2964
pass 2965
Jack 2966
wa@@ 2967
common 2968
Wel@@ 2969
created 2970
Germany 2971
hielt 2972
ably 2973
Pol@@ 2974
char@@ 2975
ino 2976
ory 2977
Linie 2978
Nigeria 2979
behauptete 2980
ide@@ 2981
Angriff 2982
massive 2983
ws 2984
Committee 2985
vier@@ 2986
ved 2987
Ben 2988
Meghan 2989
talks 2990
ality 2991
iger 2992
Delhi 2993
spending 2994
Bedingungen 2995
source 2996
charges 2997
mal@@ 2998
pe 2999
leg@@ 3000
Antwort 3001
ali@@ 3002
ther@@ 3003
Air 3004
erhöhen 3005
V 3006
2008 3007
besonders 3008
ran 3009
simply 3010
inn@@ 3011
raised 3012
fuhr 3013
mas@@ 3014
Then 3015
Don@@ 3016
Titel 3017
Ms. 3018
moving 3019
Richtung 3020
communities 3021
om 3022
drug 3023
tor@@ 3024
ged 3025
gesetzt 3026
Another 3027
box 3028
verlieren 3029
St. 3030
enk@@ 3031
eigene 3032
Charles 3033
plus 3034
Wal@@ 3035
wing 3036
partner 3037
although 3038
Alex 3039
bro@@ 3040
Ent@@ 3041
decades 3042
debate 3043
movement 3044
cancer 3045
Por@@ 3046
address 3047
effect 3048
mind 3049
verbunden 3050
band 3051
wearing 3052
Abkommen 3053
Victoria 3054
are@@ 3055
fa@@ 3056
researchers 3057
IN@@ 3058
tweeted 3059
ties 3060
ler@@ 3061
bisher 3062
expect 3063
33 3064
property 3065
version 3066
AR@@ 3067
bes@@ 3068
natürlich 3069
scene 3070
ching 3071
1-@@ 3072
Prince 3073
CBS 3074
pretty 3075
oben 3076
Pal@@ 3077
African 3078
Hal@@ 3079
Corbyn 3080
erwarten 3081
laufen 3082
ack@@ 3083
table 3084
reg@@ 3085
Pläne 3086
ret@@ 3087
inv@@ 3088
essen 3089
Pa@@ 3090
neun 3091
anc@@ 3092
Mad@@ 3093
angeblich 3094
heit 3095
Fahr@@ 3096
tic 3097
acy 3098
explo@@ 3099
tem 3100
nimmt 3101
schaften 3102
stock 3103
soziale 3104
threat 3105
education 3106
calling 3107
versuchte 3108
lines 3109
avoid 3110
wi@@ 3111
ner@@ 3112
league 3113
Thema 3114
pol@@ 3115
tel 3116
CO@@ 3117
Love 3118
experts 3119
costs 3120
Hand 3121
posted 3122
launched 3123
reached 3124
Cal@@ 3125
oren 3126
55 3127
website 3128
sing 3129
Frankreich 3130
signed 3131
Matt 3132
claim 3133
Buch 3134
feeling 3135
ebenfalls 3136
PM 3137
gegangen 3138
amerikanische 3139
völlig 3140
fair 3141
Just 3142
Schottland 3143
tut 3144
zwei@@ 3145
iten 3146
teil 3147
gang 3148
talking 3149
wider@@ 3150
pr@@ 3151
Republikaner 3152
schien 3153
kept 3154
model 3155
Fre@@ 3156
cap@@ 3157
justice 3158
verantwortlich 3159
throughout 3160
erreicht 3161
ün@@ 3162
Ra@@ 3163
Home 3164
fort 3165
onen 3166
Bewegung 3167
value 3168
Kalifornien 3169
cover 3170
inmitten 3171
gel 3172
tor 3173
bisschen 3174
sting 3175
Mehrheit 3176
pair 3177
dro@@ 3178
high-@@ 3179
fri@@ 3180
Daniel 3181
super@@ 3182
richtig 3183
central 3184
wear 3185
additional 3186
mag@@ 3187
Lewis 3188
attention 3189
Bet@@ 3190
Chef 3191
48 3192
Secretary 3193
success 3194
0-@@ 3195
Public 3196
air@@ 3197
management 3198
mag 3199
deep 3200
investment 3201
gn@@ 3202
kom@@ 3203
ani 3204
gezogen 3205
34 3206
ations@@ 3207
built 3208
manchmal 3209
Bal@@ 3210
hor@@ 3211
Hol@@ 3212
hoch 3213
bringt 3214
fahr@@ 3215
400 3216
stand@@ 3217
ched 3218
best@@ 3219
8.@@ 3220
fühlte 3221
stieg 3222
neues 3223
parties 3224
verursacht 3225
Kongress 3226
fragte 3227
affected 3228
Grenze 3229
blood 3230
masks 3231
verbessern 3232
Vergleich 3233
ismus 3234
erhielt 3235
sector 3236
Sein 3237
Seiten 3238
ited 3239
Ryan 3240
baby 3241
Fähigkeit 3242
tel@@ 3243
beyond 3244
prime 3245
Tro@@ 3246
Hospital 3247
ment@@ 3248
weight 3249
review 3250
fu@@ 3251
mark 3252
Bedeutung 3253
ash 3254
Wasser@@ 3255
vermeiden 3256
Suche 3257
st-@@ 3258
rich@@ 3259
enn@@ 3260
Kraft 3261
hel@@ 3262
myself 3263
boy 3264
pm 3265
fanden 3266
baren 3267
einzu@@ 3268
Ihren 3269
36 3270
hom@@ 3271
beginnt 3272
Melbourne 3273
gehören 3274
steigen 3275
AC@@ 3276
Pan@@ 3277
details 3278
junge 3279
4,@@ 3280
Hall 3281
app 3282
Hel@@ 3283
rum@@ 3284
required 3285
wn 3286
warten 3287
Indian 3288
funding 3289
trag@@ 3290
bald 3291
prison 3292
ban 3293
Seit 3294
äre 3295
door 3296
twitterte 3297
Blick 3298
aid 3299
og@@ 3300
Dann 3301
Alle 3302
brand 3303
i-@@ 3304
Gruppen 3305
prices 3306
Super 3307
All@@ 3308
arbeitete 3309
sexual 3310
24@@ 3311
Liebe 3312
hear 3313
issued 3314
entire 3315
jemals 3316
Kelly 3317
opened 3318
provided 3319
Bei 3320
Stimmen 3321
Rahmen 3322
store 3323
Amerika 3324
Sky 3325
highest 3326
elte 3327
k-@@ 3328
limited 3329
title 3330
Botschaft 3331
miles 3332
runs 3333
Hauses 3334
station 3335
Test@@ 3336
Sam@@ 3337
Grund@@ 3338
era 3339
chte 3340
ick@@ 3341
Korea 3342
Road 3343
cities 3344
schen 3345
ick 3346
anti@@ 3347
attacks 3348
ish@@ 3349
Des@@ 3350
tly 3351
38 3352
Bay 3353
Republicans 3354
Anthony 3355
geschrieben 3356
aufgenommen 3357
politics 3358
wide 3359
möglicherweise 3360
actions 3361
comments 3362
ga@@ 3363
Women 3364
falsch 3365
Land@@ 3366
sa 3367
IS@@ 3368
trat 3369
minute 3370
Gouverneur 3371
Unternehmens 3372
ingly 3373
St 3374
ili@@ 3375
three-@@ 3376
tt@@ 3377
leadership 3378
tics 3379
testen 3380
thinking 3381
zeit@@ 3382
25@@ 3383
caption 3384
angeklagt 3385
wait 3386
jüngsten 3387
verschiedene 3388
ery 3389
union 3390
charged 3391
zusätzliche 3392
6-@@ 3393
jungen 3394
walk 3395
Bewohner 3396
ised 3397
flight 3398
prevent 3399
Senator 3400
Tu@@ 3401
hol@@ 3402
bist 3403
candidate 3404
Research 3405
Dieser 3406
Tre@@ 3407
beenden 3408
considered 3409
beg@@ 3410
Experten 3411
AS@@ 3412
Since 3413
Picture 3414
unserem 3415
extra 3416
Büro 3417
sn@@ 3418
victims 3419
Cha@@ 3420
verletzt 3421
figures 3422
Vertrauen 3423
Clinton 3424
J 3425
app@@ 3426
oc@@ 3427
returned 3428
Central 3429
Gesicht 3430
millions 3431
ously 3432
continues 3433
gekommen 3434
ths 3435
ft@@ 3436
War 3437
During 3438
Jeremy 3439
darin 3440
chinesischen 3441
critical 3442
stars 3443
wal@@ 3444
1. 3445
fear 3446
schon 3447
ished 3448
abuse 3449
zi@@ 3450
scored 3451
sports 3452
candidates 3453
offered 3454
ht 3455
sollen 3456
erung 3457
verkauft 3458
kn@@ 3459
drive 3460
fit 3461
gesamten 3462
Start 3463
spot 3464
Here 3465
gener@@ 3466
App 3467
globalen 3468
ement 3469
65 3470
weltweit 3471
Today 3472
Mah@@ 3473
Bas@@ 3474
uses 3475
gehalten 3476
Arbeits@@ 3477
wo@@ 3478
finally 3479
stu@@ 3480
5,@@ 3481
San@@ 3482
anderes 3483
Fi@@ 3484
Rückkehr 3485
ute 3486
cu@@ 3487
Pu@@ 3488
Gefängnis 3489
protesters 3490
enz 3491
Meine 3492
Hoffnung 3493
present 3494
Universität 3495
anstatt 3496
Ku@@ 3497
distancing 3498
tz@@ 3499
welche 3500
Aktien 3501
served 3502
Auto@@ 3503
facing 3504
believed 3505
active 3506
wouldn 3507
ori@@ 3508
follow 3509
amm@@ 3510
sho@@ 3511
Kevin 3512
Champions 3513
Kate 3514
2009 3515
eg@@ 3516
crime 3517
Red 3518
glücklich 3519
Top-@@ 3520
actor 3521
deutlich 3522
style 3523
Michigan 3524
Quartal 3525
Italy 3526
eu@@ 3527
rä@@ 3528
Mexico 3529
Verbindung 3530
9.@@ 3531
Brief 3532
bestätigte 3533
ermöglichen 3534
Em@@ 3535
Zeiten 3536
gezwungen 3537
sage 3538
Technologie 3539
speak 3540
Most 3541
ese 3542
ering 3543
ial 3544
student 3545
Pakistan 3546
joined 3547
rule 3548
explained 3549
Kollegen 3550
pat@@ 3551
Hotel 3552
ol 3553
off@@ 3554
bet@@ 3555
Best@@ 3556
Gro@@ 3557
symptoms 3558
isch@@ 3559
figure 3560
reduce 3561
hundreds 3562
acting 3563
Floyd 3564
insbesondere 3565
Süd@@ 3566
ace 3567
spoke 3568
goals 3569
save 3570
anz@@ 3571
ash@@ 3572
sometimes 3573
Sports 3574
elections 3575
mp@@ 3576
dec@@ 3577
volle 3578
complete 3579
lt 3580
fourth 3581
Win@@ 3582
wert 3583
Unsere 3584
movie 3585
hei@@ 3586
Jeder 3587
multiple 3588
Lebens 3589
bestätigt 3590
ena 3591
p.m. 3592
bra@@ 3593
ank@@ 3594
Kinder@@ 3595
older 3596
Herausforderung 3597
Georgia 3598
Parlament 3599
Tour 3600
paper 3601
Forschung 3602
Partner 3603
mehreren 3604
Boo@@ 3605
ckt 3606
department 3607
brechen 3608
wenige 3609
meant 3610
Leistung 3611
girl 3612
verhindern 3613
injury 3614
Grand 3615
completely 3616
Fehler 3617
Commission 3618
opposition 3619
Sar@@ 3620
schwierig 3621
dabei 3622
pu@@ 3623
Je@@ 3624
negative 3625
Adam 3626
tion@@ 3627
gende 3628
Fo@@ 3629
damage 3630
dra@@ 3631
Those 3632
glaubt 3633
certainly 3634
natural 3635
income 3636
gender 3637
standing 3638
centre 3639
statt 3640
perfect 3641
ord@@ 3642
Elizabeth 3643
Kan@@ 3644
Men@@ 3645
anz 3646
27@@ 3647
erst 3648
trip 3649
begin 3650
200@@ 3651
internationalen 3652
Virginia 3653
bewegen 3654
spend 3655
CA@@ 3656
Familien@@ 3657
markets 3658
Rechts@@ 3659
two-@@ 3660
cast 3661
speech 3662
choice 3663
Hollywood 3664
word 3665
Morgen 3666
ee 3667
hearing 3668
Meanwhile 3669
Spitze 3670
telling 3671
tig@@ 3672
dd@@ 3673
Geschäfts@@ 3674
spokesman 3675
Straßen 3676
hon@@ 3677
Baby 3678
Sen. 3679
Bevölkerung 3680
ließ 3681
shooting 3682
asking 3683
loved 3684
society 3685
reisen 3686
39 3687
anten 3688
stoppen 3689
fil@@ 3690
Mitglied 3691
basis 3692
option 3693
if@@ 3694
Tor@@ 3695
Ram@@ 3696
Gesellschaft 3697
Nachricht 3698
weather 3699
Liga 3700
konfrontiert 3701
37 3702
bat 3703
iti@@ 3704
Wahlen 3705
holiday 3706
del 3707
Ter@@ 3708
aktuellen 3709
Direktor 3710
Schauspieler 3711
COVID-19-@@ 3712
Del@@ 3713
contract 3714
setzt 3715
Wor@@ 3716
benefits 3717
Federal 3718
suggested 3719
Deutschland 3720
Reg@@ 3721
braucht 3722
worst 3723
tag 3724
cash 3725
zone 3726
besorgt 3727
MP 3728
acks 3729
enter 3730
reality 3731
wall 3732
evening 3733
bas@@ 3734
ym@@ 3735
Haus@@ 3736
consider 3737
deten 3738
Zeit@@ 3739
schl@@ 3740
faced 3741
effective 3742
ble@@ 3743
kurzem 3744
Force 3745
Sel@@ 3746
street 3747
Bilder 3748
genden 3749
Staats@@ 3750
früher 3751
Zeitpunkt 3752
befindet 3753
launch 3754
Staates 3755
Cre@@ 3756
west 3757
aler 3758
fied 3759
Ed@@ 3760
Quelle 3761
ei 3762
iges 3763
io 3764
überhaupt 3765
illegal 3766
NA@@ 3767
brachte 3768
allein 3769
Ham@@ 3770
lokale 3771
designed 3772
passieren 3773
sters 3774
original 3775
straight 3776
Dieses 3777
ear@@ 3778
Sol@@ 3779
behandelt 3780
spiel 3781
Musik 3782
wichtige 3783
oll@@ 3784
ely 3785
Don 3786
hast 3787
Vorfall 3788
öffnen 3789
Arizona 3790
environment 3791
Bildunterschrift 3792
Bor@@ 3793
La 3794
picture 3795
medi@@ 3796
Pen@@ 3797
base 3798
usually 3799
Runde 3800
ately 3801
gestern 3802
receive 3803
ils 3804
laws 3805
ren 3806
Rei@@ 3807
tat 3808
emp@@ 3809
las@@ 3810
Versuch 3811
target 3812
piece 3813
seem 3814
judge 3815
noted 3816
ban@@ 3817
ology 3818
6,@@ 3819
Tur@@ 3820
scht 3821
Ihrem 3822
murder 3823
Pr@@ 3824
Restaurants 3825
remember 3826
Dem@@ 3827
Top 3828
spricht 3829
park 3830
Jackson 3831
sum@@ 3832
Umfrage 3833
boo@@ 3834
secretary 3835
ances 3836
gend 3837
alleged 3838
AFP 3839
42 3840
fine 3841
Vergangenheit 3842
haven 3843
konzentrieren 3844
geschlagen 3845
bin@@ 3846
Regierungs@@ 3847
pick 3848
RT 3849
Covid 3850
beginning 3851
ac 3852
vers@@ 3853
wieder@@ 3854
ered 3855
policies 3856
Gelegenheit 3857
UN@@ 3858
ßen 3859
Lebens@@ 3860
fordern 3861
erzielte 3862
yp@@ 3863
Gel@@ 3864
appear 3865
Warum 3866
citizens 3867
Hier 3868
angekündigt 3869
ail@@ 3870
sport 3871
Beziehungen 3872
44 3873
far@@ 3874
Ir@@ 3875
100,000 3876
Disney 3877
95 3878
rose 3879
decade 3880
Is@@ 3881
missing 3882
Medical 3883
Laufe 3884
showing 3885
Lebensmittel@@ 3886
particular 3887
fore@@ 3888
Kor@@ 3889
challenges 3890
ef@@ 3891
Erfolg 3892
Max 3893
fighting 3894
tierte 3895
advice 3896
ently 3897
ip@@ 3898
ain@@ 3899
guten 3900
design 3901
sold 3902
Associated 3903
Projekt 3904
gem@@ 3905
century 3906
holding 3907
Northern 3908
Stephen 3909
erlaubt 3910
Sport@@ 3911
hi@@ 3912
nationale 3913
protest 3914
dete 3915
Verlust 3916
primary 3917
English 3918
Why 3919
Entscheidungen 3920
Brexit-@@ 3921
ehemaliger 3922
forderte 3923
Tran@@ 3924
gelassen 3925
putting 3926
Bedenken 3927
Ka@@ 3928
criminal 3929
appears 3930
namens 3931
Mein 3932
check 3933
culture 3934
Fr@@ 3935
Iowa 3936
entwickeln 3937
Coronavirus-Pandemie 3938
Zustand 3939
sell 3940
vollständig 3941
Details 3942
illi@@ 3943
Gre@@ 3944
Security 3945
condition 3946
erkennen 3947
anne 3948
fan 3949
draußen 3950
Kontakt 3951
size 3952
Tausende 3953
various 3954
addition 3955
AT@@ 3956
iting 3957
arrived 3958
necessary 3959
Pro 3960
acc@@ 3961
Red@@ 3962
begonnen 3963
wählen 3964
the@@ 3965
recorded 3966
supporters 3967
NFL 3968
all-@@ 3969
Nun 3970
digital 3971
kan@@ 3972
P-@@ 3973
anischen 3974
committee 3975
setzte 3976
Pelosi 3977
bil@@ 3978
wirtschaftlichen 3979
ole 3980
Steuer@@ 3981
eller 3982
hotel 3983
Verwendung 3984
Fahrer 3985
Spe@@ 3986
status 3987
poor 3988
schwarzen 3989
Despite 3990
47 3991
shop 3992
capacity 3993
innen 3994
sed 3995
Verhalten 3996
tech 3997
sche 3998
gan 3999
pun@@ 4000
dd 4001
Mehr 4002
beschuldigt 4003
Edinburgh 4004
Jährige 4005
28@@ 4006
Ur@@ 4007
weiter@@ 4008
lies 4009
ari@@ 4010
Luft@@ 4011
ked 4012
Folge 4013
Verkauf 4014
zz@@ 4015
imp@@ 4016
entscheiden 4017
scheduled 4018
Interesse 4019
cl@@ 4020
post@@ 4021
annual 4022
Not@@ 4023
Out@@ 4024
ktionen 4025
Fer@@ 4026
driving 4027
Ordnung 4028
feet 4029
dly 4030
written 4031
Back@@ 4032
writing 4033
individual 4034
improve 4035
platform 4036
fte 4037
cul@@ 4038
serve 4039
bezeichnet 4040
planned 4041
Mel@@ 4042
Supreme 4043
Can@@ 4044
learn 4045
physical 4046
ot 4047
uren 4048
log@@ 4049
zer 4050
def@@ 4051
dog 4052
Arbeiter 4053
hum@@ 4054
besuchen 4055
Beamten 4056
va 4057
Dor@@ 4058
ky 4059
ften 4060
AM@@ 4061
votes 4062
Nationen 4063
District 4064
kommenden 4065
feels 4066
character 4067
Proteste 4068
verurteilt 4069
cal 4070
ett 4071
Valley 4072
domestic 4073
tough 4074
steps 4075
bul@@ 4076
Morgan 4077
10-@@ 4078
Produkte 4079
network 4080
Global 4081
Bürgermeister 4082
anische 4083
Wall 4084
infection 4085
competition 4086
sort 4087
49 4088
Hy@@ 4089
Abstimmung 4090
Beach 4091
Handels@@ 4092
shown 4093
Madrid 4094
Feuer 4095
mann 4096
Both 4097
rising 4098
dig@@ 4099
sions 4100
Zusammenhang 4101
Artikel 4102
nu@@ 4103
female 4104
Ph@@ 4105
insgesamt 4106
Zwei 4107
verhaftet 4108
German 4109
EU-@@ 4110
Ober@@ 4111
hat@@ 4112
Media 4113
type 4114
Bon@@ 4115
watching 4116
nahe 4117
Tat 4118
At@@ 4119
Daily 4120
successful 4121
ising 4122
Schüler 4123
bor@@ 4124
Cas@@ 4125
confidence 4126
Bri@@ 4127
Wissenschaftler 4128
os@@ 4129
Vertrag 4130
atic 4131
responsible 4132
600 4133
schwarze 4134
admitted 4135
Hei@@ 4136
Vo@@ 4137
El 4138
gers 4139
beteiligt 4140
perhaps 4141
Stimme 4142
le-@@ 4143
Gal@@ 4144
IC@@ 4145
Sam 4146
cht@@ 4147
niemand 4148
keeping 4149
Foundation 4150
Kir@@ 4151
iv@@ 4152
Glasgow 4153
identified 4154
dauern 4155
ending 4156
peace 4157
wollten 4158
pped 4159
unbe@@ 4160
aware 4161
attempt 4162
offers 4163
author 4164
voting 4165
.000 4166
Welt@@ 4167
Anwalt 4168
Sti@@ 4169
brother 4170
join 4171
outs 4172
folgen 4173
center 4174
funds 4175
sor@@ 4176
battle 4177
geboren 4178
Real 4179
analy@@ 4180
Nur 4181
below 4182
41 4183
lam@@ 4184
ren@@ 4185
Will 4186
doctors 4187
IT@@ 4188
seeking 4189
plays 4190
Impfstoff 4191
ano 4192
geschickt 4193
ust@@ 4194
Anti-@@ 4195
Veranstaltung 4196
Sub@@ 4197
Einfluss 4198
middle 4199
Essen 4200
practice 4201
planning 4202
Oh 4203
Bereich 4204
mission 4205
Krieg 4206
independent 4207
get@@ 4208
cker 4209
zehn 4210
ca 4211
sides 4212
answer 4213
reporters 4214
geplant 4215
Fol@@ 4216
sto@@ 4217
trans@@ 4218
Bedrohung 4219
operations 4220
sicherlich 4221
activity 4222
Fuß 4223
developed 4224
options 4225
clubs 4226
winner 4227
teilte 4228
rel@@ 4229
Wilson 4230
dropped 4231
Herz@@ 4232
losing 4233
flo@@ 4234
7,@@ 4235
T-@@ 4236
ational 4237
helping 4238
kürzlich 4239
concerned 4240
Rangers 4241
Wachstum 4242
alte 4243
don@@ 4244
Centre 4245
erhöht 4246
budget 4247
bauen 4248
fiel 4249
dir 4250
wür@@ 4251
Schutz 4252
stories 4253
frei 4254
Tier@@ 4255
generation 4256
ville 4257
Arten 4258
yer 4259
bewusst 4260
Gefahr 4261
einander 4262
concern 4263
angesehen 4264
aner 4265
Ausbruch 4266
stands 4267
sli@@ 4268
Lau@@ 4269
ises 4270
ze@@ 4271
photo 4272
screen 4273
pre-@@ 4274
werfen 4275
seemed 4276
AL@@ 4277
Hauptstadt 4278
Hin@@ 4279
ward 4280
Although 4281
operation 4282
toward 4283
Hu@@ 4284
stoff@@ 4285
weise 4286
offering 4287
streets 4288
ends 4289
antwortete 4290
demokratischen 4291
by@@ 4292
43 4293
add 4294
Trump-@@ 4295
oh@@ 4296
powerful 4297
Great 4298
knows 4299
lebens@@ 4300
MPs 4301
26@@ 4302
Nick 4303
Their 4304
directly 4305
shares 4306
lit@@ 4307
gestorben 4308
ama 4309
cat@@ 4310
Other 4311
down@@ 4312
fun 4313
supply 4314
burg 4315
ious 4316
content 4317
stone 4318
Over 4319
Khan 4320
Business 4321
gives 4322
sy 4323
Gespräche 4324
ain 4325
Board 4326
whom 4327
Ansatz 4328
kündigte 4329
verfolgen 4330
Wi@@ 4331
Mil@@ 4332
pping 4333
drop 4334
becoming 4335
Vereinigte 4336
stopped 4337
itz@@ 4338
alongside 4339
zuerst 4340
Ihrer 4341
gun 4342
dad 4343
focused 4344
Vi@@ 4345
Museum 4346
ily 4347
links 4348
can@@ 4349
assi@@ 4350
-jährigen 4351
Aufmerksamkeit 4352
stimmen 4353
send 4354
Stre@@ 4355
non@@ 4356
Höhe 4357
injured 4358
caught 4359
reportedly 4360
Zentrum 4361
hair 4362
Markt@@ 4363
Davis 4364
veröffentlichte 4365
investors 4366
gesprochen 4367
Produktion 4368
dangerous 4369
Mur@@ 4370
Herausforderungen 4371
Tony 4372
rat 4373
green 4374
civil 4375
She@@ 4376
product 4377
eventually 4378
copyright 4379
pain 4380
committed 4381
Black@@ 4382
Gebäude 4383
impeachment 4384
verkaufen 4385
liefern 4386
decisions 4387
cle@@ 4388
hab@@ 4389
Boeing 4390
strategy 4391
Jordan 4392
herum 4393
Gespräch 4394
essential 4395
endes 4396
entlassen 4397
Kno@@ 4398
Op@@ 4399
herself 4400
untersuchen 4401
worse 4402
healthy 4403
ass 4404
National@@ 4405
Stadium 4406
clo@@ 4407
8-@@ 4408
respect 4409
vs 4410
fühle 4411
isen 4412
cy@@ 4413
sale 4414
owner 4415
credit 4416
card 4417
nahmen 4418
believes 4419
professor 4420
features 4421
scientists 4422
eyes 4423
quarantine 4424
erster 4425
Radio 4426
Distanzierung 4427
sol@@ 4428
drugs 4429
pres@@ 4430
Officer 4431
anna 4432
Nord@@ 4433
sign@@ 4434
placed 4435
lei@@ 4436
NSW 4437
eth@@ 4438
erinnern 4439
Mary 4440
waiting 4441
Houston 4442
Bürger 4443
ju@@ 4444
floor 4445
Lei@@ 4446
cars 4447
Häuser 4448
van 4449
denied 4450
infections 4451
learning 4452
äu@@ 4453
push 4454
Cam@@ 4455
bekam 4456
wär@@ 4457
Flug@@ 4458
starke 4459
cher@@ 4460
Andere 4461
Jungs 4462
trug 4463
angesichts 4464
finished 4465
46 4466
falls 4467
ha 4468
Verteidigung 4469
neuer 4470
tal@@ 4471
verb@@ 4472
resources 4473
afternoon 4474
brach 4475
Augen 4476
Gesch@@ 4477
ans@@ 4478
betroffen 4479
greater 4480
führer 4481
plane 4482
killing 4483
Kr@@ 4484
inf@@ 4485
schreiben 4486
lau@@ 4487
request 4488
schauen 4489
selling 4490
suffered 4491
fel@@ 4492
sted 4493
51 4494
Ohio 4495
exactly 4496
E-@@ 4497
stores 4498
warning 4499
lebt 4500
Telefon 4501
lernen 4502
ni@@ 4503
Stelle 4504
Aktivitäten 4505
foot 4506
Bau@@ 4507
Nicht 4508
stell@@ 4509
aufge@@ 4510
Selbst@@ 4511
regular 4512
Finale 4513
ongoing 4514
voller 4515
shire 4516
faces 4517
emotional 4518
schafts@@ 4519
Modi 4520
heiten 4521
head@@ 4522
wann 4523
ro 4524
Tages 4525
Meilen 4526
mussten 4527
Old 4528
Yet 4529
skin 4530
maybe 4531
girls 4532
treten 4533
arch@@ 4534
programme 4535
kal@@ 4536
Huawei 4537
sit 4538
52 4539
elling 4540
Bank@@ 4541
traditional 4542
infected 4543
sey 4544
Meinung 4545
chinesische 4546
rich 4547
voice 4548
Masken 4549
reasons 4550
Canada 4551
ming 4552
Ärzte 4553
hospitals 4554
Santa 4555
Director 4556
Geschichten 4557
Generation 4558
Res@@ 4559
fli@@ 4560
ch-@@ 4561
progress 4562
entdeckt 4563
Sur@@ 4564
beschrieb 4565
globale 4566
schlecht 4567
sea 4568
mt 4569
Putin 4570
separate 4571
lieben 4572
Pri@@ 4573
tungen 4574
zed 4575
YouTube 4576
direct 4577
vulnerable 4578
liegen 4579
wies 4580
dia 4581
ai@@ 4582
revenue 4583
cy 4584
ev@@ 4585
internationale 4586
Angebot 4587
Arbeitsplätze 4588
Stunde 4589
los@@ 4590
Fotos 4591
blu@@ 4592
managed 4593
Tim 4594
definitely 4595
fol@@ 4596
nature 4597
chs 4598
Inc 4599
ind@@ 4600
Mueller 4601
Debatte 4602
governments 4603
Shar@@ 4604
Western 4605
losen 4606
Because 4607
kosten 4608
Beitrag 4609
camera 4610
zumindest 4611
individuals 4612
ces 4613
Pat@@ 4614
Kl@@ 4615
Al 4616
wit@@ 4617
sel 4618
lie@@ 4619
Sun@@ 4620
professional 4621
benefit 4622
overall 4623
ites 4624
married 4625
digen 4626
Who 4627
enthüllte 4628
wed 4629
equipment 4630
spar@@ 4631
largely 4632
Chinas 4633
entweder 4634
tour 4635
Pennsylvania 4636
ple@@ 4637
email 4638
ba 4639
gung 4640
Patrick 4641
zurückzu@@ 4642
Mis@@ 4643
double 4644
ausgesetzt 4645
gef@@ 4646
trust 4647
clearly 4648
Gebiet 4649
reduzieren 4650
Services 4651
heißt 4652
Teile 4653
entschieden 4654
Christian 4655
ion@@ 4656
na 4657
Simon 4658
restaurant 4659
Miami 4660
Afghanistan 4661
train 4662
Verantwortung 4663
effects 4664
Frank 4665
shut 4666
Kal@@ 4667
Hoch@@ 4668
difference 4669
igkeit 4670
Glück 4671
science 4672
fälle 4673
dy@@ 4674
ser 4675
gan@@ 4676
Änderungen 4677
km 4678
mask 4679
Mag@@ 4680
bringing 4681
new@@ 4682
gaben 4683
Version 4684
Van 4685
treated 4686
gebeten 4687
restaurants 4688
weißen 4689
untersucht 4690
bal@@ 4691
simple 4692
lag 4693
eye 4694
aring 4695
Na@@ 4696
j 4697
weiterer 4698
vision 4699
sobald 4700
Italien 4701
warnte 4702
S-@@ 4703
hopes 4704
Rede 4705
defense 4706
owners 4707
ush@@ 4708
ß 4709
aut 4710
Berichte 4711
Management 4712
Operation 4713
Ja 4714
Celtic 4715
fühlt 4716
first-@@ 4717
Boston 4718
genannt 4719
hervor@@ 4720
2007 4721
gabe 4722
liebe 4723
ame 4724
patient 4725
Geschäfte 4726
aufzu@@ 4727
allegations 4728
iel@@ 4729
Darüber 4730
college 4731
mass 4732
yesterday 4733
fresh 4734
carried 4735
scale 4736
Autos 4737
Wh@@ 4738
Luft 4739
ER@@ 4740
erforderlich 4741
linked 4742
absolutely 4743
Time 4744
ini 4745
strike 4746
,000 4747
raise 4748
vehicle 4749
hot 4750
serv@@ 4751
run@@ 4752
Ebene 4753
driver 4754
Regierungen 4755
Ausbreitung 4756
district 4757
Nachfrage 4758
Whit@@ 4759
Brian 4760
Chancen 4761
highly 4762
IS 4763
Tar@@ 4764
ined 4765
respond 4766
ABC 4767
ala 4768
ands 4769
Instead 4770
Kunst@@ 4771
rief 4772
ath 4773
broke 4774
speed 4775
1,000 4776
spiel@@ 4777
Palace 4778
jo@@ 4779
außer 4780
Jim 4781
speaking 4782
mid-@@ 4783
stellung 4784
gten 4785
Zusammenarbeit 4786
Cro@@ 4787
page 4788
missed 4789
Fed 4790
Like 4791
standards 4792
san@@ 4793
wel@@ 4794
retten 4795
Parliament 4796
überprüfen 4797
male 4798
subject 4799
jemanden 4800
ye@@ 4801
seat 4802
,@@ 4803
Life 4804
Hände 4805
recovery 4806
ander@@ 4807
Handel 4808
score 4809
television 4810
Air@@ 4811
Senat 4812
activities 4813
wy@@ 4814
Fußball 4815
tim@@ 4816
books 4817
fund 4818
II 4819
de-@@ 4820
53 4821
Marke 4822
Sarah 4823
Wohn@@ 4824
specific 4825
Han@@ 4826
uss 4827
starten 4828
Lam@@ 4829
song 4830
intelligence 4831
carry 4832
Unter 4833
3. 4834
markt 4835
Kommentare 4836
heavy 4837
staatlichen 4838
Young 4839
amed 4840
Wettbewerb 4841
Andy 4842
wave 4843
urged 4844
eher 4845
nannte 4846
debt 4847
Parteien 4848
squ@@ 4849
bury 4850
ition 4851
block 4852
note 4853
Rückgang 4854
twice 4855
filed 4856
Kredit@@ 4857
brain 4858
enthalten 4859
lived 4860
sterben 4861
lands 4862
deb@@ 4863
befinden 4864
SE@@ 4865
Barcelona 4866
alität 4867
signs 4868
inst@@ 4869
Singh 4870
medizinische 4871
Niveau 4872
hö@@ 4873
Spain 4874
Rat 4875
erzählte 4876
language 4877
Pas@@ 4878
lat@@ 4879
ter-@@ 4880
hasn 4881
mil@@ 4882
dge 4883
rooms 4884
housing 4885
itation 4886
ete 4887
ham@@ 4888
00@@ 4889
gelegt 4890
ersch@@ 4891
deliver 4892
NBA 4893
Gri@@ 4894
Gl@@ 4895
search 4896
Mangel 4897
gesamte 4898
ola 4899
stein 4900
potentially 4901
hörte 4902
g-@@ 4903
Wieder@@ 4904
material 4905
Fernseh@@ 4906
offensichtlich 4907
prepared 4908
modern 4909
erzählt 4910
2000 4911
gefangen 4912
LA 4913
fellow 4914
kin 4915
gestiegen 4916
Bruder 4917
De 4918
delivery 4919
Sho@@ 4920
Monats 4921
Saudi 4922
Graham 4923
views 4924
happens 4925
früh 4926
reichen 4927
Game 4928
alism 4929
Jungen 4930
erscheinen 4931
hy@@ 4932
Publikum 4933
Tottenham 4934
prä@@ 4935
grow 4936
Year 4937
hohen 4938
Trotz 4939
nieder@@ 4940
Company 4941
banks 4942
lers 4943
Dan@@ 4944
Live 4945
zurückkehren 4946
rain 4947
providing 4948
mostly 4949
The@@ 4950
fort@@ 4951
gearbeitet 4952
Dam@@ 4953
verfügbar 4954
Turkey 4955
dic@@ 4956
Million 4957
vin 4958
Abgeordneten 4959
kaum 4960
150 4961
lungen 4962
Epstein 4963
lic@@ 4964
sitting 4965
serving 4966
unt 4967
ures 4968
funktioniert 4969
port 4970
ize 4971
mittel 4972
starts 4973
kar@@ 4974
stat@@ 4975
sive 4976
verdienen 4977
Bloomberg 4978
crowd 4979
Bra@@ 4980
Prinz 4981
Vol@@ 4982
ppen 4983
Verletzungen 4984
alis@@ 4985
inger 4986
changing 4987
wichtigsten 4988
groß 4989
ide 4990
ski 4991
setting 4992
sky 4993
ür@@ 4994
wenden 4995
Jersey 4996
WHO 4997
yourself 4998
une 4999
hoffen 5000
Sand@@ 5001
Mi@@ 5002
nuclear 5003
ille 5004
FILE 5005
40@@ 5006
voted 5007
genießen 5008
upon 5009
54 5010
DE@@ 5011
hur@@ 5012
Militär@@ 5013
gene 5014
Kur@@ 5015
injuries 5016
FBI 5017
ella 5018
Agency 5019
Festival 5020
fac@@ 5021
wirtschaftliche 5022
Sim@@ 5023
low@@ 5024
Leiter 5025
verließ 5026
Sc@@ 5027
56 5028
Politiker 5029
north 5030
Klage 5031
selbst@@ 5032
p-@@ 5033
elled 5034
Best 5035
bid 5036
ado 5037
ington 5038
ater 5039
absolut 5040
Arbeit@@ 5041
Blue 5042
morgen 5043
gruppe 5044
stolz 5045
passengers 5046
Besch@@ 5047
lässt 5048
ativen 5049
anzu@@ 5050
bei@@ 5051
rie@@ 5052
Wirtschafts@@ 5053
800 5054
ech@@ 5055
-up 5056
Verbrechen 5057
rent 5058
ona 5059
Senior 5060
ordered 5061
On@@ 5062
responsibility 5063
Good 5064
vel@@ 5065
fired 5066
Co-@@ 5067
haft 5068
hoch@@ 5069
lawyer 5070
Energie 5071
ned 5072
estimated 5073
vollen 5074
Dienstleistungen 5075
tweet 5076
mi@@ 5077
möchten 5078
meaning 5079
beautiful 5080
Hamilton 5081
alismus 5082
refused 5083
announcement 5084
Ty@@ 5085
Schritte 5086
Prä@@ 5087
raum 5088
Little 5089
Rom@@ 5090
übernehmen 5091
Barr 5092
Wort 5093
Val@@ 5094
mes 5095
struggling 5096
8,@@ 5097
owned 5098
Plattform 5099
secure 5100
Si@@ 5101
Stra@@ 5102
Licht 5103
bekämpfen 5104
yes 5105
finding 5106
remained 5107
Market 5108
Lord 5109
Studien 5110
zes 5111
beitragen 5112
rau@@ 5113
sources 5114
Grenzen 5115
Labour-@@ 5116
increasing 5117
tt 5118
Pompeo 5119
legislation 5120
Rich@@ 5121
Rep. 5122
vorbei 5123
pal@@ 5124
q@@ 5125
äl@@ 5126
59 5127
Tom@@ 5128
höher 5129
wa 5130
colleagues 5131
Stück 5132
tru@@ 5133
hilft 5134
council 5135
wers 5136
onto 5137
bot 5138
Bir@@ 5139
produce 5140
ße 5141
mobile 5142
Gold 5143
Dan 5144
swe@@ 5145
Quarantäne 5146
writer 5147
Gegensatz 5148
1.000 5149
Reporting 5150
Guardian 5151
ping 5152
severe 5153
increasingly 5154
schuldig 5155
Cap@@ 5156
arm 5157
Lockdowns 5158
gain 5159
declared 5160
yl@@ 5161
Freunden 5162
cli@@ 5163
Zum 5164
geöffnet 5165
feature 5166
facilities 5167
Louis 5168
projects 5169
imm@@ 5170
Beijing 5171
Blu@@ 5172
yards 5173
boss 5174
Möglichkeiten 5175
scheme 5176
Klasse 5177
Wuhan 5178
ture 5179
Vice 5180
miss 5181
guilty 5182
Investitionen 5183
Live-@@ 5184
aks 5185
island 5186
guard 5187
Wei@@ 5188
2. 5189
image 5190
drängen 5191
ermöglicht 5192
kor@@ 5193
Sor@@ 5194
ita 5195
früheren 5196
extremely 5197
scheinen 5198
OK 5199
Rekord 5200
entschied 5201
bling 5202
ek 5203
domin@@ 5204
Kn@@ 5205
vorher@@ 5206
slow 5207
clu@@ 5208
zunächst 5209
happening 5210
declined 5211
cal@@ 5212
ith 5213
einzigen 5214
beobachten 5215
akes 5216
broken 5217
begannen 5218
sound 5219
ierungs@@ 5220
Minnesota 5221
attorney 5222
ierter 5223
UPI 5224
9,@@ 5225
BJP 5226
ard@@ 5227
Vegas 5228
victim 5229
sam 5230
tier@@ 5231
verfügt 5232
backed 5233
rei@@ 5234
animals 5235
lich@@ 5236
Lösung 5237
Mul@@ 5238
Q 5239
episode 5240
risks 5241
ony 5242
hu@@ 5243
Fußball@@ 5244
finish 5245
approved 5246
protection 5247
4. 5248
novel 5249
9-@@ 5250
57 5251
Symptome 5252
Once 5253
Beschränkungen 5254
discovered 5255
Notwendigkeit 5256
MORE 5257
voll@@ 5258
LA@@ 5259
audience 5260
vice 5261
advantage 5262
removed 5263
Bernie 5264
hr 5265
5. 5266
58 5267
sons 5268
Z 5269
nte 5270
bn 5271
orders 5272
records 5273
popul@@ 5274
Neil 5275
cked 5276
Dun@@ 5277
lots 5278
sy@@ 5279
itäten 5280
relief 5281
gerne 5282
pool 5283
ap 5284
arms 5285
geln 5286
port@@ 5287
guy 5288
nice 5289
Mid@@ 5290
bers 5291
aging 5292
rück@@ 5293
fish 5294
alternative 5295
Speaking 5296
Agentur 5297
maßnahmen 5298
Social 5299
famous 5300
draw 5301
Ball@@ 5302
fashion 5303
covered 5304
unable 5305
ag 5306
N.@@ 5307
develop 5308
ruling 5309
us-@@ 5310
LE@@ 5311
standard 5312
pul@@ 5313
arrest 5314
bing 5315
kul@@ 5316
cells 5317
Schlüssel@@ 5318
zeigten 5319
allowing 5320
session 5321
Urteil 5322
elected 5323
sitzen 5324
schön 5325
tigt 5326
weiteres 5327
ITV 5328
29@@ 5329
touch 5330
son@@ 5331
dark 5332
Atlanta 5333
introduced 5334
long-term 5335
Schiff 5336
US-Dollar 5337
ake 5338
lock 5339
tional 5340
kur@@ 5341
wan 5342
ri 5343
eng 5344
democracy 5345
ji 5346
doubt 5347
Mission 5348
aden 5349
reporting 5350
amen 5351
construction 5352
Vis@@ 5353
gefragt 5354
enjoy 5355
Cho@@ 5356
ici@@ 5357
Schw@@ 5358
proud 5359
Es@@ 5360
Kat@@ 5361
produced 5362
art@@ 5363
Heute 5364
measure 5365
Lake 5366
willing 5367
Gold@@ 5368
appeal 5369
learned 5370
pur@@ 5371
proposed 5372
vol@@ 5373
Irish 5374
responded 5375
post-@@ 5376
staatliche 5377
Murray 5378
Nations 5379
ände 5380
Administration 5381
Tory 5382
Reportern 5383
ktion@@ 5384
DC 5385
Do 5386
ME@@ 5387
th-@@ 5388
Pil@@ 5389
Kre@@ 5390
aker 5391
tsch@@ 5392
vierten 5393
Justin 5394
flights 5395
sle@@ 5396
pro-@@ 5397
Rad@@ 5398
ous@@ 5399
Amy 5400
nar@@ 5401
require 5402
J. 5403
Fire 5404
ga 5405
guys 5406
sister 5407
and-@@ 5408
work@@ 5409
isiert 5410
appearance 5411
aries 5412
Feld 5413
verlor 5414
kes 5415
wären 5416
wins 5417
Veränderungen 5418
micro@@ 5419
Nieder@@ 5420
angenommen 5421
Bühne 5422
count 5423
2005 5424
Cle@@ 5425
cking 5426
ust 5427
opportunities 5428
voraussichtlich 5429
demokratische 5430
erinnert 5431
gewählt 5432
seite 5433
amb@@ 5434
Let 5435
Ross 5436
erklären 5437
seek 5438
defeat 5439
leisten 5440
Ly@@ 5441
Der@@ 5442
ton@@ 5443
Schuss 5444
bought 5445
Personal 5446
Nu@@ 5447
sau@@ 5448
existing 5449
conversation 5450
ements 5451
bezahlen 5452
rein@@ 5453
flu@@ 5454
privaten 5455
Three 5456
Königin 5457
alist 5458
Sorgen 5459
istischen 5460
Eric 5461
Pence 5462
Stars 5463
Labor 5464
5,000 5465
sun@@ 5466
Themen 5467
wichtiger 5468
spokesperson 5469
suggests 5470
university 5471
fy 5472
documents 5473
Europäischen 5474
za 5475
MEHR 5476
fication 5477
Phase 5478
Tweet 5479
Grenz@@ 5480
zing 5481
Weihnachts@@ 5482
kers 5483
syn@@ 5484
ron 5485
2006 5486
exc@@ 5487
Food 5488
feiern 5489
gebaut 5490
paying 5491
Fran@@ 5492
Ta@@ 5493
operating 5494
Sitz 5495
governor 5496
vari@@ 5497
Rechte 5498
Niederlage 5499
amazing 5500
öffentlich 5501
cke 5502
elles 5503
blieb 5504
lag@@ 5505
jüngste 5506
201@@ 5507
items 5508
Sie@@ 5509
Worte 5510
experienced 5511
ST@@ 5512
Awards 5513
cuts 5514
pushed 5515
Infektionen 5516
weisen 5517
armed 5518
lesen 5519
Zeichen 5520
Sil@@ 5521
damals 5522
ffen 5523
Größe 5524
transfer 5525
tells 5526
lock@@ 5527
ras@@ 5528
River 5529
Tal@@ 5530
unden 5531
erk@@ 5532
Miller 5533
user 5534
Öl@@ 5535
stellten 5536
größere 5537
raten 5538
shops 5539
worried 5540
medizinischen 5541
Zealand 5542
truth 5543
giant 5544
handelt 5545
Amt 5546
May@@ 5547
süd@@ 5548
eat 5549
ase 5550
richtigen 5551
starken 5552
Videos 5553
Tor 5554
chairman 5555
Ret@@ 5556
younger 5557
ail 5558
spring 5559
bestimmte 5560
balance 5561
len@@ 5562
Sou@@ 5563
mark@@ 5564
wider 5565
frag@@ 5566
werk 5567
Ressourcen 5568
long-@@ 5569
fs 5570
es-@@ 5571
erfolgreich 5572
Series 5573
tiv@@ 5574
Fel@@ 5575
leiten 5576
atten@@ 5577
itäts@@ 5578
Weihnachten 5579
doctor 5580
breaking 5581
Pressekonferenz 5582
play@@ 5583
Post@@ 5584
Mitarbeitern 5585
ills 5586
rally 5587
wards 5588
hohe 5589
schloss 5590
ähnliche 5591
pi@@ 5592
Dallas 5593
Allerdings 5594
Grundlage 5595
ierenden 5596
pan@@ 5597
Henry 5598
Off@@ 5599
Wisconsin 5600
poll 5601
20-@@ 5602
grew 5603
arbeit 5604
mei@@ 5605
Gesamt@@ 5606
My@@ 5607
Jahrzehnten 5608
europäischen 5609
Tru@@ 5610
ight 5611
photos 5612
Before 5613
gold 5614
sahen 5615
supported 5616
accounts 5617
creating 5618
Bob 5619
bestimmten 5620
fördern 5621
Bis 5622
FA 5623
Wer 5624
God 5625
Drogen@@ 5626
Kritik 5627
großes 5628
Vielleicht 5629
Spiels 5630
fordert 5631
Jr 5632
Ziele 5633
läuft 5634
tigkeit 5635
McConnell 5636
birth 5637
App@@ 5638
Kultur 5639
verbringen 5640
New@@ 5641
Met@@ 5642
ough 5643
TV-@@ 5644
Türkei 5645
Ali 5646
Bowl 5647
neten 5648
Wahrheit 5649
Sonne 5650
Ford 5651
politicians 5652
dienste 5653
Teilen 5654
verfolgt 5655
Syria 5656
squad 5657
debut 5658
stuff 5659
ante 5660
ep 5661
Jonathan 5662
Ob@@ 5663
Your 5664
tz 5665
stes 5666
ump@@ 5667
findet 5668
bigger 5669
insurance 5670
ign@@ 5671
low-@@ 5672
influence 5673
Cur@@ 5674
clean 5675
Ges@@ 5676
trading 5677
CDC 5678
drama 5679
Gewinner 5680
vehicles 5681
whatever 5682
Mand@@ 5683
isierung 5684
regional 5685
moder@@ 5686
enforcement 5687
lige 5688
ata 5689
core 5690
85 5691
hoffe 5692
initially 5693
Ol@@ 5694
ov@@ 5695
tors 5696
names 5697
richtige 5698
Offiziere 5699
zw@@ 5700
tens 5701
han 5702
trägt 5703
dig 5704
walking 5705
promised 5706
Notfall@@ 5707
lim@@ 5708
distance 5709
cer@@ 5710
alle@@ 5711
Steven 5712
R-@@ 5713
Gerichts@@ 5714
Under 5715
Mau@@ 5716
roll 5717
struck 5718
erst@@ 5719
organization 5720
plenty 5721
Anderson 5722
benötigen 5723
sag@@ 5724
Jason 5725
easily 5726
E-Mail 5727
Ankündigung 5728
Fal@@ 5729
loan 5730
offen@@ 5731
makers 5732
studies 5733
utes 5734
part@@ 5735
Watch 5736
Basis 5737
crash 5738
tlich 5739
FC 5740
Rose 5741
suit 5742
images 5743
Dre@@ 5744
ids 5745
SP@@ 5746
toll 5747
Da@@ 5748
assen 5749
iPhone 5750
bau@@ 5751
aktuelle 5752
bit@@ 5753
Hunderte 5754
sleep 5755
Roberts 5756
tag@@ 5757
location 5758
ko 5759
ungsp@@ 5760
sil@@ 5761
VI@@ 5762
SA@@ 5763
helps 5764
verdient 5765
yst@@ 5766
ierende 5767
ences 5768
rou@@ 5769
Yards 5770
Trust 5771
chain 5772
Cl@@ 5773
criticism 5774
oms 5775
tran@@ 5776
wachsen 5777
Control 5778
champion 5779
complex 5780
dollars 5781
ession 5782
Bildung 5783
bert 5784
liert 5785
'I 5786
cas@@ 5787
sou@@ 5788
Ti@@ 5789
ax@@ 5790
mus@@ 5791
album 5792
Ren@@ 5793
seats 5794
gerufen 5795
Sinn 5796
lab@@ 5797
test@@ 5798
Earth 5799
Pause 5800
reagieren 5801
entlang 5802
tik@@ 5803
31. 5804
zo@@ 5805
führung 5806
analysis 5807
ols 5808
konzentriert 5809
person@@ 5810
5.000 5811
dienst 5812
med 5813
Human 5814
Rücken 5815
atory 5816
ink 5817
gol@@ 5818
suggest 5819
ES@@ 5820
tigung 5821
Truppen 5822
wunder@@ 5823
parliament 5824
Wol@@ 5825
Law 5826
cold 5827
stattfinden 5828
Ban@@ 5829
Moore 5830
Joseph 5831
Lives 5832
Foreign 5833
ong@@ 5834
wan@@ 5835
yo@@ 5836
Reisen 5837
enthüllt 5838
spro@@ 5839
unglaublich 5840
smaller 5841
et-@@ 5842
verpflichtet 5843
einge@@ 5844
ron@@ 5845
2003 5846
betrachten 5847
rare 5848
nation@@ 5849
Trump-Regierung 5850
agree 5851
initial 5852
Liber@@ 5853
CNBC 5854
Natur 5855
Me 5856
PC 5857
ison 5858
Microsoft 5859
ells 5860
Firma 5861
Las 5862
Ca@@ 5863
lichkeiten 5864
20. 5865
gleichzeitig 5866
repeatedly 5867
Verletzung 5868
Pi@@ 5869
Nar@@ 5870
abgeschlossen 5871
internet 5872
cho@@ 5873
Haw@@ 5874
lets 5875
sick 5876
videos 5877
ER 5878
ken@@ 5879
sets 5880
Medien@@ 5881
Gesetzgeber 5882
jährigen 5883
Haup@@ 5884
gleich@@ 5885
organisation 5886
Ian 5887
Straßen@@ 5888
seriously 5889
sees 5890
beschäftigt 5891
Nein 5892
miss@@ 5893
Macron 5894
kümmern 5895
reduced 5896
iers 5897
Mail 5898
Alexander 5899
accept 5900
U-@@ 5901
Colorado 5902
Philadelphia 5903
heits@@ 5904
crew 5905
Unterschied 5906
Schwester 5907
Berater 5908
matches 5909
persönlichen 5910
Ker@@ 5911
bessere 5912
Bus@@ 5913
Groß@@ 5914
Flugzeug 5915
700 5916
dritte 5917
freedom 5918
Bord 5919
ligen 5920
tournament 5921
ther 5922
Hon@@ 5923
High@@ 5924
erneut 5925
Bar 5926
extreme 5927
x-@@ 5928
gemeldet 5929
Weiße 5930
remaining 5931
Gol@@ 5932
Ex-@@ 5933
sharing 5934
conflict 5935
bezahlt 5936
industrie 5937
12-@@ 5938
Vorsitzende 5939
L.A. 5940
geteilt 5941
ized 5942
elten 5943
Nachrichten@@ 5944
understanding 5945
suffering 5946
decide 5947
warm 5948
Folgen 5949
equ@@ 5950
boys 5951
eröffnet 5952
maker 5953
Brit@@ 5954
inj@@ 5955
Abteilung 5956
heat 5957
platz 5958
limit 5959
commercial 5960
blue 5961
Green@@ 5962
boost 5963
isieren 5964
gesetz@@ 5965
bo 5966
backs 5967
wind 5968
tot 5969
I-@@ 5970
mum 5971
ki 5972
choose 5973
returning 5974
sought 5975
davor 5976
Umfragen 5977
verändert 5978
stei@@ 5979
Fu@@ 5980
exercise 5981
pulled 5982
path 5983
72 5984
storm 5985
ty@@ 5986
hung 5987
legte 5988
assault 5989
reich@@ 5990
ards 5991
quick 5992
Restaurant 5993
cra@@ 5994
ungsbe@@ 5995
species 5996
Aktivisten 5997
Lady 5998
allows 5999
psych@@ 6000
Ali@@ 6001
wirk@@ 6002
winter 6003
Unterstützer 6004
North@@ 6005
int 6006
Morning 6007
ries 6008
Every 6009
south 6010
mus 6011
persönliche 6012
Film@@ 6013
Golden 6014
the-@@ 6015
Investoren 6016
identifiziert 6017
Fac@@ 6018
Obersten 6019
Kam@@ 6020
angeboten 6021
p.m 6022
exp@@ 6023
kti@@ 6024
auen 6025
ining 6026
apart 6027
Diego 6028
Tür 6029
or-@@ 6030
Veröffentlichung 6031
supporting 6032
teil@@ 6033
fears 6034
wiederholt 6035
Fur@@ 6036
senden 6037
ey@@ 6038
lin 6039
Szene 6040
Josh 6041
presence 6042
Wer@@ 6043
Spo@@ 6044
failure 6045
thanks 6046
partners 6047
Its 6048
Nik@@ 6049
Modell 6050
2001 6051
surprise 6052
daher 6053
tigte 6054
Name 6055
_ 6056
shift 6057
lagen 6058
tief 6059
stattdessen 6060
allegedly 6061
Pul@@ 6062
Besitzer 6063
unseres 6064
enthält 6065
achten 6066
church 6067
About 6068
well-@@ 6069
lief 6070
bru@@ 6071
moments 6072
ca@@ 6073
wichtigen 6074
Jahrzehnt 6075
notwendig 6076
gruppen 6077
weit@@ 6078
Alles 6079
Asia 6080
extended 6081
unique 6082
camp 6083
traffic 6084
cool 6085
larger 6086
infrastructure 6087
survey 6088
sanctions 6089
solution 6090
Earlier 6091
but@@ 6092
Fähigkeiten 6093
Stand@@ 6094
aps 6095
Jahrhundert 6096
Fund 6097
Jeff 6098
Lab@@ 6099
Massen@@ 6100
expressed 6101
Geld@@ 6102
ats@@ 6103
Option 6104
Channel 6105
stimmte 6106
window 6107
dist@@ 6108
15. 6109
ache 6110
turning 6111
lawmakers 6112
wedding 6113
bottom 6114
tan@@ 6115
ade@@ 6116
ener 6117
shots 6118
liber@@ 6119
Jun@@ 6120
Jamie 6121
entfernen 6122
Quellen 6123
messages 6124
stic 6125
discuss 6126
überall 6127
Minute 6128
Lehrer 6129
Sy@@ 6130
Coast 6131
bestand 6132
Beste 6133
pose 6134
tex@@ 6135
Football 6136
Championship 6137
Bat@@ 6138
violent 6139
NE@@ 6140
ening 6141
ishing 6142
wen@@ 6143
ful@@ 6144
provides 6145
Uber 6146
delivered 6147
iere 6148
Künstler 6149
istische 6150
Army 6151
ians 6152
spe@@ 6153
bus 6154
Sept 6155
Community 6156
lied 6157
environmental 6158
russischen 6159
Former 6160
Academy 6161
filled 6162
Bridge 6163
Tesla 6164
NBC 6165
aussehen 6166
Teenager 6167
ön@@ 6168
Arbeitnehmer 6169
Schwierigkeiten 6170
ckte 6171
firms 6172
iled 6173
ks@@ 6174
footage 6175
11. 6176
Oregon 6177
dungen 6178
kennen 6179
GB 6180
gri@@ 6181
circumstances 6182
holen 6183
Sex 6184
techn@@ 6185
Sto@@ 6186
troops 6187
Son@@ 6188
airport 6189
yan 6190
mü@@ 6191
üt@@ 6192
dance 6193
ministers 6194
Dienst 6195
Zuschauer 6196
payments 6197
Ris@@ 6198
Or 6199
Up 6200
Vorschlag 6201
wish 6202
Preise 6203
mut@@ 6204
CA 6205
Ba@@ 6206
0.000 6207
racism 6208
wahr 6209
Gerichtshof 6210
Preis@@ 6211
Berichten 6212
suspended 6213
großartig 6214
Fest@@ 6215
geh@@ 6216
sec@@ 6217
fügt 6218
Insel 6219
Finanzierung 6220
Vorteile 6221
Ran@@ 6222
dest@@ 6223
trifft 6224
display 6225
Rock 6226
Fernsehen 6227
acts 6228
2004 6229
Sonnen@@ 6230
harte 6231
Mun@@ 6232
four-@@ 6233
äm@@ 6234
degree 6235
itive 6236
cs 6237
aming 6238
ram@@ 6239
dienen 6240
sta@@ 6241
rely 6242
grün@@ 6243
rac@@ 6244
bedeuten 6245
immigration 6246
erg@@ 6247
ium 6248
films 6249
Covid-19-@@ 6250
Bei@@ 6251
county 6252
kill 6253
unlikely 6254
wick 6255
determined 6256
sites 6257
ständig 6258
weren 6259
guidelines 6260
emerged 6261
ie-@@ 6262
unver@@ 6263
Journal 6264
Spielern 6265
Mak@@ 6266
handeln 6267
irgendwie 6268
tiges 6269
journey 6270
chair 6271
transport 6272
Angaben 6273
stood 6274
Dame 6275
Theresa 6276
weitgehend 6277
versuchten 6278
Wohnung 6279
Crown 6280
ebenso 6281
cour@@ 6282
facility 6283
Internet 6284
at-@@ 6285
sup@@ 6286
Tim@@ 6287
eingeführt 6288
Jan@@ 6289
apply 6290
tierten 6291
Barack 6292
Hongkong 6293
tons 6294
Roll@@ 6295
zeiten 6296
Allen 6297
Care 6298
conc@@ 6299
bodies 6300
conducted 6301
Yorker 6302
Partei@@ 6303
fall@@ 6304
reopen 6305
Bow@@ 6306
fung 6307
ome@@ 6308
acted 6309
argued 6310
hoping 6311
öl@@ 6312
developing 6313
krank 6314
hän@@ 6315
Strategie 6316
essi@@ 6317
50.000 6318
picked 6319
Gary 6320
Bru@@ 6321
Mittel 6322
10. 6323
closer 6324
Zwischenzeit 6325
zweimal 6326
verbracht 6327
expert 6328
bekommt 6329
reading 6330
Rau@@ 6331
Square 6332
let@@ 6333
Bolton 6334
Galaxy 6335
19. 6336
inner 6337
nearby 6338
Spanien 6339
wild 6340
dan@@ 6341
Well 6342
visitors 6343
0,000 6344
eri@@ 6345
Demokratie 6346
Früh@@ 6347
immediate 6348
Mus@@ 6349
goods 6350
beschlossen 6351
fal@@ 6352
ops 6353
fifth 6354
dru@@ 6355
Christ@@ 6356
phase 6357
ultimately 6358
shopping 6359
Lauf 6360
yard 6361
pointed 6362
cro@@ 6363
sicher@@ 6364
Kirche 6365
leaves 6366
singer 6367
Beide 6368
Aufgabe 6369
Only 6370
artist 6371
Schn@@ 6372
warf 6373
Städte 6374
Pet@@ 6375
Hunter 6376
Band 6377
ss 6378
Ministry 6379
Buttigieg 6380
geworfen 6381
ped 6382
alter 6383
Zusammen@@ 6384
buying 6385
schlechte 6386
Manhattan 6387
lehnte 6388
Journalisten 6389
Optionen 6390
Democrat 6391
McC@@ 6392
established 6393
dur@@ 6394
Farbe 6395
Urlaub 6396
Episode 6397
Morrison 6398
endete 6399
Pacific 6400
gem 6401
aufgefordert 6402
indi@@ 6403
phones 6404
Matter 6405
Körper@@ 6406
Leicester 6407
üh@@ 6408
Tab@@ 6409
Mittel@@ 6410
6. 6411
welcome 6412
Erde 6413
guter 6414
ological 6415
decken 6416
Reserve 6417
Newcastle 6418
inquiry 6419
tend 6420
Can 6421
spr@@ 6422
gebrochen 6423
treat 6424
Italian 6425
dem@@ 6426
64 6427
Realität 6428
everybody 6429
Long 6430
REUTERS 6431
ct 6432
fuel 6433
Still 6434
Ausgaben 6435
Schauspielerin 6436
mögliche 6437
Alabama 6438
prove 6439
Ag@@ 6440
Analyse 6441
heben 6442
Gegner 6443
itor 6444
defence 6445
findings 6446
Außen@@ 6447
Freundin 6448
Wat@@ 6449
arbeit@@ 6450
completed 6451
unc@@ 6452
located 6453
eingereicht 6454
eating 6455
Gerechtigkeit 6456
alls 6457
kr@@ 6458
adults 6459
favourite 6460
bemerkte 6461
olog@@ 6462
ny 6463
neuesten 6464
write 6465
Gas@@ 6466
sion@@ 6467
burn 6468
erlebt 6469
Cameron 6470
becomes 6471
relevant 6472
Lie@@ 6473
unemployment 6474
Ash@@ 6475
schlag 6476
gate 6477
-based 6478
Afrika 6479
MA@@ 6480
eck 6481
ush 6482
TO@@ 6483
referendum 6484
spät 6485
Nancy 6486
Besuch 6487
Southern 6488
üsse 6489
Yes 6490
UN 6491
echte 6492
spre@@ 6493
chung 6494
ular 6495
Einer 6496
Kanada 6497
TikTok 6498
ine@@ 6499
hurt 6500
Osten 6501
listen 6502
Queensland 6503
tier 6504
healthcare 6505
Pra@@ 6506
linie 6507
Dennoch 6508
Industrie 6509
Drittel 6510
recht@@ 6511
Gil@@ 6512
ual 6513
intensi@@ 6514
second-@@ 6515
liz@@ 6516
tigten 6517
7. 6518
Euro 6519
weiße 6520
collection 6521
Klimawandel 6522
Engagement 6523
MA 6524
Social-Media-@@ 6525
stated 6526
Mexiko 6527
Schl@@ 6528
tar@@ 6529
ffs 6530
Geist 6531
oul@@ 6532
Conservative 6533
Roman 6534
zen@@ 6535
val@@ 6536
polls 6537
alisierung 6538
stress 6539
Stadt@@ 6540
Ni@@ 6541
plastic 6542
inspired 6543
ened 6544
Le 6545
acking 6546
familiar 6547
Box 6548
aircraft 6549
solchen 6550
Angelegenheit 6551
zug 6552
gesunken 6553
vely 6554
Kritiker 6555
Opposition 6556
diskutieren 6557
carbon 6558
regelmäßig 6559
ör@@ 6560
surgery 6561
Ja@@ 6562
programs 6563
Arzt 6564
Les@@ 6565
Walker 6566
birthday 6567
umfasst 6568
Collins 6569
eigenes 6570
opp@@ 6571
Rem@@ 6572
royal 6573
NS@@ 6574
OR@@ 6575
Photo 6576
bon@@ 6577
Gastgeber 6578
slightly 6579
ins@@ 6580
Cel@@ 6581
easier 6582
Ten@@ 6583
Rassismus 6584
negotiations 6585
ston 6586
Indi@@ 6587
Oxford 6588
Law@@ 6589
herunter@@ 6590
Massachusetts 6591
endlich 6592
Sprache 6593
anda 6594
gelernt 6595
schließt 6596
doors 6597
mögen 6598
töten 6599
respon@@ 6600
unit 6601
exchange 6602
Natürlich 6603
ity-@@ 6604
ologie 6605
commitment 6606
Rivalen 6607
Project 6608
stau@@ 6609
zul@@ 6610
remove 6611
schlägt 6612
führten 6613
30. 6614
agencies 6615
lösen 6616
Nutzer 6617
heit@@ 6618
widely 6619
drivers 6620
ücken 6621
consumers 6622
Männern 6623
egal 6624
kno@@ 6625
ome 6626
Selbst 6627
9. 6628
watched 6629
fun@@ 6630
Gegen@@ 6631
Behauptungen 6632
lö@@ 6633
Volk 6634
Family 6635
digt 6636
tert 6637
Hinter@@ 6638
Stri@@ 6639
deals 6640
machten 6641
expensive 6642
Iraq 6643
obviously 6644
uss@@ 6645
associated 6646
usual 6647
Überprüfung 6648
iling 6649
legt 6650
länger 6651
hofft 6652
our@@ 6653
estate 6654
listed 6655
bridge 6656
wr@@ 6657
beigetragen 6658
Dec@@ 6659
speci@@ 6660
Irland 6661
farmers 6662
späten 6663
maintain 6664
ahn 6665
houses 6666
zieht 6667
eit 6668
crucial 6669
Anwälte 6670
SE 6671
Stone 6672
package 6673
pel 6674
Cohen 6675
Cuomo 6676
conduct 6677
Zeitung 6678
GOP 6679
knowledge 6680
ar-@@ 6681
sei@@ 6682
dige 6683
gemeinsam 6684
driven 6685
bitten 6686
Flughafen 6687
Duke 6688
cultural 6689
plan@@ 6690
oper@@ 6691
Einsatz 6692
Laura 6693
dar 6694
inge 6695
66 6696
confident 6697
dness 6698
Gordon 6699
mid@@ 6700
Junge 6701
opinion 6702
roughly 6703
rig@@ 6704
Station 6705
viral 6706
Spurs 6707
Brooklyn 6708
Gemeinschaften 6709
Cu@@ 6710
northern 6711
persönlich 6712
mayor 6713
geholfen 6714
Zeitraum 6715
crimes 6716
iker 6717
din@@ 6718
größeren 6719
religious 6720
pitch 6721
deeply 6722
strength 6723
nah@@ 6724
Wild@@ 6725
fires 6726
laden 6727
ruled 6728
12. 6729
behalten 6730
acker 6731
atoren 6732
organis@@ 6733
Vorwürfe 6734
institutions 6735
Waffen 6736
pictures 6737
ex-@@ 6738
interests 6739
Fun@@ 6740
cri@@ 6741
Filme 6742
worker 6743
zogen 6744
dische 6745
Standard 6746
8. 6747
publicly 6748
ppe 6749
Blut@@ 6750
Lisa 6751
suspect 6752
Miss 6753
l-@@ 6754
Cummings 6755
considering 6756
inform@@ 6757
Heim@@ 6758
CB@@ 6759
nennen 6760
sammeln 6761
carrying 6762
62 6763
bla@@ 6764
67 6765
täglichen 6766
offiziellen 6767
Taliban 6768
Winter 6769
schottischen 6770
Charakter 6771
charity 6772
Power 6773
billi@@ 6774
zurückzukehren 6775
geschehen 6776
Pres@@ 6777
Society 6778
fing 6779
Herzen 6780
alized 6781
penalty 6782
decline 6783
ump 6784
Umzug 6785
Cambridge 6786
incredible 6787
deine 6788
pet@@ 6789
Haut 6790
250 6791
Kommission 6792
likes 6793
freuen 6794
targeted 6795
ernst 6796
Rights 6797
cel@@ 6798
Sher@@ 6799
Villa 6800
loo@@ 6801
Yo@@ 6802
pfen 6803
000 6804
aver@@ 6805
Hay@@ 6806
ored 6807
für@@ 6808
daten 6809
Buch@@ 6810
secret 6811
Downing 6812
erfüllen 6813
Wa@@ 6814
fewer 6815
structure 6816
geschaffen 6817
vent@@ 6818
chter 6819
han@@ 6820
animal 6821
Mikro@@ 6822
agent 6823
fly 6824
direction 6825
lieren 6826
gemein@@ 6827
pay@@ 6828
DNA 6829
Fast 6830
Peking 6831
weigerte 6832
pt 6833
edge 6834
Soldaten 6835
nations 6836
ood 6837
western 6838
Sekunden 6839
ktiv 6840
planen 6841
selten 6842
emissions 6843
identify 6844
Kansas 6845
beeinflussen 6846
aches 6847
connection 6848
Besucher 6849
sco@@ 6850
seconds 6851
tered 6852
ck-@@ 6853
falling 6854
false 6855
Richtlinien 6856
Aaron 6857
auer 6858
attended 6859
Look 6860
Schaden 6861
Kommentar 6862
Russell 6863
jährige 6864
migrants 6865
aly@@ 6866
23@@ 6867
Teilnehmer 6868
Nachbarn 6869
regul@@ 6870
infiziert 6871
akzeptieren 6872
erfahren 6873
Flug 6874
Lan@@ 6875
CH@@ 6876
nor 6877
Jennifer 6878
DA 6879
Status 6880
Sean 6881
Migranten 6882
Waffen@@ 6883
Großbritanniens 6884
Gesetze 6885
hood 6886
schreibt 6887
läu@@ 6888
Atom@@ 6889
impossible 6890
tere 6891
ähnlich 6892
adds 6893
approval 6894
Sozial@@ 6895
corner 6896
5G 6897
teachers 6898
Japanese 6899
banned 6900
vit@@ 6901
supposed 6902
Fern@@ 6903
ero@@ 6904
Gov. 6905
21. 6906
Venezuela 6907
plants 6908
sit@@ 6909
greifen 6910
receiving 6911
Phil 6912
ental 6913
ort 6914
mouth 6915
Photograph 6916
rock 6917
Independent 6918
counts 6919
struggle 6920
iel 6921
punkt 6922
Plan@@ 6923
sin@@ 6924
folgt 6925
weapons 6926
possibility 6927
Design 6928
bol@@ 6929
schweren 6930
virtual 6931
Geheim@@ 6932
attend 6933
Matthew 6934
net@@ 6935
ph 6936
But@@ 6937
Medi@@ 6938
Verbindungen 6939
ehrlich 6940
Norden 6941
worry 6942
Einkommen 6943
10.@@ 6944
ght 6945
Rob@@ 6946
Zweifel 6947
zt 6948
Kil@@ 6949
conservative 6950
sch 6951
greatest 6952
Spaß 6953
63 6954
marriage 6955
Berlin 6956
dress 6957
newspaper 6958
isolation 6959
Solskjaer 6960
ships 6961
umb@@ 6962
losses 6963
rufen 6964
Städten 6965
Mill@@ 6966
mir@@ 6967
grown 6968
Clubs 6969
quali@@ 6970
ideas 6971
ergreifen 6972
Stat@@ 6973
nt 6974
Amtszeit 6975
Iranian 6976
Rap@@ 6977
interessiert 6978
yed 6979
Den@@ 6980
truly 6981
nor@@ 6982
bestehen 6983
Philip 6984
excited 6985
rie 6986
split 6987
beschrieben 6988
Science 6989
link 6990
funktionieren 6991
beschuldigte 6992
jail 6993
cent@@ 6994
age@@ 6995
fraud 6996
Gott 6997
Londoner 6998
gy@@ 6999
Training 7000
Fenster 7001
alised 7002
ame@@ 7003
vir@@ 7004
raising 7005
ease 7006
fill 7007
lawyers 7008
ktive 7009
unless 7010
Bom@@ 7011
interested 7012
Kader 7013
Pool 7014
dliche 7015
eman 7016
französischen 7017
tungs@@ 7018
electric 7019
Verhandlungen 7020
Banken 7021
east 7022
el-@@ 7023
Organisationen 7024
Kentucky 7025
activists 7026
corruption 7027
Änderung 7028
passing 7029
Kennedy 7030
Sussex 7031
Verbraucher 7032
illness 7033
ierungen 7034
blo@@ 7035
Welle 7036
Pass 7037
SNP 7038
Hum@@ 7039
Fle@@ 7040
fahrt 7041
Bul@@ 7042
eingesetzt 7043
Michelle 7044
priority 7045
gekauft 7046
Fra@@ 7047
ischem 7048
Karte 7049
Euro@@ 7050
continuing 7051
Hom@@ 7052
seasons 7053
nten 7054
Passagiere 7055
proposal 7056
meines 7057
article 7058
Trans@@ 7059
tau@@ 7060
Ap@@ 7061
uner@@ 7062
heads 7063
2002 7064
vergessen 7065
my@@ 7066
erschossen 7067
ika 7068
Sonder@@ 7069
zunehmend 7070
ari 7071
68 7072
lieb@@ 7073
seitdem 7074
Development 7075
Autor 7076
Ton@@ 7077
ügen 7078
nung 7079
super 7080
Fortschritte 7081
Fan 7082
lawsuit 7083
bung 7084
Stattdessen 7085
profit 7086
skills 7087
Sn@@ 7088
Durch@@ 7089
kel 7090
ander 7091
mine 7092
Großteil 7093
erreichte 7094
Bou@@ 7095
normalerweise 7096
sicherstellen 7097
ye 7098
iken 7099
rechten 7100
transition 7101
mins 7102
Verbot 7103
schickte 7104
rival 7105
captain 7106
mate 7107
Anti@@ 7108
handed 7109
Cook 7110
Schlag 7111
Out 7112
guidance 7113
tree 7114
Gemeinden 7115
ela 7116
bau 7117
entirely 7118
Jose 7119
Ist 7120
Special 7121
verursachen 7122
gewarnt 7123
Innen@@ 7124
ih@@ 7125
fle@@ 7126
ada 7127
mod@@ 7128
Var@@ 7129
doch 7130
Gegend 7131
achieve 7132
Tore 7133
behaviour 7134
Umwelt@@ 7135
van@@ 7136
Musik@@ 7137
actress 7138
hate 7139
Neben 7140
ly@@ 7141
Bush 7142
racial 7143
Republic 7144
Armee 7145
marked 7146
18. 7147
kin@@ 7148
southern 7149
Ay@@ 7150
ließen 7151
Dra@@ 7152
oured 7153
op 7154
half-@@ 7155
Kunst 7156
Attorney 7157
dream 7158
Murphy 7159
Cooper 7160
Gesundheit@@ 7161
Bab@@ 7162
Tech 7163
Besitz 7164
12.@@ 7165
garden 7166
factors 7167
tom@@ 7168
update 7169
Ausbildung 7170
wil@@ 7171
Bay@@ 7172
insisted 7173
Risiken 7174
closely 7175
Viertel 7176
walked 7177
rejected 7178
dungs@@ 7179
causing 7180
Westminster 7181
ativ 7182
stable 7183
schwere 7184
leg 7185
hits 7186
Durchschnitt 7187
delay 7188
lebte 7189
Mitchell 7190
Middle 7191
tte 7192
Energy 7193
oned 7194
vital 7195
Reporter 7196
Birmingham 7197
Robinson 7198
Prof@@ 7199
jemandem 7200
Aus 7201
Cricket 7202
vast 7203
14. 7204
racist 7205
pper 7206
Bot@@ 7207
Gebieten 7208
77 7209
claiming 7210
stream 7211
langsam 7212
Brazil 7213
leads 7214
Anhörung 7215
consequences 7216
Ost@@ 7217
Airlines 7218
ind 7219
abgesagt 7220
möglichen 7221
surge 7222
Kerl 7223
retail 7224
explain 7225
Offizier 7226
Craig 7227
verbrachte 7228
Sudan 7229
reform 7230
relativ 7231
Rugby 7232
soci@@ 7233
kitchen 7234
defin@@ 7235
Lebensmittel 7236
Children 7237
Division 7238
task 7239
NASA 7240
fangen 7241
multi@@ 7242
illing 7243
Beg@@ 7244
it-@@ 7245
affect 7246
igkeiten 7247
behaupten 7248
spoken 7249
prior 7250
section 7251
ßt 7252
matters 7253
Niemand 7254
ene@@ 7255
relatively 7256
barkeit 7257
returns 7258
erinnerte 7259
Energie@@ 7260
bled 7261
ül@@ 7262
powers 7263
Vir@@ 7264
COVID 7265
terte 7266
ables 7267
LI@@ 7268
Gewicht 7269
Education 7270
Str@@ 7271
dry 7272
Samsung 7273
Qualität 7274
abgelehnt 7275
Rel@@ 7276
cou@@ 7277
sentence 7278
Arch@@ 7279
tak@@ 7280
Capital 7281
Award 7282
chances 7283
Ken@@ 7284
Ereignisse 7285
zy 7286
ading 7287
lig@@ 7288
basic 7289
Besorgnis 7290
viewers 7291
Verfahren 7292
Pete 7293
threatened 7294
angegriffen 7295
enzen 7296
indic@@ 7297
registered 7298
Bereichen 7299
historic 7300
sis 7301
Pap@@ 7302
erie 7303
schneller 7304
duty 7305
allies 7306
1999 7307
-Serie 7308
cont@@ 7309
einiger 7310
pra@@ 7311
wake 7312
aro@@ 7313
Joshua 7314
tum@@ 7315
Unser 7316
Korean 7317
Trau@@ 7318
visited 7319
Sau@@ 7320
Mark@@ 7321
coverage 7322
Met 7323
Charlie 7324
ao 7325
worldwide 7326
ingen 7327
ou 7328
2,000 7329
entered 7330
bars 7331
joint 7332
Berichterstattung 7333
Schließung 7334
Four 7335
Ster@@ 7336
motion 7337
Charlotte 7338
Gor@@ 7339
radio 7340
devices 7341
models 7342
Kin@@ 7343
ades 7344
significantly 7345
produ@@ 7346
Ausland 7347
sprachen 7348
ursprünglich 7349
forms 7350
operate 7351
Illinois 7352
las 7353
imposed 7354
Os@@ 7355
kürz@@ 7356
behandeln 7357
Bil@@ 7358
physi@@ 7359
SA 7360
bag 7361
ate@@ 7362
possibly 7363
Schuld 7364
closing 7365
anderem 7366
eit@@ 7367
igh@@ 7368
Mumbai 7369
abe 7370
glass 7371
mak@@ 7372
rant 7373
Mayor 7374
Evans 7375
erzielen 7376
Auge 7377
Kapitän 7378
Are 7379
smart 7380
pushing 7381
tackle 7382
eins 7383
aktiv 7384
Sprecherin 7385
Taiwan 7386
Dur@@ 7387
Theater 7388
software 7389
Detroit 7390
Nevada 7391
ays 7392
Ed 7393
30-@@ 7394
Lang@@ 7395
teacher 7396
identity 7397
unabhängig 7398
zusätzlichen 7399
gradu@@ 7400
spieler 7401
Vision 7402
Financial 7403
ungspro@@ 7404
Lar@@ 7405
Leuten 7406
drehen 7407
dischen 7408
signing 7409
deputy 7410
none 7411
nord@@ 7412
drink 7413
dogs 7414
ku@@ 7415
tonight 7416
Maria 7417
rol@@ 7418
Westen 7419
Asian 7420
coast 7421
Fokus 7422
mach@@ 7423
Strecke 7424
tical 7425
statements 7426
festival 7427
arbeiter 7428
of-@@ 7429
Meter 7430
parks 7431
cru@@ 7432
ele 7433
Mrs 7434
Hillary 7435
teile 7436
founder 7437
se-@@ 7438
sie@@ 7439
Potenzial 7440
ältere 7441
Stewart 7442
Under@@ 7443
village 7444
patri@@ 7445
Music 7446
authority 7447
CE@@ 7448
üch@@ 7449
cell 7450
presented 7451
turns 7452
catch 7453
jahr@@ 7454
wussten 7455
exposed 7456
Sex@@ 7457
Alan 7458
erleben 7459
näher 7460
beendet 7461
gehabt 7462
Dominic 7463
arm@@ 7464
Hot@@ 7465
meetings 7466
Christopher 7467
Volks@@ 7468
min 7469
characters 7470
Cli@@ 7471
ausgelöst 7472
Anruf 7473
Games 7474
wis@@ 7475
linken 7476
Up@@ 7477
Sin@@ 7478
determine 7479
nungen 7480
setz@@ 7481
spann@@ 7482
teilnehmen 7483
eding 7484
selben 7485
notice 7486
Außenminister 7487
dürfen 7488
Augen@@ 7489
spiele 7490
nd 7491
connected 7492
50,000 7493
denkt 7494
Front 7495
61 7496
marks 7497
therefore 7498
requires 7499
Utah 7500
atten 7501
Zoom 7502
Part@@ 7503
ys@@ 7504
Princess 7505
Raj@@ 7506
Sturgeon 7507
letztes 7508
fünf@@ 7509
Cr@@ 7510
Roger 7511
Kopf@@ 7512
halt 7513
Reise@@ 7514
inhaftiert 7515
spor@@ 7516
höchsten 7517
Krankenhäuser 7518
ov 7519
Orten 7520
Erholung 7521
pace 7522
intended 7523
Kap@@ 7524
issen 7525
kel@@ 7526
Fuß@@ 7527
sehe 7528
Erinnerung 7529
threats 7530
nam@@ 7531
gewinnt 7532
Disease 7533
lie 7534
reck@@ 7535
Night 7536
71 7537
Produc@@ 7538
17. 7539
vic@@ 7540
MS 7541
na@@ 7542
friendly 7543
lte 7544
Anteil 7545
13. 7546
Tories 7547
Navy 7548
wat@@ 7549
relations 7550
kannst 7551
wand@@ 7552
satz 7553
pop 7554
surface 7555
tal 7556
nisse 7557
ologist 7558
Oklahoma 7559
Gedanken 7560
TA 7561
neu@@ 7562
Telefon@@ 7563
Initiative 7564
Hampshire 7565
minim@@ 7566
kritisiert 7567
riesige 7568
comfortable 7569
scoring 7570
contributed 7571
Republik 7572
Herz 7573
bilden 7574
Tisch 7575
Hopkins 7576
rechts@@ 7577
geändert 7578
challenging 7579
ehr@@ 7580
up-@@ 7581
interesting 7582
Kauf 7583
stadt 7584
tou@@ 7585
artists 7586
Behauptung 7587
beh@@ 7588
69 7589
brauchte 7590
Ele@@ 7591
pos@@ 7592
Ausdruck 7593
Aktion 7594
lage 7595
gilt 7596
74 7597
aking 7598
Fauci 7599
rechte 7600
bewegt 7601
ouse 7602
gh 7603
potenziell 7604
Though 7605
gegründet 7606
Hancock 7607
ET 7608
ourselves 7609
perfekt 7610
itu@@ 7611
chn@@ 7612
Königreichs 7613
Pf@@ 7614
25. 7615
erstes 7616
fliegen 7617
Kandidat 7618
tief@@ 7619
wn@@ 7620
dinner 7621
aya 7622
Lehr@@ 7623
essing 7624
ello 7625
therapy 7626
com 7627
einst 7628
Capitol 7629
independence 7630
Einschränkungen 7631
brings 7632
verschoben 7633
Angriffe 7634
f-@@ 7635
assistance 7636
earned 7637
regularly 7638
code 7639
No. 7640
Hunt 7641
Editing 7642
spl@@ 7643
top@@ 7644
shape 7645
Among 7646
län@@ 7647
spo@@ 7648
Oder 7649
spra@@ 7650
Jon 7651
celebrate 7652
Sw@@ 7653
harm 7654
gig 7655
mail 7656
rech@@ 7657
Set 7658
verboten 7659
Rekord@@ 7660
schlimmsten 7661
identifizieren 7662
qui@@ 7663
Bes@@ 7664
weißt 7665
buildings 7666
prosecutors 7667
waste 7668
youth 7669
Twitter-@@ 7670
corporate 7671
earnings 7672
Verteidiger 7673
zuversichtlich 7674
Ideen 7675
ica 7676
offizielle 7677
ester 7678
danger 7679
TV@@ 7680
Lakers 7681
Spanish 7682
notes 7683
2.000 7684
text 7685
widespread 7686
Freiheit 7687
dit@@ 7688
otherwise 7689
kick 7690
Praxis 7691
Anzeichen 7692
Pun@@ 7693
adviser 7694
2022 7695
Jimmy 7696
effectively 7697
gutes 7698
Vielzahl 7699
ersetzen 7700
Bio@@ 7701
küh@@ 7702
diert 7703
ose 7704
causes 7705
Deb@@ 7706
tab@@ 7707
Luke 7708
Stil 7709
Maske 7710
aufhören 7711
Span@@ 7712
te-@@ 7713
Bett 7714
ented 7715
supp@@ 7716
Erfahrungen 7717
Bürger@@ 7718
controlled 7719
manage 7720
flying 7721
Kurs 7722
panel 7723
consumer 7724
Lag@@ 7725
clients 7726
pull 7727
staying 7728
pil@@ 7729
Tex@@ 7730
Kamera 7731
sat 7732
Pfund 7733
generally 7734
iens 7735
pieces 7736
directed 7737
Anne 7738
betra@@ 7739
Emma 7740
Klein@@ 7741
zentrum 7742
Where 7743
demands 7744
pes 7745
Bekämpfung 7746
beendete 7747
überrascht 7748
roads 7749
RA@@ 7750
headed 7751
McDonald 7752
Analysten 7753
igt 7754
thank 7755
importance 7756
Chaos 7757
payment 7758
Az@@ 7759
aimed 7760
feld 7761
AF@@ 7762
mon 7763
Umsatz 7764
tra 7765
stecken 7766
yle 7767
ghts 7768
Medikamente 7769
Sommer@@ 7770
Antrag 7771
Church 7772
hren 7773
typically 7774
isch-@@ 7775
dens 7776
Benutzer 7777
Rock@@ 7778
assistant 7779
Krankheiten 7780
60@@ 7781
alisieren 7782
inning 7783
derung 7784
dating 7785
Grant 7786
Mitgliedern 7787
Runs 7788
NO@@ 7789
mittel@@ 7790
Ful@@ 7791
HO@@ 7792
FI@@ 7793
trä@@ 7794
Dave 7795
gar 7796
Rex 7797
thr@@ 7798
leiter 7799
Privat@@ 7800
wirst 7801
Käufer 7802
Emp@@ 7803
Airport 7804
PS 7805
extrem 7806
shock 7807
Hen@@ 7808
Abschluss 7809
guests 7810
perform 7811
flow 7812
11.@@ 7813
ungsk@@ 7814
eds 7815
struggled 7816
-jähriger 7817
Back 7818
wine 7819
geschichte 7820
Hund 7821
protected 7822
ösen 7823
prepare 7824
unprecedented 7825
temporary 7826
Auswahl 7827
bezeichnete 7828
journalists 7829
stag 7830
73 7831
soldiers 7832
Einheit 7833
imagine 7834
esen 7835
dges 7836
Golf 7837
holds 7838
wahl@@ 7839
cc@@ 7840
Anna 7841
Album 7842
Mach@@ 7843
Ankunft 7844
Amts@@ 7845
Protest 7846
unde 7847
Woods 7848
kins 7849
effektiv 7850
Bryant 7851
schn@@ 7852
Mord 7853
Dro@@ 7854
erlitten 7855
hafte 7856
motor@@ 7857
Eis@@ 7858
unmöglich 7859
duc@@ 7860
regime 7861
lo 7862
Sea 7863
block@@ 7864
steh@@ 7865
agu@@ 7866
Branche 7867
träge 7868
appropriate 7869
Video@@ 7870
Major 7871
16. 7872
ility 7873
journalist 7874
größer 7875
Angesichts 7876
Vizepräsident 7877
senken 7878
ric 7879
76 7880
ministry 7881
esh 7882
gent@@ 7883
Instagram-@@ 7884
produzieren 7885
typ@@ 7886
Über 7887
add@@ 7888
stor@@ 7889
a.m. 7890
streaming 7891
values 7892
occurred 7893
Xi 7894
shortly 7895
zwingen 7896
Adams 7897
höchste 7898
Hotels 7899
Einführung 7900
mond 7901
reduziert 7902
fiz@@ 7903
Jane 7904
Space 7905
benötigt 7906
sucht 7907
Co 7908
gap 7909
ceremony 7910
Südafrika 7911
positions 7912
fern 7913
deadly 7914
Domin@@ 7915
Missbrauch 7916
moves 7917
experiences 7918
CC@@ 7919
ond 7920
five-@@ 7921
internal 7922
Sicht 7923
L-@@ 7924
sad 7925
ref@@ 7926
russische 7927
Tiere 7928
fahrer 7929
ss@@ 7930
15-@@ 7931
m-@@ 7932
unclear 7933
GA@@ 7934
Regen@@ 7935
angen 7936
Toronto 7937
bedeut@@ 7938
teilt 7939
peri@@ 7940
ased 7941
Conference 7942
Dutzende 7943
Thompson 7944
Rab@@ 7945
gericht 7946
sending 7947
stuck 7948
attacked 7949
soli@@ 7950
ord 7951
Run 7952
puts 7953
neg@@ 7954
enth@@ 7955
Atlantic 7956
stoffe 7957
ups 7958
Marine 7959
Zei@@ 7960
Schlaf@@ 7961
rell 7962
combined 7963
definitiv 7964
Muslim 7965
Giuliani 7966
fällen 7967
stoff 7968
Sheriff 7969
flat 7970
F-@@ 7971
temperatures 7972
Kent 7973
alt@@ 7974
uk@@ 7975
op-@@ 7976
purpose 7977
DO@@ 7978
busy 7979
Fury 7980
Orte 7981
änder 7982
bereich 7983
reaction 7984
preise 7985
Krebs 7986
beach 7987
nde 7988
Go 7989
posts 7990
produziert 7991
Dr@@ 7992
encourage 7993
häufig 7994
defensive 7995
clinical 7996
unn@@ 7997
zuletzt 7998
Newsom 7999
aktiv@@ 8000
Index 8001
Tennessee 8002
Judge 8003
lucky 8004
dollar 8005
forecast 8006
cross 8007
stab@@ 8008
understood 8009
slo@@ 8010
regions 8011
Sitzung 8012
boat 8013
Netzwerk 8014
locations 8015
Türen 8016
temperature 8017
ideal 8018
talent 8019
red@@ 8020
Strafe 8021
dachten 8022
vorbereitet 8023
Gam@@ 8024
chef 8025
folgte 8026
gemeinsamen 8027
zero 8028
gestartet 8029
Free 8030
krank@@ 8031
Pit@@ 8032
Aussage 8033
lob@@ 8034
empty 8035
ride 8036
ami 8037
Umgebung 8038
Dav@@ 8039
Jac@@ 8040
gs@@ 8041
Haltung 8042
geraten 8043
explains 8044
offiziell 8045
See 8046
ool 8047
Network 8048
Renn@@ 8049
trouble 8050
sun 8051
ect 8052
Bau 8053
ont 8054
danach 8055
Stor@@ 8056
erzielt 8057
trees 8058
Unsicherheit 8059
supplies 8060
Punkten 8061
involving 8062
Schutz@@ 8063
Goo@@ 8064
handle 8065
trock@@ 8066
materials 8067
grand@@ 8068
scenes 8069
si 8070
farm 8071
proved 8072
Block@@ 8073
Zimmer 8074
hängt 8075
Greg 8076
tern@@ 8077
1997 8078
zy@@ 8079
mäßig 8080
täglich 8081
hi 8082
glück@@ 8083
Kleidung 8084
derte 8085
RO@@ 8086
01 8087
Syrien 8088
stick 8089
Liefer@@ 8090
verletzung 8091
chan@@ 8092
originally 8093
frage 8094
Fair@@ 8095
separ@@ 8096
vorgeschlagen 8097
any@@ 8098
PS@@ 8099
Tit@@ 8100
iss 8101
haften 8102
Dienste 8103
heading 8104
Nas@@ 8105
Sab@@ 8106
route 8107
schätzen 8108
sichern 8109
promise 8110
types 8111
irgendwo 8112
founded 8113
Irak 8114
positi@@ 8115
Mannes 8116
Avenue 8117
dale 8118
contain 8119
Vorteil 8120
Psych@@ 8121
studio 8122
hole 8123
Nat@@ 8124
index 8125
ink@@ 8126
erfordert 8127
mix 8128
aggressive 8129
finanzielle 8130
controversial 8131
recht 8132
Kol@@ 8133
38@@ 8134
Ga@@ 8135
rag@@ 8136
stiegen 8137
führenden 8138
Centers 8139
sank 8140
faith 8141
attempts 8142
Emily 8143
teren 8144
ausgegeben 8145
heavily 8146
til@@ 8147
finals 8148
haus 8149
Countys 8150
tomorrow 8151
kämpfte 8152
Aktie 8153
Wo@@ 8154
wert@@ 8155
harder 8156
attempted 8157
zeu@@ 8158
Mae 8159
ssen 8160
Anschuldigungen 8161
schlimmer 8162
ballots 8163
Turn@@ 8164
Winter@@ 8165
endet 8166
mph 8167
covering 8168
Verbesserung 8169
Plus 8170
outcome 8171
wir@@ 8172
Einzel@@ 8173
loans 8174
customer 8175
dealing 8176
erlauben 8177
device 8178
chron@@ 8179
Mir@@ 8180
bekann@@ 8181
erhielten 8182
Leeds 8183
ition@@ 8184
Verfassung 8185
fein@@ 8186
cop@@ 8187
Flu@@ 8188
genen 8189
actors 8190
Tokyo 8191
Treasury 8192
apartment 8193
schau@@ 8194
thinks 8195
ann 8196
gefolgt 8197
MI@@ 8198
Dublin 8199
Gründer 8200
Has@@ 8201
ordnung 8202
Bidens 8203
ress 8204
award 8205
Drei 8206
fan@@ 8207
Nummer 8208
Vietnam 8209
rivals 8210
trend 8211
Motor@@ 8212
shi@@ 8213
teen 8214
tlichen 8215
Antonio 8216
print 8217
tariffs 8218
Ep@@ 8219
plötzlich 8220
ni 8221
Reis@@ 8222
hil@@ 8223
tied 8224
purchase 8225
Wut 8226
ases 8227
Frieden 8228
Vorsitzender 8229
show@@ 8230
Ecke 8231
Programme 8232
posed 8233
throw 8234
so-called 8235
Dy@@ 8236
mern 8237
planet 8238
locked 8239
Produ@@ 8240
shouldn 8241
improved 8242
Show@@ 8243
regarding 8244
Ari@@ 8245
ow@@ 8246
ples 8247
Powell 8248
anger 8249
freien 8250
fehl@@ 8251
Wetter 8252
BC 8253
dauerte 8254
Grad 8255
Good@@ 8256
Standards 8257
Spannungen 8258
PR 8259
Song 8260
cycle 8261
freie 8262
Howard 8263
Vereinten 8264
Kel@@ 8265
convicted 8266
Raum@@ 8267
Freude 8268
honest 8269
territory 8270
schedule 8271
Gründen 8272
elec@@ 8273
Ansicht 8274
Priorität 8275
humans 8276
hau@@ 8277
fake 8278
taxes 8279
geschafft 8280
peak 8281
aim 8282
dozen 8283
wä@@ 8284
dank 8285
alities 8286
ination 8287
enc@@ 8288
Wege 8289
gal@@ 8290
festgestellt 8291
Wissenschaft 8292
coffee 8293
memory 8294
demo@@ 8295
Sei@@ 8296
Flüge 8297
Bureau 8298
nationwide 8299
führende 8300
Wählern 8301
Cham@@ 8302
füllen 8303
reveal 8304
siert 8305
besucht 8306
surprised 8307
Ul@@ 8308
ency 8309
riesigen 8310
aside 8311
GO@@ 8312
alive 8313
Ki@@ 8314
reaching 8315
Wright 8316
replace 8317
gleich 8318
dozens 8319
Tier 8320
spots 8321
Mourinho 8322
Waren 8323
Six 8324
alien 8325
color 8326
Slo@@ 8327
verglichen 8328
Imp@@ 8329
Sing@@ 8330
dlich 8331
letzter 8332
Minneapolis 8333
DI@@ 8334
Price 8335
beauty 8336
nächstes 8337
stie@@ 8338
sonst 8339
rural 8340
Ereignis 8341
23. 8342
Wiedereröffnung 8343
gern 8344
itz 8345
Asi@@ 8346
woh@@ 8347
od@@ 8348
.co.uk 8349
manufacturing 8350
K-@@ 8351
Pin@@ 8352
custody 8353
gewährleisten 8354
schul@@ 8355
Fri@@ 8356
10,000 8357
besuchte 8358
lern 8359
diversity 8360
knapp 8361
gens 8362
Margaret 8363
UFC 8364
Lager 8365
Ehe 8366
Pop@@ 8367
eling 8368
Verbündeten 8369
eigentlich 8370
Diana 8371
alcohol 8372
wahr@@ 8373
Carter 8374
14-@@ 8375
saison 8376
altet 8377
Katie 8378
B-@@ 8379
Columbia 8380
nen@@ 8381
Action 8382
Get 8383
Rand@@ 8384
Zeugen 8385
Prin@@ 8386
ray 8387
nete 8388
pot 8389
Kredit 8390
computer 8391
Prevention 8392
keits@@ 8393
jo 8394
ator@@ 8395
shirt 8396
Sanktionen 8397
Verbreitung 8398
eted 8399
stag@@ 8400
sper@@ 8401
Defense 8402
erzählen 8403
atur 8404
lights 8405
Warner 8406
dom 8407
menschlichen 8408
vic 8409
asse 8410
Voll@@ 8411
wenigen 8412
tik 8413
Marcus 8414
abortion 8415
Austin 8416
uns@@ 8417
kat@@ 8418
deut@@ 8419
Häusern 8420
IR@@ 8421
systeme 8422
division 8423
wal 8424
assets 8425
trag 8426
ähnlichen 8427
Dutzend 8428
gefordert 8429
Konservativen 8430
Produkt 8431
Cy@@ 8432
hob 8433
sten@@ 8434
Five 8435
isation 8436
78 8437
Militär 8438
ald 8439
AI@@ 8440
Zus@@ 8441
offensive 8442
dn@@ 8443
eten 8444
TI@@ 8445
diagnosed 8446
älter 8447
mäch@@ 8448
Lauf@@ 8449
Drogen 8450
Islamic 8451
gesp@@ 8452
mitteln 8453
berichten 8454
sh 8455
engen 8456
Herbst 8457
meat 8458
leb@@ 8459
Nr. 8460
practices 8461
beamte 8462
talked 8463
ll 8464
drawn 8465
Analy@@ 8466
regulations 8467
uncertainty 8468
Pel@@ 8469
intensive 8470
represents 8471
Ehr@@ 8472
Spitzen@@ 8473
Il@@ 8474
ersetzt 8475
Verständnis 8476
trials 8477
reveals 8478
Höhepunkt 8479
menschliche 8480
fällt 8481
unklar 8482
stocks 8483
anniversary 8484
instance 8485
illa 8486
ple 8487
Transport 8488
draft 8489
D.C. 8490
80@@ 8491
Nicola 8492
Jobs 8493
schöne 8494
stru@@ 8495
tie 8496
Commons 8497
10.000 8498
sieren 8499
Kern@@ 8500
fertig 8501
Bud@@ 8502
lierte 8503
Ära 8504
formed 8505
upcoming 8506
geliefert 8507
rechts 8508
50-@@ 8509
Wirkung 8510
dringend 8511
bevorzu@@ 8512
Moscow 8513
standen 8514
wütend 8515
recovered 8516
checks 8517
Tages@@ 8518
pounds 8519
performed 8520
actual 8521
joining 8522
coalition 8523
TH@@ 8524
Hit 8525
Bild-Copyright 8526
begins 8527
Kyle 8528
Cou@@ 8529
Lockdown-@@ 8530
threatening 8531
wes@@ 8532
gemeinsame 8533
obvious 8534
lift 8535
minimum 8536
protective 8537
bes 8538
Geh@@ 8539
zukünftige 8540
französische 8541
grade 8542
informed 8543
Nav@@ 8544
bek@@ 8545
Musk 8546
veteran 8547
GMT 8548
songs 8549
solutions 8550
off-@@ 8551
critics 8552
dorthin 8553
partnership 8554
All-@@ 8555
FDA 8556
airline 8557
alling 8558
Früher 8559
Küche 8560
Ansichten 8561
Bildungs@@ 8562
Gast@@ 8563
vest@@ 8564
Bell 8565
Clark 8566
Shel@@ 8567
bedingungen 8568
competitive 8569
setzung 8570
tures 8571
29. 8572
Zwei@@ 8573
Bewertung 8574
100@@ 8575
Sav@@ 8576
opping 8577
etten 8578
retired 8579
tries 8580
zweit@@ 8581
getr@@ 8582
anxiety 8583
chers 8584
Rate 8585
Anklage 8586
größ@@ 8587
Weitere 8588
day@@ 8589
sustainable 8590
care@@ 8591
atives 8592
complaint 8593
vin@@ 8594
hard@@ 8595
sam@@ 8596
succ@@ 8597
ritten 8598
ions 8599
zig 8600
teln 8601
Verwaltung 8602
Kas@@ 8603
Kli@@ 8604
heutigen 8605
coun@@ 8606
schottische 8607
Repräsentantenhaus 8608
handling 8609
Fisch@@ 8610
Top@@ 8611
politik 8612
fying 8613
background 8614
vertraut 8615
Web@@ 8616
älteren 8617
dien@@ 8618
Antworten 8619
zufolge 8620
gäbe 8621
compet@@ 8622
hielten 8623
psychische 8624
resolution 8625
engaged 8626
betrachtet 8627
suspected 8628
rescue 8629
stelle 8630
Brand@@ 8631
steigt 8632
Ruf 8633
schi@@ 8634
behavior 8635
pregnant 8636
permanent 8637
annt 8638
Parks 8639
impressive 8640
gesellschaft 8641
courts 8642
den-@@ 8643
absol@@ 8644
yers 8645
agents 8646
Medicine 8647
sex@@ 8648
Warnung 8649
bio@@ 8650
Gur@@ 8651
Louisiana 8652
happ@@ 8653
finance 8654
platforms 8655
mand@@ 8656
Rob 8657
Planeten 8658
tage 8659
jährlichen 8660
dert 8661
toler@@ 8662
classic 8663
Interviews 8664
tin 8665
Kriegs@@ 8666
argument 8667
eff@@ 8668
erschien 8669
exit 8670
essed 8671
mes@@ 8672
tiny 8673
disaster 8674
Arabia 8675
Ah@@ 8676
extension 8677
League-@@ 8678
1998 8679
79 8680
Mol@@ 8681
q 8682
Gefängnis@@ 8683
refer@@ 8684
stän@@ 8685
.A. 8686
Verhaftung 8687
Regionen 8688
Süden 8689
Local 8690
Hills 8691
bir@@ 8692
einfacher 8693
RI@@ 8694
wuchs 8695
Lim@@ 8696
poverty 8697
Todes@@ 8698
nomin@@ 8699
organizations 8700
Vereinbarung 8701
verteidigen 8702
Ern@@ 8703
sätze 8704
Oliver 8705
Debüt 8706
Budget 8707
army 8708
reopening 8709
Lampard 8710
uring 8711
IP@@ 8712
advance 8713
Wissen 8714
incredibly 8715
drei@@ 8716
chungen 8717
roten 8718
spreading 8719
Will@@ 8720
Klopp 8721
News@@ 8722
Jewish 8723
vollständige 8724
fire@@ 8725
factor 8726
schutz@@ 8727
Infektion 8728
Rachel 8729
Jay 8730
Week 8731
industrial 8732
z-@@ 8733
asser@@ 8734
Israeli 8735
etz@@ 8736
acked 8737
ballot 8738
Champion 8739
verringern 8740
eres 8741
stung 8742
stürzen 8743
beamten 8744
Tory-@@ 8745
autom@@ 8746
22. 8747
dam@@ 8748
cards 8749
afford 8750
ING 8751
zufrieden 8752
fies 8753
hergestellt 8754
initiative 8755
wealth 8756
belief 8757
aster 8758
falsche 8759
schlechten 8760
Covid-@@ 8761
folgenden 8762
24. 8763
immune 8764
neck 8765
wore 8766
survive 8767
una 8768
wasser@@ 8769
probe 8770
licht 8771
featured 8772
ffe 8773
Bla@@ 8774
Dank 8775
ahl 8776
Regen 8777
Neuseeland 8778
Händen 8779
entry 8780
colour 8781
feu@@ 8782
blame 8783
geleitet 8784
Einrichtungen 8785
schicken 8786
failing 8787
buil@@ 8788
tain@@ 8789
enjoyed 8790
Wunsch 8791
Drama 8792
Tei@@ 8793
mur@@ 8794
expectations 8795
vaccines 8796
mobil@@ 8797
cutting 8798
Roy 8799
Veranstaltungen 8800
surrounding 8801
Sco@@ 8802
investigating 8803
Fahrzeug 8804
Bran@@ 8805
Ruhestand 8806
granted 8807
Ve@@ 8808
BS 8809
Beh@@ 8810
discussed 8811
visiting 8812
LO@@ 8813
australischen 8814
Temperaturen 8815
Boy@@ 8816
hinter@@ 8817
stronger 8818
beeinflusst 8819
them@@ 8820
startete 8821
Gener@@ 8822
Orange 8823
camp@@ 8824
Barrett 8825
dedicated 8826
mitglieder 8827
clothes 8828
Several 8829
Eli@@ 8830
Briten 8831
Versprechen 8832
scientific 8833
Team@@ 8834
Provinz 8835
Pay@@ 8836
Perry 8837
Clar@@ 8838
plac@@ 8839
eindeutig 8840
kämpft 8841
employment 8842
properties 8843
Partnerschaft 8844
88 8845
rü@@ 8846
gas@@ 8847
estimates 8848
Portland 8849
Repräsentantenhauses 8850
mehr@@ 8851
enge 8852
creative 8853
Forderungen 8854
Dol@@ 8855
GM 8856
system@@ 8857
gnis 8858
predic@@ 8859
stärken 8860
Inst@@ 8861
berichteten 8862
ticket 8863
Rah@@ 8864
bet 8865
follows 8866
represent 8867
abge@@ 8868
Nordirland 8869
Saf@@ 8870
classes 8871
machine 8872
Steuern 8873
household 8874
sozi@@ 8875
Dal@@ 8876
D. 8877
Maduro 8878
Betrieb 8879
Cyber@@ 8880
Nag@@ 8881
lang@@ 8882
1994 8883
tac@@ 8884
movies 8885
einfache 8886
angewiesen 8887
Billy 8888
agenda 8889
fen@@ 8890
angry 8891
Tempo 8892
Stern 8893
nicht-@@ 8894
sionen 8895
PO@@ 8896
Bruce 8897
Gran@@ 8898
Gründe 8899
investigate 8900
kontrollieren 8901
Mischung 8902
brands 8903
abroad 8904
Gewinn@@ 8905
Kath@@ 8906
keen 8907
olo@@ 8908
participants 8909
Net@@ 8910
atz@@ 8911
Wood@@ 8912
hire 8913
'n 8914
ktiven 8915
att 8916
um-@@ 8917
transmission 8918
Lit@@ 8919
glaubte 8920
geschieht 8921
individu@@ 8922
dierte 8923
bedroom 8924
Indiana 8925
appointed 8926
apparently 8927
rom@@ 8928
Blo@@ 8929
eting 8930
chin@@ 8931
Küste 8932
ora 8933
Chairman 8934
elsewhere 8935
roles 8936
Gewinn 8937
Campbell 8938
bles 8939
bli@@ 8940
ato 8941
investieren 8942
Stärke 8943
please 8944
Cleveland 8945
Mann@@ 8946
geblieben 8947
Blut 8948
SI@@ 8949
Watson 8950
jury 8951
Titel@@ 8952
schie@@ 8953
Forschungs@@ 8954
remarks 8955
Start@@ 8956
facts 8957
Technology 8958
documentary 8959
Wahlkampf@@ 8960
ares 8961
rist@@ 8962
Bücher 8963
basiert 8964
ermutigt 8965
'r 8966
hör@@ 8967
dor@@ 8968
targets 8969
wirft 8970
foo@@ 8971
gic 8972
Schwar@@ 8973
rated 8974
brief 8975
lis 8976
Tyson 8977
Blues 8978
fru@@ 8979
Chin@@ 8980
witness 8981
replied 8982
Yorkshire 8983
prof@@ 8984
grand 8985
Tel@@ 8986
Vertreter 8987
summit 8988
Versorgung 8989
genutzt 8990
no-@@ 8991
beobachtet 8992
uni@@ 8993
Omar 8994
Abgeordnete 8995
dlichen 8996
Sorge 8997
protest@@ 8998
lichem 8999
Schmerzen 9000
raft 9001
Kamala 9002
kurzen 9003
Hi@@ 9004
termin@@ 9005
alists 9006
gering@@ 9007
Be 9008
bench 9009
Glauben 9010
Everyone 9011
les@@ 9012
personnel 9013
Studio 9014
Material 9015
set@@ 9016
Clarke 9017
strah@@ 9018
analyst 9019
ction 9020
wiesen 9021
accepted 9022
leu@@ 9023
regist@@ 9024
bedeutete 9025
stayed 9026
concluded 9027
richten 9028
comedy 9029
ahl@@ 9030
Danny 9031
vorne 9032
Allgemeinen 9033
Trade 9034
Play@@ 9035
fur@@ 9036
Pass@@ 9037
author@@ 9038
ank 9039
Veränderung 9040
percentage 9041
progressive 9042
drinking 9043
vierte 9044
tory 9045
gay 9046
mistake 9047
suddenly 9048
teste 9049
Stock 9050
apping 9051
hef@@ 9052
Verkehrs@@ 9053
Ferguson 9054
kle@@ 9055
ume 9056
commission 9057
Eddie 9058
brau@@ 9059
iche 9060
erh@@ 9061
schneiden 9062
Justiz@@ 9063
pack 9064
zeichen 9065
Angel@@ 9066
Arena 9067
kehrte 9068
tä@@ 9069
Susan 9070
Angelegenheiten 9071
gefähr@@ 9072
Meeres@@ 9073
Wen@@ 9074
sem@@ 9075
chi 9076
Chi@@ 9077
Heimat 9078
tensions 9079
General@@ 9080
w-@@ 9081
dene 9082
mechan@@ 9083
-Show 9084
erinnere 9085
Pur@@ 9086
discussion 9087
anywhere 9088
ernannt 9089
Sturm 9090
Lat@@ 9091
atur@@ 9092
bound 9093
End@@ 9094
Baker 9095
gun@@ 9096
escape 9097
gains 9098
Sobald 9099
ug@@ 9100
optim@@ 9101
Angela 9102
sing@@ 9103
Each 9104
schwieriger 9105
Bundesregierung 9106
application 9107
Schulden 9108
var@@ 9109
contest 9110
briefing 9111
employee 9112
eme 9113
Schäden 9114
EN@@ 9115
Bol@@ 9116
Dubai 9117
End 9118
knowing 9119
87 9120
wohl 9121
ball@@ 9122
exciting 9123
Gäste 9124
Bailey 9125
Aktien@@ 9126
conf@@ 9127
Uni@@ 9128
scre@@ 9129
Klima@@ 9130
Institutionen 9131
maxim@@ 9132
lig 9133
potenziellen 9134
keiner 9135
bis@@ 9136
stürzte 9137
Meer 9138
normally 9139
Typ@@ 9140
sexuellen 9141
zei@@ 9142
Maryland 9143
oner 9144
dein 9145
Turnier 9146
potenzielle 9147
bestätigen 9148
hosts 9149
relationships 9150
Ü@@ 9151
quar@@ 9152
chat 9153
Dou@@ 9154
ive 9155
constitutional 9156
cancelled 9157
Jam@@ 9158
finanziellen 9159
diet 9160
Tour@@ 9161
Talent 9162
grounds 9163
ba@@ 9164
gedacht 9165
langer 9166
aked 9167
yl 9168
replaced 9169
tin@@ 9170
Orleans 9171
Person@@ 9172
diger 9173
ett@@ 9174
Krankenhaus@@ 9175
festgenommen 9176
ex 9177
Oscar 9178
consistent 9179
Fall@@ 9180
ause 9181
tliche 9182
emo@@ 9183
argumentiert 9184
leiden 9185
analysts 9186
izing 9187
Faktoren 9188
asing 9189
Rat@@ 9190
änden 9191
Märkte 9192
Islam@@ 9193
Campus 9194
druck 9195
ennt 9196
jeweils 9197
aufgeregt 9198
Glob@@ 9199
Dodgers 9200
seh@@ 9201
mol@@ 9202
betr@@ 9203
leben@@ 9204
Geburtstag 9205
gesetz 9206
producer 9207
Tau@@ 9208
mentioned 9209
Sheffield 9210
M-@@ 9211
expand 9212
verbinden 9213
ero 9214
unwahrscheinlich 9215
kenn@@ 9216
totally 9217
Geschwindigkeit 9218
Spec@@ 9219
Figur 9220
represented 9221
zutiefst 9222
erhält 9223
Mohammed 9224
proper 9225
dankbar 9226
tritt 9227
map 9228
verse 9229
Edward 9230
dramatic 9231
suicide 9232
Immobilien@@ 9233
dieren 9234
Staffel 9235
Cat@@ 9236
entr@@ 9237
Update 9238
pour 9239
Gavin 9240
suff@@ 9241
Derby 9242
Bag@@ 9243
Cardiff 9244
HI@@ 9245
sand@@ 9246
Chil@@ 9247
Ham 9248
unterzeichnet 9249
leid 9250
11@@ 9251
rape 9252
campus 9253
Turner 9254
tale 9255
gathered 9256
Hintergrund 9257
esch@@ 9258
parent 9259
gefallen 9260
A.@@ 9261
horse 9262
fähig 9263
Well@@ 9264
preparing 9265
anced 9266
bungen 9267
lay 9268
Dean 9269
Ox@@ 9270
schule 9271
König 9272
utz@@ 9273
trained 9274
Nur@@ 9275
acher 9276
üs@@ 9277
Facebook-@@ 9278
hinzugefügt 9279
comfort 9280
trol@@ 9281
Farm 9282
laid 9283
saved 9284
dying 9285
MS@@ 9286
pen 9287
Field 9288
abor@@ 9289
exclu@@ 9290
Wood 9291
elli 9292
tight 9293
Worten 9294
iner 9295
Jur@@ 9296
gained 9297
Explosion 9298
bestätigten 9299
SN@@ 9300
Down@@ 9301
delayed 9302
brilliant 9303
ET@@ 9304
faster 9305
fought 9306
ura 9307
tle 9308
Aktionen 9309
magazine 9310
Sta@@ 9311
thor@@ 9312
hitting 9313
forget 9314
Pic@@ 9315
Mehrere 9316
republikanischen 9317
tischen 9318
variety 9319
ared 9320
Letzte 9321
ours 9322
maximum 9323
Ok@@ 9324
Maß 9325
itude 9326
gekämpft 9327
accident 9328
zahl@@ 9329
Bitte 9330
currency 9331
schnelle 9332
Book 9333
CC 9334
acle 9335
föder@@ 9336
ury 9337
ament 9338
labor 9339
Datum 9340
stages 9341
Turkish 9342
70@@ 9343
ierend 9344
W. 9345
erre@@ 9346
beit@@ 9347
Work@@ 9348
Note 9349
schrei@@ 9350
radi@@ 9351
ogra@@ 9352
stern 9353
remote 9354
vorstellen 9355
ires 9356
Geb@@ 9357
Feuer@@ 9358
Ehemann 9359
beu@@ 9360
drücken 9361
programm 9362
1996 9363
spec@@ 9364
Tan@@ 9365
UR@@ 9366
Maybe 9367
Kane 9368
langem 9369
lon@@ 9370
extend 9371
verein@@ 9372
Aktivität 9373
Batter@@ 9374
pressed 9375
Brighton 9376
influ@@ 9377
full-@@ 9378
Interessen 9379
conspiracy 9380
Having 9381
Zustimmung 9382
investigations 9383
zustellen 9384
fro@@ 9385
tured 9386
Brand 9387
24-@@ 9388
Fach@@ 9389
wage 9390
spokeswoman 9391
advised 9392
Kombination 9393
är 9394
pack@@ 9395
tische 9396
vie@@ 9397
weist 9398
27. 9399
alisierte 9400
Anspruch 9401
wedi 9402
Bristol 9403
ees 9404
Gebiete 9405
deuten 9406
arrival 9407
Genehmigung 9408
ensu@@ 9409
26. 9410
Berg@@ 9411
encouraged 9412
nahme 9413
Fotogra@@ 9414
positiven 9415
Histor@@ 9416
dium 9417
Haushalts@@ 9418
luxury 9419
finds 9420
Cher@@ 9421
occup@@ 9422
chem@@ 9423
ge-@@ 9424
Dat@@ 9425
unding 9426
gerettet 9427
Mount 9428
just@@ 9429
Daten@@ 9430
Keine 9431
vorsichtig 9432
Governor 9433
scher 9434
quiet 9435
Jr. 9436
load 9437
Kongresses 9438
82 9439
desire 9440
leitet 9441
Geräte 9442
besseren 9443
üm@@ 9444
vern@@ 9445
Geor@@ 9446
Ky@@ 9447
rt.com 9448
chs@@ 9449
tools 9450
opposed 9451
wonderful 9452
gestoppt 9453
praktisch 9454
witnesses 9455
winds 9456
HBO 9457
shr@@ 9458
Camp@@ 9459
Asked 9460
races 9461
ce-@@ 9462
val 9463
ip 9464
entering 9465
Following 9466
Cast@@ 9467
ange 9468
kg 9469
Thailand 9470
top-@@ 9471
Dow 9472
einzudämmen 9473
überleben 9474
kap@@ 9475
120 9476
bills 9477
Organization 9478
joy 9479
mel 9480
900 9481
eled 9482
BA 9483
extraordinary 9484
recalled 9485
stärker 9486
Tommy 9487
properly 9488
US-Präsident 9489
Durch 9490
Pradesh 9491
saß 9492
she@@ 9493
followers 9494
kehrt 9495
häu@@ 9496
Sem@@ 9497
schrecklich 9498
Zuhause 9499
sympath@@ 9500
hoped 9501
dum@@ 9502
deadline 9503
fees 9504
Schlüssel 9505
nes 9506
hadn 9507
viol@@ 9508
Broad@@ 9509
geschäft 9510
continu@@ 9511
numerous 9512
chtet 9513
bright 9514
thro@@ 9515
High-@@ 9516
ermutigen 9517
Block 9518
eless 9519
leit@@ 9520
Fü@@ 9521
Pau@@ 9522
que@@ 9523
judges 9524
Zentral@@ 9525
Lou@@ 9526
discussions 9527
starben 9528
und-@@ 9529
absolute 9530
equal 9531
Nich@@ 9532
Absicht 9533
historischen 9534
Elektro@@ 9535
knee 9536
Band@@ 9537
Ps 9538
erhöhte 9539
Mississippi 9540
ki@@ 9541
atz 9542
Dom@@ 9543
flag 9544
diseases 9545
verzweifelt 9546
arrive 9547
gift 9548
offices 9549
Ry@@ 9550
rolled 9551
borough 9552
indischen 9553
aga 9554
soft 9555
prin@@ 9556
M. 9557
pas 9558
gelten 9559
terin 9560
technical 9561
84 9562
communications 9563
alisiert 9564
platz@@ 9565
illen 9566
athletes 9567
Point 9568
Spar@@ 9569
Jeffrey 9570
READ 9571
Identität 9572
Authority 9573
Nadal 9574
unusual 9575
xes 9576
Touristen 9577
strongly 9578
denk@@ 9579
Momente 9580
favorite 9581
profitieren 9582
contr@@ 9583
Fir@@ 9584
Fehl@@ 9585
fik@@ 9586
stepped 9587
Olympic 9588
Gesprächen 9589
R. 9590
alled 9591
direc@@ 9592
Blake 9593
28. 9594
xing 9595
broad@@ 9596
sight 9597
eingerichtet 9598
lifted 9599
Py@@ 9600
verbessert 9601
ausländische 9602
antly 9603
Eis 9604
Erwartungen 9605
lichsten 9606
mann@@ 9607
Medicare 9608
schwe@@ 9609
privacy 9610
gangs 9611
republikanische 9612
six-@@ 9613
Ruth 9614
Ltd 9615
Ale@@ 9616
Papier 9617
trafen 9618
Djokovic 9619
kleiner 9620
Harvard 9621
Referendum 9622
pit@@ 9623
Leg@@ 9624
Johns 9625
citing 9626
ück@@ 9627
Einnahmen 9628
defend 9629
hängen 9630
offenen 9631
führ@@ 9632
höhere 9633
sely 9634
sexuelle 9635
PD 9636
Lon@@ 9637
nden 9638
anderswo 9639
utter 9640
Sicherheit@@ 9641
Affairs 9642
increases 9643
borders 9644
niedrig 9645
lan 9646
promote 9647
Phoenix 9648
herauszufinden 9649
X-@@ 9650
Alaska 9651
Sektor 9652
sounds 9653
ausgeschlossen 9654
appen 9655
sat@@ 9656
acknowledged 9657
18-@@ 9658
Baltimore 9659
writes 9660
Aussicht 9661
86 9662
lten 9663
Coo@@ 9664
somebody 9665
shutdown 9666
combat 9667
dated 9668
lerin 9669
gewal@@ 9670
schläge 9671
tribute 9672
Next 9673
wander@@ 9674
Londons 9675
konkurrieren 9676
PRNewswire 9677
erkannte 9678
ckey 9679
referred 9680
Lieferung 9681
ano@@ 9682
Später 9683
Mitch 9684
Respekt 9685
bags 9686
Abendessen 9687
cricket 9688
bat@@ 9689
wachsenden 9690
SO@@ 9691
Lor@@ 9692
immer@@ 9693
ias 9694
apps 9695
vertreten 9696
Fahrt 9697
units 9698
length 9699
sorry 9700
Election 9701
Canadian 9702
Park@@ 9703
devastating 9704
function 9705
wick@@ 9706
1992 9707
Indiens 9708
Harvey 9709
LESEN 9710
Mama 9711
tation 9712
square 9713
Ci@@ 9714
westlichen 9715
hero 9716
Hil@@ 9717
adult 9718
presidency 9719
democratic 9720
ware 9721
Schei@@ 9722
erstaunlich 9723
officially 9724
1995 9725
Android 9726
Beweis 9727
advanced 9728
Staat@@ 9729
sharp 9730
speaks 9731
Blan@@ 9732
reflect 9733
By@@ 9734
Clin@@ 9735
ister 9736
af 9737
Schließlich 9738
S. 9739
83 9740
organ@@ 9741
rot@@ 9742
Dokumente 9743
Saudi-Arabien 9744
Gig@@ 9745
Virgin 9746
Messi 9747
proc@@ 9748
jahr 9749
vy 9750
wen 9751
Kamer@@ 9752
sicheren 9753
saving 9754
prominent 9755
HIV 9756
McK@@ 9757
Markle 9758
könne 9759
kurze 9760
sorgen 9761
DA@@ 9762
Krist@@ 9763
ichen 9764
stretch 9765
sweet 9766
Eu@@ 9767
dence 9768
iness 9769
Bad 9770
Iran@@ 9771
specifically 9772
captured 9773
digitale 9774
tötete 9775
zitierte 9776
orts 9777
gefährlich 9778
Operationen 9779
sensitive 9780
ida 9781
Xbox 9782
ünst@@ 9783
Südkorea 9784
tätig 9785
vity 9786
EPA 9787
terrible 9788
urt 9789
modernen 9790
gige 9791
tickets 9792
Oct. 9793
Zellen 9794
proof 9795
ali 9796
Studios 9797
Jedes 9798
leitete 9799
äh@@ 9800
Stimmzettel 9801
urn@@ 9802
performing 9803
Aufnahme 9804
Konto 9805
dg@@ 9806
ulation 9807
Bargeld 9808
ce@@ 9809
effizi@@ 9810
Brisbane 9811
NY@@ 9812
vil@@ 9813
black@@ 9814
umin@@ 9815
för@@ 9816
well@@ 9817
dle 9818
ministeriums 9819
digung 9820
College-@@ 9821
cau@@ 9822
informiert 9823
spirit 9824
Others 9825
ros 9826
rap@@ 9827
berech@@ 9828
Nelson 9829
Such 9830
teilten 9831
teilweise 9832
Cav@@ 9833
Rams 9834
Jo 9835
Tun@@ 9836
bab@@ 9837
Marken 9838
impro@@ 9839
dom@@ 9840
Brady 9841
spotted 9842
dismissed 9843
92 9844
Wit@@ 9845
blow 9846
Apps 9847
Nov. 9848
except 9849
konservativen 9850
rick 9851
son-@@ 9852
Jacob 9853
3,000 9854
Strand 9855
Insgesamt 9856
liebte 9857
document 9858
stellvertretende 9859
Ang@@ 9860
gelt 9861
conversations 9862
81 9863
esses 9864
miteinander 9865
punkte 9866
forcing 9867
Halb@@ 9868
FO@@ 9869
Wall@@ 9870
Botschafter 9871
thoughts 9872
fiscal 9873
Ray 9874
Fil@@ 9875
acken 9876
Stimmung 9877
.00 9878
Umgang 9879
gigen 9880
exist@@ 9881
tives 9882
sparked 9883
pilot 9884
Teamkollegen 9885
harten 9886
fam@@ 9887
fir@@ 9888
22@@ 9889
blocked 9890
Zit@@ 9891
Oc@@ 9892
tourism 9893
portra@@ 9894
reducing 9895
channel 9896
tic@@ 9897
bie 9898
Frauen@@ 9899
Quar@@ 9900
Kapazität 9901
passenger 9902
Agenten 9903
feed 9904
essen@@ 9905
Mason 9906
innings 9907
titles 9908
Beschwerden 9909
lic 9910
Staatsanwälte 9911
third-@@ 9912
sta 9913
Sus@@ 9914
Straf@@ 9915
Gandhi 9916
broadcast 9917
routine 9918
nis 9919
werten 9920
IT 9921
suggesting 9922
Gewinne 9923
Eines 9924
pap@@ 9925
Wohnungs@@ 9926
storage 9927
Med@@ 9928
Mich@@ 9929
zin@@ 9930
B. 9931
province 9932
Korruption 9933
oma 9934
Gun@@ 9935
tenden 9936
überprüft 9937
beweisen 9938
Zie@@ 9939
Pick@@ 9940
zo 9941
irre@@ 9942
is-@@ 9943
activist 9944
samm@@ 9945
Systems 9946
stet 9947
tue 9948
ater@@ 9949
Walmart 9950
string 9951
distr@@ 9952
Mig@@ 9953
Herr@@ 9954
benannt 9955
tis 9956
wich 9957
Federer 9958
neither 9959
11-@@ 9960
prompted 9961
ez 9962
iso@@ 9963
Weinstein 9964
behalf 9965
Phillips 9966
Denken 9967
verpasst 9968
ON 9969
chose 9970
Intelligence 9971
737 9972
temp@@ 9973
ly-@@ 9974
aded 9975
applied 9976
Lopez 9977
Kumar 9978
Arbeitgeber 9979
mo 9980
freigelassen 9981
Coun@@ 9982
heart@@ 9983
äuß@@ 9984
Öl 9985
Tiger 9986
rapidly 9987
Roh@@ 9988
Nic@@ 9989
marketing 9990
collec@@ 9991
dent@@ 9992
iser 9993
travelling 9994
Grün@@ 9995
Wesentlichen 9996
Brasilien 9997
erlaubte 9998
trillion 9999
esische 10000
Büros 10001
CS@@ 10002
scra@@ 10003
Syn@@ 10004
mm 10005
wach@@ 10006
Head 10007
spir@@ 10008
museum 10009
indeed 10010
werk@@ 10011
Natur@@ 10012
Everton 10013
Put@@ 10014
drängte 10015
Brief@@ 10016
Cour@@ 10017
guide 10018
mun@@ 10019
NR@@ 10020
limits 10021
spaces 10022
stete 10023
Jessica 10024
reporter 10025
theory 10026
ktoren 10027
Wein@@ 10028
designer 10029
Town 10030
cope 10031
schock@@ 10032
Hur@@ 10033
priv@@ 10034
Cop@@ 10035
contrast 10036
Dorf 10037
behörde 10038
Port 10039
Universitäten 10040
arbeiteten 10041
traurig 10042
3.000 10043
Protection 10044
fung@@ 10045
mitt@@ 10046
ichte 10047
Yor@@ 10048
confirm 10049
ague 10050
solid 10051
Films 10052
ira 10053
verfahren 10054
recommended 10055
veröffentlichen 10056
Unabhängigkeit 10057
liberal 10058
seits 10059
icks 10060
pled 10061
Coll@@ 10062
Guard 10063
oked 10064
Physi@@ 10065
ough@@ 10066
einf@@ 10067
Zug 10068
Forest 10069
Manchmal 10070
bedroht 10071
rep@@ 10072
circul@@ 10073
esse 10074
opponents 10075
Gipfel 10076
rice 10077
prospect 10078
Lassen 10079
nachmittag 10080
demanding 10081
proj@@ 10082
fairly 10083
Country 10084
Economic 10085
iertes 10086
Auftritt 10087
wahl 10088
Präsidentschaft 10089
inch 10090
beziehen 10091
a.m 10092
cited 10093
trugen 10094
Strom@@ 10095
Dec. 10096
Schüsse 10097
Eröffnungs@@ 10098
destroyed 10099
ling@@ 10100
hell 10101
Rio 10102
keeps 10103
reich 10104
Tech-@@ 10105
master 10106
erweitern 10107
minority 10108
risen 10109
Fonds 10110
earn 10111
weak@@ 10112
Erwachsene 10113
dete@@ 10114
combination 10115
Beteiligung 10116
character@@ 10117
detailed 10118
breit@@ 10119
Spr@@ 10120
bitte 10121
fare 10122
Pad@@ 10123
reli@@ 10124
Dri@@ 10125
mont 10126
networks 10127
promising 10128
gelangen 10129
diagnostiziert 10130
98 10131
Angebote 10132
Over@@ 10133
erwarteten 10134
zentren 10135
dun@@ 10136
som@@ 10137
schte 10138
stimmten 10139
eien 10140
wählte 10141
cap 10142
erholt 10143
verbreitet 10144
barer 10145
Umwelt 10146
argumentierte 10147
Todesopfer 10148
ners 10149
lying 10150
epidemic 10151
letztlich 10152
Wander@@ 10153
Trend 10154
1989 10155
sü@@ 10156
Att@@ 10157
avo@@ 10158
managing 10159
desperate 10160
performances 10161
isse 10162
vorwärts 10163
tödlichen 10164
Ohne 10165
Corporation 10166
Right 10167
Fli@@ 10168
Techn@@ 10169
sugar 10170
Übertragung 10171
vs. 10172
PR@@ 10173
ization 10174
capable 10175
sitz 10176
sixth 10177
moon 10178
argue 10179
Leit@@ 10180
McGregor 10181
fat 10182
nobody 10183
tennis 10184
C.@@ 10185
Ach@@ 10186
Seahawks 10187
girlfriend 10188
lier@@ 10189
rob@@ 10190
Diejenigen 10191
sichere 10192
Bern@@ 10193
necessarily 10194
gesammelt 10195
dent 10196
Hard@@ 10197
greif@@ 10198
mensch@@ 10199
tourists 10200
wagen 10201
inten@@ 10202
Versuche 10203
inspiriert 10204
australische 10205
stations 10206
urgent 10207
Barbara 10208
ais 10209
Gest@@ 10210
Rezession 10211
gle@@ 10212
frequently 10213
anhaltenden 10214
ausgestrahlt 10215
fü@@ 10216
verk@@ 10217
Beamter 10218
erfordern 10219
Mutter@@ 10220
engage 10221
Berufung 10222
Theatre 10223
taten 10224
strict 10225
fähigkeit 10226
complaints 10227
unded 10228
Egypt 10229
aben 10230
Hall@@ 10231
Fro@@ 10232
eing 10233
danken 10234
traditionellen 10235
Take 10236
Plattformen 10237
begun 10238
Revolution 10239
betonte 10240
Nov@@ 10241
wonder 10242
illed 10243
BO@@ 10244
melden 10245
Sri 10246
gran@@ 10247
Immun@@ 10248
threw 10249
zi 10250
Pentagon 10251
Wo 10252
ests 10253
Exekutiv@@ 10254
Demokratischen 10255
Sonntag@@ 10256
passes 10257
betrug 10258
Amerikas 10259
Brad 10260
Ausrüstung 10261
1990 10262
Bell@@ 10263
cameras 10264
Doppel@@ 10265
Geburt 10266
verbieten 10267
ESPN 10268
mention 10269
thrown 10270
upset 10271
Rückseite 10272
politischer 10273
Sm@@ 10274
landen 10275
Meister@@ 10276
fantastic 10277
Williamson 10278
racing 10279
Wars 10280
Maxwell 10281
00,000 10282
pas@@ 10283
selection 10284
entertainment 10285
dging 10286
Emmanuel 10287
cat 10288
overnight 10289
degrees 10290
Merkel 10291
Frem@@ 10292
attr@@ 10293
factory 10294
Gehirn 10295
haber 10296
aux 10297
collapse 10298
Karen 10299
worfen 10300
Line 10301
mitgeteilt 10302
bericht 10303
Civil 10304
Terror@@ 10305
dates 10306
Nachmittag 10307
Jury 10308
Tickets 10309
Francis 10310
elderly 10311
ritt 10312
Lösungen 10313
isp@@ 10314
meals 10315
Wallace 10316
här@@ 10317
Khal@@ 10318
afrikanischen 10319
ova 10320
EC@@ 10321
sab@@ 10322
fee 10323
Menschenrechts@@ 10324
Mannschaft 10325
96 10326
still@@ 10327
Rand 10328
kolle@@ 10329
unabhängige 10330
bereit@@ 10331
36@@ 10332
Unternehmens@@ 10333
scandal 10334
excellent 10335
versprach 10336
profile 10337
identi@@ 10338
untergraben 10339
ordin@@ 10340
initi@@ 10341
truck 10342
itions 10343
ursprünglichen 10344
ker@@ 10345
Ken 10346
households 10347
breite 10348
deutschen 10349
Infrastruktur 10350
MO@@ 10351
oral 10352
break@@ 10353
lined 10354
fts 10355
PHOTO 10356
holidays 10357
gebunden 10358
hört 10359
Bildschirm 10360
Shanghai 10361
vermisst 10362
Ausmaß 10363
figen 10364
trau@@ 10365
niedriger 10366
one@@ 10367
Liam 10368
balls 10369
opposite 10370
eligible 10371
wü@@ 10372
promises 10373
tem@@ 10374
Mordes 10375
Bak@@ 10376
rolling 10377
kh 10378
Tam@@ 10379
Leider 10380
Dazu 10381
referring 10382
Hochzeit 10383
terrorist 10384
Kenya 10385
Anerkennung 10386
Rub@@ 10387
Features 10388
schönen 10389
neueste 10390
Caroline 10391
schätzt 10392
Van@@ 10393
Lawrence 10394
gehe 10395
pon@@ 10396
expects 10397
Herald 10398
cip@@ 10399
invited 10400
Area 10401
Thr@@ 10402
13.@@ 10403
interviews 10404
Pho@@ 10405
fix 10406
Sitze 10407
getragen 10408
questioned 10409
Direc@@ 10410
uen 10411
hall 10412
Any 10413
insi@@ 10414
Himmel 10415
THE 10416
35@@ 10417
beating 10418
vorübergehend 10419
Bere@@ 10420
angriff 10421
ram 10422
noticed 10423
entspricht 10424
id-@@ 10425
kun@@ 10426
eastern 10427
Gei@@ 10428
ti 10429
Kop@@ 10430
ila 10431
besitzt 10432
communication 10433
itors 10434
ON@@ 10435
Hem@@ 10436
nomination 10437
applications 10438
ames 10439
Englands 10440
Miss@@ 10441
chosen 10442
atmosphere 10443
lowest 10444
brutal 10445
bekannten 10446
Arab 10447
featuring 10448
reagierte 10449
dauert 10450
keit@@ 10451
argumentieren 10452
Assembly 10453
medicine 10454
zerstört 10455
1,5 10456
compete 10457
scores 10458
resume 10459
FOTO 10460
Ant@@ 10461
detail 10462
extent 10463
packed 10464
reicht 10465
Alb@@ 10466
intense 10467
Jesus 10468
Hü@@ 10469
93 10470
gatherings 10471
recover 10472
departure 10473
Ashley 10474
durchzuführen 10475
Kein 10476
Jake 10477
sicherheit 10478
exposure 10479
gling 10480
Appe@@ 10481
05 10482
requirements 10483
cky 10484
entscheidender 10485
funded 10486
famili@@ 10487
Laden 10488
Tw@@ 10489
89 10490
sty 10491
ät@@ 10492
gut@@ 10493
Jahrzehnte 10494
Bars 10495
G-@@ 10496
Schaffung 10497
Eth@@ 10498
legung 10499
irgendetwas 10500
höheren 10501
afraid 10502
universities 10503
springen 10504
umfassen 10505
Stellen 10506
affairs 10507
Story 10508
Kommunikation 10509
Koh@@ 10510
agne 10511
amp 10512
zusammenarbeiten 10513
Fluggesellschaften 10514
tägliche 10515
closure 10516
musst 10517
meas@@ 10518
Verteidigungs@@ 10519
milit@@ 10520
Crew 10521
Anhänger 10522
Innings 10523
digten 10524
ached 10525
take@@ 10526
euch 10527
awareness 10528
ago@@ 10529
Stand 10530
mixed 10531
histor@@ 10532
Juli@@ 10533
ruf 10534
ergab 10535
drehte 10536
Hau@@ 10537
Arm 10538
mischen 10539
Benjamin 10540
Moon 10541
Stanley 10542
Chem@@ 10543
Wind@@ 10544
fonds 10545
wachsende 10546
aching 10547
stör@@ 10548
Brussels 10549
veranlasste 10550
leich@@ 10551
Sony 10552
safely 10553
frei@@ 10554
shocked 10555
erhöh@@ 10556
Autoren 10557
üb@@ 10558
smo@@ 10559
announce 10560
aufzubauen 10561
Eastern 10562
Yu@@ 10563
geschah 10564
Zölle 10565
bern 10566
massiven 10567
diagno@@ 10568
Arthur 10569
predicted 10570
umgehen 10571
apped 10572
belong@@ 10573
Sah@@ 10574
Gas 10575
tool 10576
hotels 10577
zukünftigen 10578
zitiert 10579
CN@@ 10580
Ring 10581
Zunahme 10582
gegen@@ 10583
Dete@@ 10584
dal 10585
fair@@ 10586
slowly 10587
Feu@@ 10588
gam@@ 10589
terrorism 10590
Babys 10591
Kämpfer 10592
consecutive 10593
absence 10594
Hersteller 10595
Zweck 10596
Etwa 10597
extra@@ 10598
ima 10599
Missouri 10600
settled 10601
heim@@ 10602
lebten 10603
Davies 10604
schüt@@ 10605
tam@@ 10606
incidents 10607
successfully 10608
kid 10609
meal 10610
AI 10611
nein 10612
unknown 10613
Haf@@ 10614
cell@@ 10615
waters 10616
Rus@@ 10617
genossen 10618
Barry 10619
drew 10620
Zone 10621
ae@@ 10622
überwachen 10623
sentenced 10624
crazy 10625
Kingdom 10626
backing 10627
Perhaps 10628
Fahrzeuge 10629
fa 10630
änder@@ 10631
Speaker 10632
Lincoln 10633
outdoor 10634
Eigentum 10635
Nam@@ 10636
gathering 10637
sinken 10638
senator 10639
Train@@ 10640
resident 10641
Season 10642
strategic 10643
enting 10644
partei@@ 10645
97 10646
Jan. 10647
visits 10648
Patel 10649
stärk@@ 10650
Day@@ 10651
treiben 10652
Policy 10653
Portugal 10654
comm@@ 10655
literally 10656
achieved 10657
militärische 10658
Exchange 10659
retirement 10660
Ermittlungen 10661
Mars 10662
investigators 10663
Denver 10664
genauso 10665
covers 10666
gif@@ 10667
minor 10668
Teilnahme 10669
kan 10670
Freilassung 10671
hig@@ 10672
perfekte 10673
collabor@@ 10674
Absol@@ 10675
Pittsburgh 10676
Atmosphäre 10677
Forsch@@ 10678
Without 10679
Zeitplan 10680
inen 10681
WASHINGTON 10682
stimulus 10683
Mensch 10684
by-@@ 10685
arten 10686
Recht@@ 10687
verrückt 10688
perspective 10689
ändert 10690
voran@@ 10691
formal 10692
zeichneten 10693
Big@@ 10694
ania 10695
blockieren 10696
Mittelfeldspieler 10697
dau@@ 10698
rey 10699
bank@@ 10700
recognition 10701
Beschwerde 10702
passen 10703
sitzt 10704
Konferenz 10705
dispute 10706
betrifft 10707
betroffenen 10708
Prinzessin 10709
ud 10710
Ras@@ 10711
entschlossen 10712
gig@@ 10713
funny 10714
Fort 10715
recession 10716
bestehenden 10717
reiche 10718
bran@@ 10719
indicated 10720
Stress 10721
aufzunehmen 10722
overseas 10723
Zahlungen 10724
uro@@ 10725
Waffe 10726
WhatsApp 10727
polling 10728
cker@@ 10729
AD@@ 10730
Kh@@ 10731
verbot 10732
weekly 10733
Brett 10734
ligh@@ 10735
fits 10736
voter 10737
orte 10738
klein@@ 10739
Mut@@ 10740
Edwards 10741
newly 10742
herr@@ 10743
versprochen 10744
ruhig 10745
capit@@ 10746
PG 10747
Einklang 10748
Konflikt 10749
inflation 10750
golf 10751
Weile 10752
falschen 10753
dol@@ 10754
noti@@ 10755
Carlos 10756
Kranken@@ 10757
bestimmen 10758
digungen 10759
requests 10760
Second 10761
begrenzt 10762
Andrews 10763
Lohn@@ 10764
industri@@ 10765
ques 10766
ED 10767
ify 10768
electoral 10769
Metropolitan 10770
counted 10771
reputation 10772
ding@@ 10773
politisch 10774
Sat@@ 10775
ener@@ 10776
monitoring 10777
Glas@@ 10778
94 10779
tears 10780
äch@@ 10781
Führungskräfte 10782
ologische 10783
iz 10784
peaceful 10785
Arteta 10786
assist 10787
Wimbledon 10788
Hitze 10789
Garden 10790
durchführen 10791
tour@@ 10792
ahn@@ 10793
exist 10794
Booker 10795
chaos 10796
1993 10797
Begriff 10798
Cul@@ 10799
err@@ 10800
Riv@@ 10801
drove 10802
ield 10803
durchschnittliche 10804
kommen@@ 10805
defen@@ 10806
Ros@@ 10807
normalen 10808
sparen 10809
urban 10810
pollution 10811
ja@@ 10812
Bayern 10813
Satz 10814
trainieren 10815
Online 10816
getrieben 10817
Juan 10818
Tatsächlich 10819
Rollen 10820
Untersuchungen 10821
tically 10822
Johnsons 10823
Wur@@ 10824
chicken 10825
native 10826
escal@@ 10827
vac@@ 10828
strikes 10829
91 10830
seit@@ 10831
Mari@@ 10832
Duchess 10833
technolog@@ 10834
detained 10835
immigrants 10836
stal@@ 10837
settlement 10838
begeistert 10839
RC 10840
fern@@ 10841
Nicht-@@ 10842
stabil@@ 10843
ito 10844
yellow 10845
Kapit@@ 10846
cast@@ 10847
unders 10848
Weltmeisterschaft 10849
cabinet 10850
desto 10851
räumen 10852
norm@@ 10853
Sometimes 10854
dding 10855
mile 10856
grund@@ 10857
oberste 10858
sprache 10859
sektor 10860
markt@@ 10861
Fen@@ 10862
contacted 10863
erlitt 10864
Castle 10865
homeless 10866
championship 10867
E. 10868
editor 10869
fie 10870
lot@@ 10871
Herzogin 10872
addressed 10873
ütz@@ 10874
Bun@@ 10875
snow 10876
witz 10877
moral 10878
-off 10879
Vic@@ 10880
Projekte 10881
differences 10882
celebrated 10883
boyfriend 10884
Chef@@ 10885
ints 10886
NH@@ 10887
lar@@ 10888
folge 10889
fährt 10890
umm@@ 10891
Ahmed 10892
Berat@@ 10893
evol@@ 10894
erer 10895
context 10896
Dick@@ 10897
interpre@@ 10898
Lennon 10899
monitor 10900
managers 10901
ry@@ 10902
staff@@ 10903
jump 10904
striker 10905
encouraging 10906
versuche 10907
blieben 10908
UN-@@ 10909
discrimination 10910
cia 10911
Chiefs 10912
drück@@ 10913
Leader 10914
lea@@ 10915
testimony 10916
Cent 10917
femin@@ 10918
frühe 10919
Nad@@ 10920
taste 10921
bildung 10922
Rot@@ 10923
battery 10924
kostenlose 10925
berater 10926
Vorschläge 10927
blin@@ 10928
suffer 10929
Fleisch 10930
Narendra 10931
Gemeinde 10932
Prüfung 10933
fruit 10934
formen 10935
Sullivan 10936
bery 10937
aria 10938
Diskussion 10939
Ermittler 10940
musical 10941
mung 10942
enh@@ 10943
Camp 10944
twe@@ 10945
connect 10946
Kleid 10947
campaigns 10948
boy@@ 10949
ien@@ 10950
Holz@@ 10951
hrt 10952
Lucas 10953
Av@@ 10954
Len@@ 10955
staaten 10956
enttäuscht 10957
abkommen 10958
jet 10959
pain@@ 10960
LE 10961
stimmt 10962
rapid 10963
Anstrengung 10964
pet 10965
clash 10966
prakti@@ 10967
Rechnung 10968
Farage 10969
lobte 10970
erstellen 10971
childhood 10972
Filmmaterial 10973
lauf 10974
flu 10975
establish 10976
autor@@ 10977
sti@@ 10978
fel 10979
Brooks 10980
Tränen 10981
Uganda 10982
mainly 10983
accurate 10984
Vent@@ 10985
Katastrophe 10986
Aberdeen 10987
Überschwemmungen 10988
Mobil@@ 10989
Vin@@ 10990
Präsidentschafts@@ 10991
14.@@ 10992
mist@@ 10993
überwälti@@ 10994
verstanden 10995
aling 10996
Bolsonaro 10997
gesund 10998
Ö@@ 10999
zurückzuführen 11000
neys 11001
igte 11002
ddy 11003
jumped 11004
Lane 11005
prü@@ 11006
Verkehr 11007
verbreiten 11008
ced 11009
casting 11010
iller 11011
igten 11012
Cross 11013
Menschen@@ 11014
Hotel@@ 11015
emen 11016
petition 11017
erholen 11018
Wind 11019
Überraschung 11020
Kraft@@ 11021
Sophie 11022
forest 11023
amo@@ 11024
Billionen 11025
Nation@@ 11026
dien 11027
fas@@ 11028
invest 11029
nominee 11030
Connor 11031
Gem@@ 11032
Marie 11033
mul@@ 11034
Stürmer 11035
letz@@ 11036
darstellen 11037
Kreuz@@ 11038
Douglas 11039
answers 11040
versorgung 11041
Get@@ 11042
Harrison 11043
Emer@@ 11044
bow 11045
abteilung 11046
Student 11047
räu@@ 11048
aufen 11049
ices 11050
clas@@ 11051
protecting 11052
verzeichnete 11053
Koalition 11054
basketball 11055
abl@@ 11056
Songs 11057
küste 11058
stadium 11059
state-@@ 11060
engagement 11061
lay@@ 11062
appearances 11063
Beau@@ 11064
collected 11065
Gesetzgebung 11066
vertrag 11067
Shows 11068
mäß@@ 11069
kün@@ 11070
Stuart 11071
ativer 11072
isierten 11073
legacy 11074
tten 11075
Oper@@ 11076
Parker 11077
europäische 11078
Entwicklungs@@ 11079
AT 11080
lad@@ 11081
wise 11082
bear 11083
dynam@@ 11084
90@@ 11085
crore 11086
ranked 11087
energ@@ 11088
Wayne 11089
profits 11090
compar@@ 11091
creation 11092
tions@@ 11093
worn 11094
erei 11095
trinken 11096
20,000 11097
grateful 11098
bod 11099
multi-@@ 11100
plat@@ 11101
ologischen 11102
ay-@@ 11103
complicated 11104
Krankenhäusern 11105
deh@@ 11106
Grace 11107
Protesten 11108
barely 11109
besagt 11110
Verzögerung 11111
freue 11112
expecting 11113
Küsten@@ 11114
neighborhood 11115
zahlung 11116
thus 11117
reduction 11118
Sogar 11119
teenager 11120
expansion 11121
praised 11122
refugees 11123
Fa@@ 11124
unterstützte 11125
rank 11126
defender 11127
deep@@ 11128
reagiert 11129
schießen 11130
Zwei-@@ 11131
ision 11132
executives 11133
Lad@@ 11134
Gerät 11135
Loch 11136
hinunter 11137
Boot 11138
haltung 11139
erwartete 11140
mere 11141
Zw@@ 11142
calm 11143
Hinweis 11144
zentr@@ 11145
Charaktere 11146
Express 11147
proposals 11148
contracts 11149
ager 11150
reichte 11151
trainer 11152
wur@@ 11153
Cra@@ 11154
Handel@@ 11155
fron@@ 11156
administ@@ 11157
Vielfalt 11158
Phil@@ 11159
pictured 11160
nehmer 11161
opens 11162
commun@@ 11163
Arts 11164
Verkäufe 11165
verpasste 11166
Entschuldigung 11167
Mex@@ 11168
Review 11169
Morris 11170
registriert 11171
diplom@@ 11172
Tac@@ 11173
ausgewählt 11174
lover 11175
cooperation 11176
Zim@@ 11177
überzeugt 11178
Heimat@@ 11179
digitalen 11180
anbieten 11181
river 11182
asylum 11183
hydro@@ 11184
Ole 11185
Drit@@ 11186
broader 11187
Ernährung 11188
fields 11189
jur@@ 11190
ausländischen 11191
Scar@@ 11192
Eff@@ 11193
Traum 11194
angeblichen 11195
pot@@ 11196
Cru@@ 11197
diverse 11198
Chel@@ 11199
äger 11200
Flynn 11201
Information 11202
geräte 11203
Luk@@ 11204
beschreibt 11205
aving 11206
nachhal@@ 11207
VA@@ 11208
1991 11209
advertising 11210
Aut@@ 11211
Larry 11212
eigen@@ 11213
correc@@ 11214
Southampton 11215
pause 11216
Rou@@ 11217
stum@@ 11218
Whether 11219
tho@@ 11220
Stu@@ 11221
sens@@ 11222
16-@@ 11223
Sterling 11224
Radi@@ 11225
prohib@@ 11226
Sum@@ 11227
Aussagen 11228
rt 11229
schnitt 11230
konkur@@ 11231
vent 11232
öch@@ 11233
Singapore 11234
rating 11235
Ocasio-Cortez 11236
bond 11237
Tasche 11238
radik@@ 11239
cle 11240
prize 11241
AC 11242
sessions 11243
offs 11244
quarterback 11245
forever 11246
Jack@@ 11247
USC 11248
berry 11249
pa 11250
ashing 11251
waves 11252
Syrian 11253
profession@@ 11254
File 11255
Sich@@ 11256
diente 11257
liked 11258
Todesfällen 11259
warnt 11260
Gleich@@ 11261
NATO 11262
Einstellung 11263
F.@@ 11264
Vit@@ 11265
PC@@ 11266
Abu 11267
HS 11268
Greater 11269
verd@@ 11270
ed-@@ 11271
damaged 11272
bow@@ 11273
walls 11274
apparent 11275
Merk@@ 11276
Funktion 11277
Australiens 11278
ef 11279
Ausbruchs 11280
kar 11281
Reser@@ 11282
shoot 11283
Krankenschwestern 11284
representing 11285
sman 11286
feelings 11287
sä@@ 11288
manner 11289
broad 11290
Büro@@ 11291
Cruz 11292
Sweden 11293
kommens 11294
Guardiola 11295
'We 11296
linge 11297
everywhere 11298
detention 11299
anzen 11300
schwierigen 11301
vention 11302
quis@@ 11303
lunch 11304
ziel@@ 11305
krebs 11306
Förderung 11307
Essex 11308
tter 11309
vertrau@@ 11310
Kredite 11311
Erdogan 11312
Store 11313
Bond 11314
Europäische 11315
planes 11316
fet@@ 11317
milk 11318
gebildet 11319
Rick 11320
mem@@ 11321
künst@@ 11322
verpassen 11323
abgesch@@ 11324
Afri@@ 11325
acqu@@ 11326
Fluggesellschaft 11327
ym 11328
distribution 11329
Tweets 11330
Chr@@ 11331
Jer@@ 11332
indische 11333
Mod@@ 11334
rugby 11335
Ange@@ 11336
gerte 11337
andau@@ 11338
Dingen 11339
regierung 11340
Chase 11341
englischen 11342
Garten 11343
Brenn@@ 11344
liter@@ 11345
Kul@@ 11346
cm 11347
investments 11348
I. 11349
fitness 11350
are-@@ 11351
Make 11352
buyers 11353
walks 11354
serves 11355
cruise 11356
Down 11357
cooking 11358
Sozi@@ 11359
unfair 11360
Tas@@ 11361
Tyler 11362
resort 11363
rechtliche 11364
ds@@ 11365
con 11366
strain 11367
midfielder 11368
eingestellt 11369
hosted 11370
bekannte 11371
deutsche 11372
klare 11373
deutet 11374
Hus@@ 11375
ancy 11376
Which 11377
Wochen@@ 11378
Staats- 11379
Moderator 11380
disappointed 11381
üssen 11382
nav@@ 11383
adopted 11384
milli@@ 11385
counsel 11386
sufficient 11387
übertragen 11388
beinhaltete 11389
asted 11390
Generalstaatsanwalt 11391
Werk 11392
wohlhab@@ 11393
erfahr@@ 11394
krat@@ 11395
entscheidend 11396
economies 11397
Mess@@ 11398
1.5 11399
Gall@@ 11400
getrennt 11401
genehmigt 11402
echten 11403
Premierministers 11404
smoke 11405
anzugehen 11406
Eri@@ 11407
einz@@ 11408
Memorial 11409
Strictly 11410
aced 11411
schlägen 11412
resulted 11413
Cox 11414
Kundgebung 11415
criticized 11416
welcomed 11417
esischen 11418
Armut 11419
prob@@ 11420
stärksten 11421
industries 11422
equity 11423
icht@@ 11424
vorher 11425
schle@@ 11426
Einrichtung 11427
rier 11428
path@@ 11429
NI@@ 11430
turing 11431
Let@@ 11432
ologen 11433
Teil@@ 11434
trieb@@ 11435
Olympischen 11436
Gesichts@@ 11437
Jahrhunderts 11438
correct 11439
Must@@ 11440
tain 11441
Hear@@ 11442
nett 11443
winners 11444
ris 11445
rs 11446
emerging 11447
Jets 11448
Popul@@ 11449
fic@@ 11450
narrative 11451
lustig 11452
legs 11453
unch 11454
erfol@@ 11455
Trafford 11456
Bis@@ 11457
oney 11458
position@@ 11459
deln 11460
ologe 11461
stressed 11462
schwierige 11463
Vier@@ 11464
left-@@ 11465
einzelne 11466
antwortet 11467
aka 11468
preis 11469
zieh@@ 11470
Ori@@ 11471
electricity 11472
Given 11473
Amerikanern 11474
loses 11475
Us 11476
igation 11477
Real@@ 11478
foot@@ 11479
file 11480
meist 11481
richtung 11482
prim@@ 11483
Telegraph 11484
nissen 11485
Erwachsenen 11486
crowds 11487
emphas@@ 11488
öpf@@ 11489
lik@@ 11490
water@@ 11491
ikan@@ 11492
anim@@ 11493
weibliche 11494
endor@@ 11495
Anrufe 11496
shoulder 11497
volunteers 11498
zugeben 11499
Befürworter 11500
mess@@ 11501
firma 11502
oning 11503
frame 11504
mache 11505
entliche 11506
wöch@@ 11507
supports 11508
Konten 11509
zweites 11510
beaten 11511
'The 11512
FA@@ 11513
yr 11514
erwähnt 11515
franchise 11516
neuro@@ 11517
Shah 11518
durchschnittlich 11519
promin@@ 11520
Fred 11521
Gange 11522
erstellt 11523
centres 11524
Nigel 11525
Moskau 11526
lows 11527
besondere 11528
Keith 11529
übernahm 11530
oring 11531
erscheint 11532
pic@@ 11533
stro@@ 11534
bewältigen 11535
ring@@ 11536
depression 11537
improving 11538
spä@@ 11539
ffer 11540
Drug 11541
essentially 11542
gerichtet 11543
burning 11544
counter@@ 11545
Bereiche 11546
Regist@@ 11547
wün@@ 11548
mood 11549
Cole 11550
Austausch 11551
tö@@ 11552
Denk@@ 11553
2030 11554
Hawaii 11555
Versammlungen 11556
Derek 11557
filing 11558
reden 11559
Schu@@ 11560
Spencer 11561
Moder@@ 11562
Erhöhung 11563
pension@@ 11564
schten 11565
sectors 11566
Agent 11567
ection 11568
cep@@ 11569
Amanda 11570
Alkohol 11571
Pak@@ 11572
unterstützten 11573
short@@ 11574
reasonable 11575
coaches 11576
kraft@@ 11577
überzeugen 11578
anst@@ 11579
relative 11580
NC@@ 11581
cool@@ 11582
Glau@@ 11583
Fluss 11584
schlafen 11585
Costa 11586
hinzufügen 11587
-to-@@ 11588
anybody 11589
ace@@ 11590
derten 11591
Play 11592
tweets 11593
Kim@@ 11594
Hinsicht 11595
nurses 11596
Akt 11597
Materialien 11598
Erinnerungen 11599
isolieren 11600
alization 11601
Mom@@ 11602
iden 11603
Aff@@ 11604
sible 11605
Haz@@ 11606
assessment 11607
favour 11608
put@@ 11609
Absturz 11610
constantly 11611
hervorrag@@ 11612
teilzunehmen 11613
ow 11614
Zweiten 11615
kleines 11616
Frühjahr 11617
Nutzung 11618
itis 11619
sicht 11620
Jede 11621
unterstütz@@ 11622
Ann 11623
liner 11624
sech@@ 11625
darf 11626
dra 11627
Patri@@ 11628
historical 11629
Impfstoffe 11630
Cab@@ 11631
Tag@@ 11632
life-@@ 11633
read@@ 11634
frie@@ 11635
Ihres 11636
samen 11637
Hä@@ 11638
Maßnahme 11639
Cer@@ 11640
gemäß 11641
breaks 11642
impe@@ 11643
geschätzt 11644
struc@@ 11645
BI@@ 11646
Geschmack 11647
sicht@@ 11648
Schmerz 11649
Sü@@ 11650
Utd 11651
stake 11652
Beiträge 11653
shine 11654
Flugzeuge 11655
affordable 11656
Virus@@ 11657
Puerto 11658
postponed 11659
meldete 11660
Alliance 11661
seltsam 11662
blamed 11663
ößen 11664
HS@@ 11665
vie 11666
professionals 11667
enable 11668
istin 11669
junger 11670
gegenüber@@ 11671
Scor@@ 11672
clothing 11673
airlines 11674
Men 11675
congressional 11676
repeated 11677
gehandelt 11678
häus@@ 11679
shore 11680
Umständen 11681
Amtsenthebung 11682
königlichen 11683
splan 11684
tering 11685
estimate 11686
pleaded 11687
erstmals 11688
fi 11689
deter 11690
regard 11691
Fan@@ 11692
powered 11693
zte 11694
therap@@ 11695
Sammlung 11696
power@@ 11697
gie 11698
stammt 11699
Jean 11700
Mexican 11701
märkte 11702
iranischen 11703
Fif@@ 11704
seln 11705
Vaters 11706
constant 11707
angs 11708
lier 11709
Beru@@ 11710
iter 11711
Lungen@@ 11712
dient 11713
hoffentlich 11714
ES 11715
writers 11716
letters 11717
orien 11718
Constitution 11719
Oberfläche 11720
mitglied 11721
dict@@ 11722
1984 11723
Power@@ 11724
dining 11725
schlugen 11726
Sky@@ 11727
flug 11728
Quarterback 11729
jährliche 11730
representative 11731
anhaltende 11732
digkeit 11733
aussieht 11734
fed 11735
Tak@@ 11736
hopefully 11737
Head@@ 11738
bi 11739
teaching 11740
wolle 11741
ensuring 11742
kommentieren 11743
34@@ 11744
ichten 11745
stran@@ 11746
Ev@@ 11747
sinn@@ 11748
Catholic 11749
recru@@ 11750
arly 11751
Epidemie 11752
lec@@ 11753
V-@@ 11754
13-@@ 11755
fielen 11756
Zusammenbruch 11757
switch 11758
NHS-@@ 11759
ects 11760
Aug. 11761
strange 11762
NEW 11763
aggressi@@ 11764
weak 11765
P. 11766
Senats 11767
liefer@@ 11768
centers 11769
Calif 11770
personally 11771
Demokrat 11772
PP@@ 11773
bere@@ 11774
Drei-@@ 11775
scenario 11776
Kurz 11777
solcher 11778
schreckliche 11779
consul@@ 11780
Pfizer 11781
tiefen 11782
aces 11783
over-@@ 11784
parking 11785
Erleichterung 11786
Pro-@@ 11787
Tax@@ 11788
vorgestellt 11789
Arbeiten 11790
stunning 11791
rote 11792
esp@@ 11793
beds 11794
netz@@ 11795
bricht 11796
statt@@ 11797
kommun@@ 11798
dio 11799
Kings 11800
criticised 11801
tea 11802
Inhalte 11803
ollen 11804
surveillance 11805
Distri@@ 11806
Hughes 11807
medizin@@ 11808
dic 11809
selected 11810
Tampa 11811
infl@@ 11812
extr@@ 11813
charging 11814
Bundesstaat 11815
Haust@@ 11816
rough 11817
elements 11818
integr@@ 11819
appl@@ 11820
oph@@ 11821
Kanal 11822
ev 11823
tele@@ 11824
pal 11825
roots 11826
obtained 11827
bike 11828
Infektions@@ 11829
Dim@@ 11830
Forum 11831
dish 11832
listening 11833
kostenlos 11834
Stau@@ 11835
ft-@@ 11836
Tennis 11837
verändern 11838
deployed 11839
protein 11840
med@@ 11841
lingen 11842
20.000 11843
teilungen 11844
theme 11845
Vorschriften 11846
schließ@@ 11847
Bron@@ 11848
Lauren 11849
fortgesetzt 11850
Pandem@@ 11851
frühere 11852
ätze 11853
eas@@ 11854
mert 11855
Hou@@ 11856
Schumer 11857
Hunde 11858
guess 11859
unge@@ 11860
Gebühren 11861
000-@@ 11862
kontrolle 11863
ergriffen 11864
Agenda 11865
Cri@@ 11866
mates 11867
responding 11868
Eröffnung 11869
no-deal 11870
aturen 11871
gehei@@ 11872
Commissioner 11873
revi@@ 11874
abzuhalten 11875
Zo@@ 11876
direktor 11877
quant@@ 11878
Govern@@ 11879
Herstellung 11880
sequ@@ 11881
Kämpfe 11882
buchstäblich 11883
latter 11884
realise 11885
hungen 11886
Giants 11887
yr@@ 11888
alisten 11889
loaded 11890
händler 11891
Colin 11892
aves 11893
birds 11894
ständige 11895
Eve 11896
der-@@ 11897
Offensive 11898
erfüllt 11899
bon 11900
amounts 11901
fige 11902
category 11903
Call 11904
Presse 11905
Athleten 11906
windows 11907
mi 11908
Werte 11909
circ@@ 11910
eskal@@ 11911
scared 11912
liebt 11913
Cent@@ 11914
cleaning 11915
proven 11916
Gefühle 11917
innovative 11918
belast@@ 11919
Helen 11920
lierten 11921
Aufzeichnungen 11922
Deleg@@ 11923
Beobach@@ 11924
num@@ 11925
schockiert 11926
Digital 11927
Ner@@ 11928
Parlamentswahlen 11929
quit 11930
abo@@ 11931
Wiederauf@@ 11932
müssten 11933
Pla@@ 11934
übernommen 11935
hof 11936
Realme 11937
gie@@ 11938
Orlando 11939
ok 11940
Handlungen 11941
tracks 11942
moderate 11943
bom@@ 11944
befürwor@@ 11945
hä@@ 11946
fail 11947
mining 11948
atte 11949
hersteller 11950
appointment 11951
Problemen 11952
iro 11953
od 11954
lessons 11955
Weil 11956
Unruhen 11957
n-@@ 11958
Lock@@ 11959
Säu@@ 11960
deserve 11961
Bezirks@@ 11962
overs 11963
III 11964
Schuss@@ 11965
integri@@ 11966
illu@@ 11967
Hit@@ 11968
negativ 11969
somewhere 11970
Jährigen 11971
past@@ 11972
with@@ 11973
Posten 11974
counties 11975
Filmen 11976
Verlängerung 11977
tent@@ 11978
Lux@@ 11979
25-@@ 11980
ßes 11981
atische 11982
Wohltätigkeitsorganisation 11983
Ny@@ 11984
dian 11985
basically 11986
überzeu@@ 11987
Henderson 11988
realised 11989
beispielsweise 11990
läch@@ 11991
GDP 11992
dagegen 11993
Leonard 11994
arian 11995
auftreten 11996
champions 11997
ml 11998
elite 11999
insul@@ 12000
schaffte 12001
lor@@ 12002
reforms 12003
Maj@@ 12004
Nordkorea 12005
UC@@ 12006
Cros@@ 12007
beinhaltet 12008
isses 12009
Stell@@ 12010
zusammenzuarbeiten 12011
sach@@ 12012
Alternative 12013
divi@@ 12014
Strom 12015
Regisseur 12016
owns 12017
annten 12018
robust 12019
iconic 12020
Lev@@ 12021
missions 12022
ul 12023
book@@ 12024
useful 12025
NB@@ 12026
Aufstieg 12027
Friends 12028
badly 12029
Betrug 12030
Vik@@ 12031
reference 12032
serie 12033
advert@@ 12034
tit@@ 12035
Motor 12036
arch 12037
enger 12038
enko 12039
Water 12040
phy 12041
Age 12042
scheinbar 12043
Clo@@ 12044
participate 12045
appearing 12046
Lea@@ 12047
Dakota 12048
IN 12049
station@@ 12050
nutzt 12051
nat@@ 12052
bekämp@@ 12053
home@@ 12054
awarded 12055
Ric@@ 12056
etti 12057
Qualifik@@ 12058
Fantas@@ 12059
dose 12060
producers 12061
struktur@@ 12062
Saisons 12063
Reed 12064
isierte 12065
Protest@@ 12066
cial 12067
retailers 12068
convinced 12069
nie@@ 12070
produktion 12071
ite@@ 12072
Ron 12073
Front@@ 12074
Nachrichtenagentur 12075
Anforderungen 12076
langfristige 12077
37@@ 12078
Bezirk 12079
critic@@ 12080
Box@@ 12081
funktion@@ 12082
respectively 12083
nutzte 12084
klin@@ 12085
tally 12086
contained 12087
attacking 12088
fes 12089
approximately 12090
Tokio 12091
voc@@ 12092
sexuell 12093
Patriots 12094
resi@@ 12095
Runden 12096
wand 12097
Netz@@ 12098
este 12099
Ministerpräsident 12100
tan 12101
li 12102
jung@@ 12103
AM 12104
.org 12105
buch 12106
bottle 12107
hundred 12108
weder 12109
favor 12110
kts 12111
Atem@@ 12112
taught 12113
Wilder 12114
trotz@@ 12115
faszin@@ 12116
igners 12117
defended 12118
ähr@@ 12119
gy 12120
krie@@ 12121
Wand 12122
wächst 12123
Rec@@ 12124
schrecklichen 12125
Emergency 12126
Brüssel 12127
stellungen 12128
delivering 12129
Poli@@ 12130
Verluste 12131
Zeremonie 12132
verstärkt 12133
siven 12134
tende 12135
lovely 12136
Wach@@ 12137
gesucht 12138
unge 12139
aden@@ 12140
Spei@@ 12141
sigkeit 12142
Nahen 12143
10,@@ 12144
exemp@@ 12145
authors 12146
extre@@ 12147
zielt 12148
koordin@@ 12149
expanded 12150
keiten 12151
arriving 12152
Lucy 12153
Engl@@ 12154
Entfernung 12155
GP 12156
angeführt 12157
Zeug 12158
herum@@ 12159
Komment@@ 12160
colon@@ 12161
asks 12162
nurse 12163
mans 12164
Club@@ 12165
Celebrity 12166
inder 12167
ified 12168
sme@@ 12169
Koll@@ 12170
transform@@ 12171
Place 12172
Boy 12173
embar@@ 12174
fig@@ 12175
gels 12176
schnellen 12177
headquarters 12178
wodurch 12179
tiere 12180
CI@@ 12181
icky 12182
Dennis 12183
währ@@ 12184
Commonwealth 12185
cream 12186
'It 12187
ckten 12188
Hypothe@@ 12189
describe 12190
Swe@@ 12191
Tonnen 12192
solar 12193
immun@@ 12194
iny 12195
ho 12196
enormous 12197
bahn 12198
beunruhig@@ 12199
Officials 12200
Besetzung 12201
Reid 12202
zeug@@ 12203
recording 12204
aims 12205
secured 12206
Anwesen 12207
verletzen 12208
insur@@ 12209
aled 12210
Rassen@@ 12211
tos 12212
umzu@@ 12213
Boys 12214
roo@@ 12215
Impf@@ 12216
warming 12217
Pat 12218
Kräfte 12219
ICE 12220
veränder@@ 12221
verlangsamen 12222
collective 12223
employers 12224
pleased 12225
Crystal 12226
medic@@ 12227
Refer@@ 12228
B.@@ 12229
oming 12230
pass@@ 12231
targeting 12232
Parlaments 12233
ScienceDaily 12234
welt 12235
Smart 12236
Aufnahmen 12237
Open@@ 12238
enter@@ 12239
gelöst 12240
Scho@@ 12241
eased 12242
voices 12243
choices 12244
Grunde 12245
Deshalb 12246
Itali@@ 12247
Zoll@@ 12248
Invest@@ 12249
Linien 12250
Arm@@ 12251
Maharashtra 12252
orn 12253
organisations 12254
plätze 12255
dou@@ 12256
beschä@@ 12257
verheiratet 12258
gression 12259
bot@@ 12260
Formen 12261
goo@@ 12262
bene 12263
Code 12264
Rettungs@@ 12265
handful 12266
Roo@@ 12267
warnen 12268
demanded 12269
Verschiebung 12270
klagen 12271
ign 12272
savings 12273
ehen 12274
Ermordung 12275
räumte 12276
Buck@@ 12277
spielten 12278
odd 12279
urging 12280
Cabinet 12281
zulassen 12282
cup 12283
Marshall 12284
AL 12285
45@@ 12286
fla@@ 12287
Phar@@ 12288
awards 12289
sustained 12290
fishing 12291
knife 12292
deck@@ 12293
wel 12294
Nathan 12295
Al-@@ 12296
fabri@@ 12297
clip 12298
aktu@@ 12299
Ted 12300
impor@@ 12301
temporarily 12302
elo@@ 12303
big@@ 12304
visible 12305
occasion 12306
Las@@ 12307
griffen 12308
Greece 12309
Zust@@ 12310
chemical 12311
Pick 12312
promo@@ 12313
Gulf 12314
Vorsitzenden 12315
experiencing 12316
Ann@@ 12317
list@@ 12318
Ausnahme 12319
Zahlung 12320
omen 12321
fragt 12322
ancing 12323
Botschaften 12324
Lyn@@ 12325
Schriftsteller 12326
strö@@ 12327
ity@@ 12328
verweigert 12329
Bildschir@@ 12330
Ursache 12331
Anzeigen 12332
plate 12333
uten 12334
Climate 12335
fei@@ 12336
versi@@ 12337
psychischen 12338
prov@@ 12339
landed 12340
Isolation 12341
bots 12342
bezog 12343
König@@ 12344
marsch@@ 12345
Af@@ 12346
Fünf@@ 12347
pling 12348
drawing 12349
Ministerium 12350
gelobt 12351
Come@@ 12352
origin@@ 12353
pression 12354
tired 12355
Gewe@@ 12356
30.000 12357
engagieren 12358
Ähn@@ 12359
design@@ 12360
Deputy 12361
Knie 12362
opponent 12363
Kab@@ 12364
Produktions@@ 12365
-Sieg 12366
steten 12367
Stock@@ 12368
killer 12369
providers 12370
äd@@ 12371
Neue 12372
Sunak 12373
hall@@ 12374
Gerichte 12375
Single 12376
thi@@ 12377
Aston 12378
possession 12379
verlust 12380
L. 12381
berühmten 12382
kombin@@ 12383
Bereitstellung 12384
dest 12385
substantial 12386
konservative 12387
Thank 12388
esten 12389
ghter 12390
Produkten 12391
cket 12392
verlässt 12393
recommendations 12394
verwandeln 12395
alert 12396
rarely 12397
margin@@ 12398
Squ@@ 12399
hib@@ 12400
Charak@@ 12401
Universal 12402
rup@@ 12403
bia 12404
Meister 12405
gefüllt 12406
sist@@ 12407
2025 12408
festgelegt 12409
WA@@ 12410
memories 12411
sanit@@ 12412
veröffentlichten 12413
plau@@ 12414
Polizisten 12415
Swift 12416
manipul@@ 12417
Welsh 12418
mom 12419
Farb@@ 12420
beschreiben 12421
producing 12422
Maguire 12423
throwing 12424
ambassador 12425
Haft@@ 12426
richtet 12427
technologies 12428
zent@@ 12429
Bus 12430
scrutiny 12431
Luis 12432
nachzudenken 12433
Captain 12434
concept 12435
zählen 12436
sum 12437
hard-@@ 12438
Hals 12439
S.@@ 12440
Vie@@ 12441
fresh@@ 12442
C. 12443
fünften 12444
warnings 12445
benutzte 12446
ramp@@ 12447
Organ@@ 12448
shel@@ 12449
übergeben 12450
Resi@@ 12451
dressing 12452
Ronaldo 12453
Cann@@ 12454
Netanyahu 12455
Rebecca 12456
ländlichen 12457
Ander@@ 12458
Jazeera 12459
appreci@@ 12460
itt 12461
solange 12462
tent 12463
rushed 12464
withdrawal 12465
eth 12466
solve 12467
remarkable 12468
Argument 12469
Überwachung 12470
strafe 12471
stoß 12472
bra 12473
luck 12474
benef@@ 12475
südlichen 12476
übrig 12477
Mobile 12478
alarm@@ 12479
Ersatz 12480
striking 12481
film@@ 12482
dressed 12483
Juventus 12484
Multi@@ 12485
siv 12486
Regierungschefs 12487
semi-@@ 12488
anyway 12489
Jerry 12490
Min 12491
Program 12492
continent 12493
rail 12494
pub 12495
Mahlzeiten 12496
employed 12497
A. 12498
Thanksgiving 12499
par 12500
see@@ 12501
gles 12502
Dire@@ 12503
Technologien 12504
brothers 12505
vorzu@@ 12506
Struktur 12507
lav@@ 12508
single-@@ 12509
Wy@@ 12510
not@@ 12511
Julian 12512
tile 12513
Vermont 12514
You@@ 12515
odds 12516
zahlt 12517
Vereine 12518
” 12519
Umsetzung 12520
Ausgabe 12521
bewegung 12522
iti 12523
stagmorgen 12524
Spi@@ 12525
verabschiedet 12526
meter 12527
Wettbewer@@ 12528
drin@@ 12529
zwang 12530
gegenseitig 12531
Senatoren 12532
kaufte 12533
Indeed 12534
bly 12535
Nahrung 12536
History 12537
äub@@ 12538
wns 12539
divided 12540
hired 12541
belt 12542
Großen 12543
Windsor 12544
Schock 12545
ennung 12546
nursing 12547
Symp@@ 12548
long@@ 12549
kreu@@ 12550
allgemeine 12551
survived 12552
FT@@ 12553
Mechan@@ 12554
bail 12555
ausgaben 12556
wärts@@ 12557
tur 12558
pum@@ 12559
Blasio 12560
entkommen 12561
filmed 12562
Ingenie@@ 12563
modi@@ 12564
Diskussionen 12565
Ment@@ 12566
isolated 12567
Rashford 12568
traditionelle 12569
Nominierung 12570
nachdenken 12571
Oakland 12572
fasst 12573
flex@@ 12574
pressing 12575
attending 12576
stance 12577
wages 12578
Finance 12579
innov@@ 12580
Rücktritt 12581
Paso 12582
bewerten 12583
ssi@@ 12584
Leitung 12585
Zivil@@ 12586
Lig@@ 12587
Anzeige 12588
Woman 12589
wünschte 12590
ration 12591
observed 12592
schu@@ 12593
Sanchez 12594
relatives 12595
waited 12596
Ear@@ 12597
werte 12598
ktions@@ 12599
ackers 12600
betreibt 12601
ddi@@ 12602
CO 12603
zeug 12604
aj@@ 12605
ktivität 12606
resistance 12607
Zimbabwe 12608
begangen 12609
Arab@@ 12610
explore 12611
landscape 12612
iranische 12613
Seoul 12614
generations 12615
Bewusstsein 12616
tun@@ 12617
pfle@@ 12618
ont@@ 12619
trips 12620
steuer 12621
Come 12622
clock 12623
defending 12624
Termin@@ 12625
sley 12626
Innovation 12627
Stücke 12628
dat@@ 12629
Positionen 12630
method 12631
bende 12632
borne 12633
law@@ 12634
Yang 12635
nights 12636
Loo@@ 12637
fak@@ 12638
whe@@ 12639
Tower 12640
Fili@@ 12641
fizierte 12642
resulting 12643
Johnny 12644
Chic@@ 12645
Lyon 12646
großartige 12647
Zins@@ 12648
Gewerkschaft 12649
Freedom 12650
Schauspiel@@ 12651
Data 12652
bestimmt 12653
Cir@@ 12654
cott 12655
Werbung 12656
COVID-19-Pandemie 12657
freiheit 12658
klei@@ 12659
meanwhile 12660
prosecutor 12661
aufnahme 12662
Standort 12663
intervention 12664
Oberste 12665
Bradley 12666
kicked 12667
Ziel@@ 12668
tradition 12669
Dru@@ 12670
aktive 12671
surprising 12672
übt 12673
fled 12674
silence 12675
beträgt 12676
Liz@@ 12677
conten@@ 12678
EN 12679
Coronavirus-Fälle 12680
feh@@ 12681
counter 12682
sprang 12683
betre@@ 12684
Fortschritt 12685
Bedürfnisse 12686
darstellt 12687
Gesundheitsversorgung 12688
scrip@@ 12689
boxes 12690
accusations 12691
pregnancy 12692
cents 12693
dos 12694
Haushalt 12695
involvement 12696
Bevor 12697
Olympics 12698
Things 12699
rub@@ 12700
tery 12701
Happy 12702
finanzieren 12703
blockiert 12704
hang 12705
loves 12706
klingt 12707
waff@@ 12708
omie 12709
Din@@ 12710
Kauf@@ 12711
Handvoll 12712
neigen 12713
etab@@ 12714
Serge@@ 12715
ific@@ 12716
perfectly 12717
hochrangige 12718
irgendwann 12719
carefully 12720
Milwaukee 12721
Cla@@ 12722
schafft 12723
Stakes 12724
gelesen 12725
Delta 12726
Linda 12727
erforder@@ 12728
Frist 12729
Brandon 12730
haus@@ 12731
besitzer 12732
rounds 12733
östlichen 12734
guest 12735
omin@@ 12736
legend 12737
arguing 12738
Rosen@@ 12739
Zi@@ 12740
Past@@ 12741
Mot@@ 12742
kommission 12743
iri 12744
Kolle@@ 12745
defeated 12746
procedures 12747
landing 12748
lakh 12749
natürliche 12750
Spezi@@ 12751
Fas@@ 12752
vertrauen 12753
aul@@ 12754
UCLA 12755
Girl 12756
comment@@ 12757
Colle@@ 12758
hospit@@ 12759
enjoying 12760
bild 12761
tone 12762
terror 12763
subsi@@ 12764
harassment 12765
emer@@ 12766
stol@@ 12767
stim@@ 12768
Streit 12769
dered 12770
Veteran 12771
Perth 12772
academic 12773
salary 12774
globally 12775
ski@@ 12776
klo@@ 12777
Vorstand 12778
Cum@@ 12779
line-@@ 12780
verursachte 12781
cry 12782
label 12783
volume 12784
verlängern 12785
fundamental 12786
21-@@ 12787
gerung 12788
Contributor 12789
collaboration 12790
Leben@@ 12791
Safety 12792
Krankenschwester 12793
Daher 12794
ems 12795
venture 12796
AB@@ 12797
diabetes 12798
conclu@@ 12799
Kashmir 12800
lett 12801
4,000 12802
seemingly 12803
nei@@ 12804
metal 12805
erlassen 12806
panic 12807
regardless 12808
Tausenden 12809
Tigers 12810
Oli@@ 12811
Wetter@@ 12812
ums@@ 12813
gewöhn@@ 12814
Federation 12815
mad 12816
schwer@@ 12817
lion 12818
coal 12819
Verurteilung 12820
dans 12821
Kategorie 12822
band@@ 12823
vorzubereiten 12824
Einzelpersonen 12825
recogn@@ 12826
Verdächtigen 12827
sla@@ 12828
Noch 12829
kampf 12830
groß@@ 12831
erschüt@@ 12832
stric@@ 12833
advis@@ 12834
Programms 12835
remin@@ 12836
express 12837
unds 12838
Generationen 12839
chy 12840
canceled 12841
Präsenz 12842
CD@@ 12843
ball-@@ 12844
boards 12845
diplomatic 12846
agreements 12847
Je 12848
hung@@ 12849
graduate 12850
physically 12851
episodes 12852
terror@@ 12853
Ab 12854
130 12855
Aufgaben 12856
niedrigen 12857
Julia 12858
welfare 12859
Ob 12860
metres 12861
ethnic 12862
versäumt 12863
blocks 12864
attra@@ 12865
ox@@ 12866
proceedings 12867
plot 12868
Schne@@ 12869
Klobuchar 12870
Einwohner 12871
Hope 12872
loc@@ 12873
Connecticut 12874
funeral 12875
17-@@ 12876
keln 12877
renov@@ 12878
aufrechterhalten 12879
sized 12880
steuer@@ 12881
fighters 12882
auff@@ 12883
Papa 12884
venue 12885
Bewer@@ 12886
requested 12887
Baseball 12888
ty-@@ 12889
aufgedeckt 12890
wash 12891
parliamentary 12892
oll 12893
drinks 12894
Tanz@@ 12895
mode 12896
scar@@ 12897
dominated 12898
begleitet 12899
attempting 12900
Catherine 12901
may@@ 12902
itten 12903
Brad@@ 12904
diskutiert 12905
hardly 12906
celebration 12907
productive 12908
ishes 12909
Later 12910
samples 12911
adequate 12912
Sharma 12913
Rit@@ 12914
ikon@@ 12915
Newsweek 12916
wie@@ 12917
Mö@@ 12918
Fair 12919
zimmer 12920
South@@ 12921
überein@@ 12922
Jahres@@ 12923
ydd 12924
Gat@@ 12925
bestraft 12926
basierend 12927
Diabetes 12928
ativ@@ 12929
geschnitten 12930
Amaz@@ 12931
shed 12932
stirbt 12933
müsse 12934
Pflege 12935
sanc@@ 12936
ration@@ 12937
Spring@@ 12938
Schreiben 12939
abandoned 12940
dering 12941
activ@@ 12942
ible 12943
viewed 12944
feuer 12945
Funktionen 12946
Empfehlungen 12947
chester 12948
räften 12949
anden 12950
Moo@@ 12951
conver@@ 12952
gebiet 12953
hop 12954
dings 12955
Snap@@ 12956
komitee 12957
mistakes 12958
Hir@@ 12959
Mnuchin 12960
Shane 12961
Pflanzen 12962
Macht@@ 12963
fat@@ 12964
boot 12965
Have 12966
pending 12967
Stanford 12968
Saints 12969
isoliert 12970
kämpften 12971
Terry 12972
Lücke 12973
guarantee 12974
Unfortunately 12975
organisiert 12976
chtung 12977
sche@@ 12978
Medikament 12979
festgehalten 12980
fund@@ 12981
Broadway 12982
Sid@@ 12983
Blair 12984
schutz 12985
Geschäften 12986
Ze@@ 12987
asts 12988
-and-@@ 12989
2024 12990
zurückgezogen 12991
Change 12992
reads 12993
gesetze 12994
350 12995
hindern 12996
acceler@@ 12997
zunehmen 12998
äumen 12999
Plastik@@ 13000
Todd 13001
Gray 13002
Gemein@@ 13003
geeignet 13004
Händler 13005
blick 13006
Jugend@@ 13007
Auftrag 13008
gos 13009
beschleunigen 13010
frequ@@ 13011
moderne 13012
Panik 13013
akh 13014
zeugen 13015
zü@@ 13016
wanting 13017
situations 13018
decent 13019
tragedy 13020
Pos@@ 13021
alisierten 13022
Vorsprung 13023
benen 13024
brachten 13025
Gove 13026
zurückgekehrt 13027
Thrones 13028
sechs@@ 13029
hear@@ 13030
East@@ 13031
konstru@@ 13032
ruft 13033
Bein 13034
for-@@ 13035
4.000 13036
ocean 13037
Michel 13038
lower@@ 13039
Weltgesundheitsorganisation 13040
noting 13041
Lesen 13042
grat@@ 13043
downs 13044
permission 13045
discher 13046
Way 13047
Mie@@ 13048
explosion 13049
Faktor 13050
Gesamtzahl 13051
äs@@ 13052
engine 13053
49@@ 13054
lungs@@ 13055
stem 13056
monthly 13057
obligator@@ 13058
ati 13059
Landschaft 13060
Fitness-@@ 13061
üben 13062
Mode 13063
Dancing 13064
flü@@ 13065
Caf@@ 13066
Mehr@@ 13067
lle 13068
Ahnung 13069
ix 13070
Umstände 13071
implemented 13072
erklär@@ 13073
bie@@ 13074
Austritt 13075
omy 13076
MB@@ 13077
ax 13078
verhand@@ 13079
Albert 13080
commit 13081
mith 13082
Bemerkungen 13083
leider 13084
liegenden 13085
west@@ 13086
encing 13087
unternommen 13088
lierung 13089
effekti@@ 13090
deemed 13091
vereinbart 13092
gedrängt 13093
Sprung 13094
ic-@@ 13095
tips 13096
irgend@@ 13097
Chuck 13098
association 13099
Kunden@@ 13100
wirtschaft 13101
hero@@ 13102
sudden 13103
McCarthy 13104
eries 13105
Kay@@ 13106
Marvel 13107
mten 13108
Jay@@ 13109
wahre 13110
veget@@ 13111
McG@@ 13112
UT@@ 13113
karte 13114
delays 13115
Everything 13116
vermis@@ 13117
signal 13118
urge 13119
verw@@ 13120
vo 13121
specialist 13122
qualified 13123
basierte 13124
Frank@@ 13125
tap@@ 13126
equally 13127
Std. 13128
vollständigen 13129
gestohlen 13130
Tap@@ 13131
Carroll 13132
Justizministerium 13133
Leistungen 13134
ätz@@ 13135
Schlafzimmer 13136
updated 13137
gans 13138
berei@@ 13139
stolen 13140
hauptsächlich 13141
Belfast 13142
Streik 13143
Inseln 13144
besitzen 13145
crude 13146
wesentliche 13147
laufenden 13148
noise 13149
updates 13150
Robin 13151
Führern 13152
Fund@@ 13153
alty 13154
neutr@@ 13155
schir@@ 13156
amte 13157
Cancer 13158
treatments 13159
Regime 13160
Versch@@ 13161
dit 13162
Golf@@ 13163
Spor@@ 13164
gele@@ 13165
33@@ 13166
einzelnen 13167
entreprene@@ 13168
Favorit 13169
God@@ 13170
zit@@ 13171
asp@@ 13172
Julie 13173
erb@@ 13174
spike 13175
ständigen 13176
contribute 13177
RELATED 13178
sole 13179
beer 13180
conscious 13181
hinzu@@ 13182
fers 13183
werke 13184
shoes 13185
stände 13186
Kro@@ 13187
towns 13188
natürlichen 13189
Glas 13190
Leser 13191
Money 13192
serviert 13193
consumption 13194
kannte 13195
Systeme 13196
Feier@@ 13197
Neben@@ 13198
jailed 13199
ton-@@ 13200
affili@@ 13201
Pogba 13202
ancient 13203
theast 13204
diagnosis 13205
Event 13206
tionen 13207
momentum 13208
veranstal@@ 13209
dan 13210
guns 13211
Entertainment 13212
tively 13213
Pressemitteilung 13214
Sowohl 13215
kauf@@ 13216
nationaler 13217
zellen 13218
holi@@ 13219
nehm@@ 13220
Ministerpräsidenten 13221
sits 13222
Equ@@ 13223
sexueller 13224
trains 13225
Kie@@ 13226
lehr@@ 13227
capture 13228
equivalent 13229
Erd@@ 13230
GH@@ 13231
Yankees 13232
foundation 13233
billions 13234
E-Mails 13235
ull 13236
cross-@@ 13237
highlighted 13238
Bezos 13239
tracking 13240
appreciate 13241
gefäl@@ 13242
Border 13243
pledged 13244
describes 13245
aufgewachsen 13246
error 13247
honor 13248
zun@@ 13249
virtually 13250
treating 13251
historische 13252
canc@@ 13253
GE 13254
donations 13255
careful 13256
ausgehen 13257
19.@@ 13258
outbreaks 13259
Ärzten 13260
änge 13261
eröffnete 13262
Hochschul@@ 13263
Report 13264
een 13265
singing 13266
nennt 13267
Ten 13268
flug@@ 13269
partly 13270
Gang 13271
Silva 13272
zentralen 13273
Ängste 13274
collect 13275
begrüßt 13276
brand@@ 13277
markiert 13278
auseinander 13279
Pir@@ 13280
Lanka 13281
Exper@@ 13282
einfachen 13283
Mindestens 13284
phe@@ 13285
rest@@ 13286
swing 13287
Mund 13288
rus 13289
aufnehmen 13290
enken 13291
gym 13292
stability 13293
Schluss 13294
gefährdet 13295
aters 13296
extensive 13297
Gle@@ 13298
ides 13299
forderten 13300
hunder@@ 13301
unabhängigen 13302
nose 13303
cheap 13304
rif@@ 13305
Being 13306
mers 13307
immunity 13308
pursue 13309
kampagne 13310
wiederholte 13311
representatives 13312
Innenstadt 13313
sorgfältig 13314
Gareth 13315
efficient 13316
row@@ 13317
Midlands 13318
ential 13319
produz@@ 13320
Karten 13321
v. 13322
Hoo@@ 13323
Ausschuss 13324
kritischen 13325
ashed 13326
30,000 13327
fantast@@ 13328
kehr@@ 13329
sich@@ 13330
anfäng@@ 13331
gru@@ 13332
Vorbereitung 13333
yo 13334
sim@@ 13335
bewer@@ 13336
poin@@ 13337
radical 13338
proce@@ 13339
1988 13340
Nature 13341
banking 13342
smartphone 13343
Sek@@ 13344
Tat@@ 13345
gering 13346
cord 13347
demonstrations 13348
daughters 13349
Rav@@ 13350
AN 13351
ranks 13352
Gabriel 13353
approached 13354
behörden 13355
rator 13356
überwacht 13357
Garcia 13358
atively 13359
Modelle 13360
beantworten 13361
dul@@ 13362
jum@@ 13363
client 13364
realist@@ 13365
compensation 13366
Stan@@ 13367
Sul@@ 13368
Please 13369
Experte 13370
Bild@@ 13371
Walter 13372
schä@@ 13373
begrenzen 13374
drückte 13375
ael 13376
Mack@@ 13377
senators 13378
alisation 13379
onal 13380
SpaceX 13381
Kapoor 13382
rang 13383
Dies@@ 13384
Presse@@ 13385
äußerst 13386
cut@@ 13387
unbedingt 13388
Halbfinale 13389
verärgert 13390
Ocean 13391
Schweden 13392
pattern 13393
Tehran 13394
Partners 13395
outstanding 13396
DS 13397
foods 13398
hill 13399
leistung 13400
O-@@ 13401
typical 13402
wy 13403
wandte 13404
Mi 13405
Feh@@ 13406
Schi@@ 13407
roof 13408
1980s 13409
kostet 13410
Hot 13411
Task 13412
gear 13413
Die@@ 13414
spür@@ 13415
Bobby 13416
as-@@ 13417
grenze 13418
Witz 13419
Dest@@ 13420
geladen 13421
istic 13422
1990s 13423
fizierung 13424
Nicole 13425
processes 13426
wirksam 13427
Hey 13428
publication 13429
entworfen 13430
orie 13431
train@@ 13432
improvement 13433
Megan 13434
1980 13435
Feb. 13436
tion-@@ 13437
unterzeichnen 13438
militärischen 13439
march 13440
Cal 13441
bone 13442
2023 13443
prognostiziert 13444
Satell@@ 13445
spezi@@ 13446
trends 13447
gepostet 13448
stür@@ 13449
ader 13450
Pflege@@ 13451
Nationalen 13452
quo 13453
Impfstoff@@ 13454
plant@@ 13455
Deck@@ 13456
Market@@ 13457
massi@@ 13458
Episoden 13459
Ron@@ 13460
Kommun@@ 13461
oh 13462
wahrscheinlicher 13463
ons@@ 13464
geschützt 13465
maintained 13466
semble 13467
erledigen 13468
enkt 13469
Nigeri@@ 13470
polit@@ 13471
kleinere 13472
objec@@ 13473
Stadion 13474
ess-@@ 13475
Marc 13476
ordinary 13477
liefert 13478
visu@@ 13479
schein@@ 13480
Sign@@ 13481
Fris@@ 13482
teure 13483
progressi@@ 13484
Keir 13485
Jes@@ 13486
adop@@ 13487
Angriffs 13488
holte 13489
crowded 13490
occur 13491
verstehe 13492
startet 13493
Read 13494
announcing 13495
wirkt 13496
beeindruckt 13497
digte 13498
Premiership 13499
Schottlands 13500
herz@@ 13501
depth 13502
droht 13503
bread 13504
begrenzte 13505
wechseln 13506
ungewöhnlich 13507
rollen 13508
zweiter 13509
tension 13510
quarters 13511
decor@@ 13512
infectious 13513
1987 13514
ikes 13515
ital 13516
Rice 13517
Staatsanwaltschaft 13518
äter 13519
acey 13520
inher@@ 13521
exklu@@ 13522
zwar 13523
concentr@@ 13524
survival 13525
Geheimdienst@@ 13526
emails 13527
ingredients 13528
weapon 13529
Jen@@ 13530
Corn@@ 13531
arts 13532
Amber 13533
gonna 13534
2.5 13535
2-1 13536
dead@@ 13537
regionalen 13538
anymore 13539
Airways 13540
Latin 13541
Fak@@ 13542
replacement 13543
Arbeitslosen@@ 13544
schei@@ 13545
5m 13546
Freund@@ 13547
konferenz 13548
schrift 13549
Anstatt 13550
Girls 13551
Handelsabkommen 13552
Storm 13553
Mick 13554
Muster 13555
Researchers 13556
senen 13557
somehow 13558
Sig@@ 13559
babies 13560
gnisse 13561
undet 13562
enorme 13563
emon@@ 13564
stoffen 13565
gefahren 13566
joke 13567
Ä@@ 13568
horror 13569
genügend 13570
edd 13571
controls 13572
Emissionen 13573
wling 13574
dnis 13575
gebühren 13576
oles@@ 13577
haf@@ 13578
Cath@@ 13579
Mili@@ 13580
cleared 13581
Polit@@ 13582
abstimmen 13583
Klim@@ 13584
statist@@ 13585
was@@ 13586
befür@@ 13587
Klei@@ 13588
genetic 13589
lement 13590
Spenden 13591
organiz@@ 13592
unlike 13593
valuable 13594
maj@@ 13595
per-@@ 13596
akti@@ 13597
filling 13598
Tragödie 13599
survi@@ 13600
sert 13601
picking 13602
mer-@@ 13603
Racing 13604
passion 13605
pink 13606
Holl@@ 13607
suchte 13608
depending 13609
-of-@@ 13610
rechtlichen 13611
Gesundheitsminister 13612
Sänger 13613
kas 13614
Meisterschaft 13615
irgendwelche 13616
Organis@@ 13617
loser 13618
quo@@ 13619
tioned 13620
reiste 13621
agen@@ 13622
kne@@ 13623
herauszu@@ 13624
Convention 13625
lichste 13626
grant 13627
Match 13628
lev@@ 13629
cla@@ 13630
John@@ 13631
gerei@@ 13632
journal 13633
theit 13634
erhebliche 13635
than@@ 13636
Call@@ 13637
cats 13638
elimin@@ 13639
shaw 13640
Territ@@ 13641
Forderung 13642
Malaysia 13643
passt 13644
bü@@ 13645
monat@@ 13646
Regierungsbe@@ 13647
Ruhe 13648
Vier 13649
Emirates 13650
bevorstehenden 13651
verwandelt 13652
999 13653
Mik@@ 13654
pupils 13655
theater 13656
Stein@@ 13657
Mem@@ 13658
Lot@@ 13659
schienen 13660
Abschnitt 13661
wäh@@ 13662
alist@@ 13663
Sally 13664
script 13665
politically 13666
Sciences 13667
Bad@@ 13668
öh@@ 13669
school@@ 13670
italienischen 13671
constitu@@ 13672
perpet@@ 13673
flooding 13674
regulatory 13675
ID@@ 13676
shocking 13677
schaft@@ 13678
Kontakt@@ 13679
ganzes 13680
geplanten 13681
Muslims 13682
Gunnar 13683
dropping 13684
gründen 13685
brillan@@ 13686
zerstör@@ 13687
krit@@ 13688
Oval 13689
Abbott 13690
Software 13691
Goldman 13692
lifestyle 13693
entdeckte 13694
ktur 13695
ultimate 13696
Stacey 13697
Bennett 13698
doc@@ 13699
mig@@ 13700
acing 13701
herausforder@@ 13702
Reformen 13703
Übergang 13704
adap@@ 13705
besie@@ 13706
Tai@@ 13707
Wild 13708
lick 13709
gence 13710
Farben 13711
12,@@ 13712
abil@@ 13713
aler@@ 13714
PM@@ 13715
Guy 13716
discovery 13717
Jahres-@@ 13718
Eigenschaften 13719
earth 13720
Wang 13721
wildlife 13722
ula 13723
camps 13724
impressed 13725
locken 13726
Masters 13727
Tesco 13728
wl 13729
Computer 13730
tter@@ 13731
Hits 13732
expor@@ 13733
.C. 13734
gesunde 13735
alo@@ 13736
Archite@@ 13737
oli 13738
stitu@@ 13739
Dutch 13740
niemanden 13741
verbreitete 13742
15.@@ 13743
humanitarian 13744
resolve 13745
Ukrainian 13746
breakfast 13747
disruption 13748
Perspektive 13749
Kris@@ 13750
tok@@ 13751
counting 13752
Verringerung 13753
IB@@ 13754
mption 13755
abin@@ 13756
ected 13757
transl@@ 13758
Stamm@@ 13759
associate 13760
protestieren 13761
Gesetz@@ 13762
risk@@ 13763
int@@ 13764
comprehensive 13765
Industrial 13766
Boss 13767
underlying 13768
Prof. 13769
entation 13770
mountain 13771
Mohamed 13772
hierher 13773
flag@@ 13774
Baum@@ 13775
freut 13776
s. 13777
Joint 13778
Run@@ 13779
Tele@@ 13780
Archie 13781
cen@@ 13782
controversy 13783
fäh@@ 13784
abhalten 13785
Andrea 13786
Institution 13787
klasse 13788
Coach 13789
behaupteten 13790
Netto@@ 13791
Betracht 13792
Tum@@ 13793
Palestinian 13794
year-old 13795
ailed 13796
spon@@ 13797
Water@@ 13798
Anlage 13799
bad@@ 13800
evalu@@ 13801
gab@@ 13802
districts 13803
gewe@@ 13804
hidden 13805
verheer@@ 13806
swimming 13807
Beit@@ 13808
besu@@ 13809
accompl@@ 13810
Künst@@ 13811
Versicher@@ 13812
podcast 13813
interess@@ 13814
stig@@ 13815
finanz@@ 13816
Burns 13817
Wes@@ 13818
Kit@@ 13819
nick@@ 13820
Kell@@ 13821
Sitz@@ 13822
introduce 13823
engineering 13824
smile 13825
eggs 13826
Milliarde 13827
pan 13828
venues 13829
Landwirtschaft 13830
ico 13831
mitgliedern 13832
gewachsen 13833
Andre@@ 13834
ignorieren 13835
wahlen 13836
ernsthaft 13837
TO 13838
impacts 13839
Samuel 13840
Paket 13841
impose 13842
Islam 13843
Ellis 13844
vorbei@@ 13845
amt 13846
Flo@@ 13847
lane 13848
less@@ 13849
Woo@@ 13850
Rodriguez 13851
lab 13852
focusing 13853
vorhanden 13854
bewertet 13855
sporting 13856
ll@@ 13857
Diplom@@ 13858
langfristigen 13859
schaute 13860
Jung@@ 13861
register 13862
ausgeben 13863
iss@@ 13864
CBD 13865
weis@@ 13866
dende 13867
theatre 13868
Stokes 13869
Again 13870
challenged 13871
finanziert 13872
überraschend 13873
cris@@ 13874
missile 13875
kop@@ 13876
schwanger 13877
ographie 13878
blas@@ 13879
Jenn@@ 13880
Lager@@ 13881
Adv@@ 13882
baseball 13883
Klassen@@ 13884
istics 13885
reliable 13886
deshalb 13887
verfassungs@@ 13888
organised 13889
Senats@@ 13890
Elliott 13891
IM@@ 13892
verletzungen 13893
offene 13894
Poll@@ 13895
pft 13896
aut@@ 13897
schieben 13898
cloud 13899
suspension 13900
hopeful 13901
Carrie 13902
Adelaide 13903
health@@ 13904
Mo 13905
Promin@@ 13906
iest 13907
Comp@@ 13908
kompliz@@ 13909
therapie 13910
Mercedes 13911
32@@ 13912
Claire 13913
ziehung 13914
brenn@@ 13915
Partner@@ 13916
gather 13917
complained 13918
engag@@ 13919
wealthy 13920
willkommen 13921
Analyst 13922
lington 13923
PlayStation 13924
ification 13925
ignored 13926
tnis 13927
ol-@@ 13928
filming 13929
Famili@@ 13930
sCredit 13931
seventh 13932
Ausstellung 13933
Einzelhändler 13934
Zuckerberg 13935
Bildern 13936
pages 13937
politician 13938
Diam@@ 13939
Gates 13940
sleeping 13941
Freitag@@ 13942
Empf@@ 13943
tox@@ 13944
closures 13945
kümmert 13946
lok@@ 13947
olle@@ 13948
angemessen 13949
shadow 13950
Schönheit 13951
Abkommens 13952
Einigung 13953
Starmer 13954
ät 13955
actively 13956
stamm@@ 13957
Gan@@ 13958
condem@@ 13959
Zer@@ 13960
Brust@@ 13961
Haar 13962
Vorstellung 13963
negoti@@ 13964
anticipated 13965
exports 13966
akzeptiert 13967
implement 13968
Rent@@ 13969
beobachtete 13970
Musi@@ 13971
fehlt 13972
Alamy 13973
Streitkräfte 13974
blind 13975
dimen@@ 13976
globe 13977
Zweit@@ 13978
Halloween 13979
Amendment 13980
self 13981
SD@@ 13982
gelte 13983
Rechnungen 13984
Poland 13985
aven 13986
rebounds 13987
erneu@@ 13988
UC 13989
Aufgrund 13990
populations 13991
Reichweite 13992
wasser 13993
unken 13994
Nigerian 13995
Flor@@ 13996
BR@@ 13997
J.@@ 13998
anding 13999
screening 14000
zuzu@@ 14001
gewährt 14002
Off 14003
hes@@ 14004
guards 14005
anerkannt 14006
Transfer@@ 14007
verbrechen 14008
beru@@ 14009
angle 14010
innovation 14011
jub@@ 14012
heißen 14013
steuern 14014
waffen 14015
cook 14016
divorce 14017
Entdeckung 14018
thin 14019
belieb@@ 14020
Alters@@ 14021
Corp 14022
Szenen 14023
09 14024
Reform 14025
WWE 14026
gebe 14027
Performance 14028
hypo@@ 14029
ISIS 14030
W-@@ 14031
mae 14032
Fashion 14033
16.@@ 14034
DP 14035
citizenship 14036
bre 14037
resigned 14038
graph@@ 14039
exhib@@ 14040
Tot@@ 14041
denz 14042
offenbar 14043
Curtis 14044
oos 14045
verstorbenen 14046
bestritt 14047
Warriors 14048
rieb 14049
cover@@ 14050
kinds 14051
Einkaufs@@ 14052
Konjunktur@@ 14053
fever 14054
Män@@ 14055
gerecht 14056
Diagnose 14057
Franklin 14058
ural 14059
lifting 14060
verdäch@@ 14061
Pferd 14062
duties 14063
Jan 14064
Soleimani 14065
Shop 14066
rot 14067
Halbzeit 14068
Kobe 14069
pound 14070
unions 14071
brauchten 14072
ignoriert 14073
diction 14074
behin@@ 14075
besonderen 14076
NBA-@@ 14077
readers 14078
bst@@ 14079
Through 14080
Assange 14081
rush 14082
regu@@ 14083
Hearts 14084
checked 14085
jung 14086
Interessen@@ 14087
Prot@@ 14088
PPE 14089
punkten 14090
Hob@@ 14091
free@@ 14092
adi@@ 14093
lit 14094
teilung 14095
ctive 14096
erstaunliche 14097
onna 14098
Rebounds 14099
Louise 14100
wünschen 14101
absichtlich 14102
geäußert 14103
Frau@@ 14104
vert 14105
Verhalten@@ 14106
motiv@@ 14107
Around 14108
arguments 14109
Unterzeichnung 14110
intention 14111
soil 14112
versammlung 14113
Produzenten 14114
beruhig@@ 14115
worthy 14116
Periode 14117
Amazon@@ 14118
tödliche 14119
chest 14120
Future 14121
ports 14122
Den 14123
educ@@ 14124
verdoppelt 14125
habit@@ 14126
prechen 14127
gend@@ 14128
gg@@ 14129
dors 14130
lings 14131
longtime 14132
ise@@ 14133
irgendeiner 14134
jährlich 14135
Player 14136
Model 14137
klein 14138
Tem@@ 14139
Schlagzeilen 14140
pension 14141
Stillstand 14142
Patient 14143
Nachbarschaft 14144
Wür@@ 14145
tious 14146
abgel@@ 14147
studied 14148
Offen@@ 14149
200,000 14150
ields 14151
Lagos 14152
eter 14153
Ye@@ 14154
ails 14155
Patt@@ 14156
itime 14157
zerstören 14158
ungewöhn@@ 14159
ollah 14160
nominated 14161
enes 14162
Ide@@ 14163
Gilli@@ 14164
Geschenk 14165
Ton 14166
ousness 14167
Freien 14168
Eisen@@ 14169
rek@@ 14170
zell@@ 14171
Dance 14172
Arbeitslosigkeit 14173
Schwe@@ 14174
hindeutet 14175
Gehalts@@ 14176
Gehir@@ 14177
PGA 14178
englisch 14179
oon 14180
verrück@@ 14181
Fig@@ 14182
izon 14183
classi@@ 14184
chteten 14185
Wells 14186
fted 14187
cans 14188
encies 14189
rah@@ 14190
defined 14191
terung 14192
vielfäl@@ 14193
komplett 14194
instrum@@ 14195
Schwer@@ 14196
Benz@@ 14197
agers 14198
disrup@@ 14199
ique 14200
Prozesses 14201
freundlich 14202
Ägypten 14203
Ferne 14204
eland 14205
landete 14206
Zahn@@ 14207
monum@@ 14208
ND@@ 14209
gled 14210
sprech@@ 14211
vil 14212
dialogue 14213
umzugehen 14214
VE 14215
eröffnen 14216
Anbieter 14217
attitude 14218
Bestes 14219
verkehr 14220
Inneren 14221
fig 14222
ules 14223
jec@@ 14224
outlets 14225
kritisierte 14226
Theat@@ 14227
Buckingham 14228
hair@@ 14229
Direktorin 14230
din 14231
eiden 14232
frau@@ 14233
Kü@@ 14234
gestürzt 14235
löste 14236
eb 14237
Feld@@ 14238
ent-@@ 14239
bowl 14240
weichen 14241
Tradition 14242
prefer 14243
fav@@ 14244
auto@@ 14245
washing 14246
tear 14247
Schicksal 14248
keeper 14249
mandatory 14250
expan@@ 14251
Demonstrationen 14252
thetic 14253
Strate@@ 14254
gericht@@ 14255
Kenn@@ 14256
breathing 14257
Hass@@ 14258
-in-@@ 14259
regeln 14260
Angels 14261
bus@@ 14262
Ginsburg 14263
rums 14264
40-@@ 14265
robu@@ 14266
opped 14267
ichts@@ 14268
Hospit@@ 14269
dlicher 14270
qualität 14271
CR@@ 14272
F. 14273
weithin 14274
cted 14275
Seven 14276
ua 14277
Nicholas 14278
Versammlung 14279
wol@@ 14280
rev@@ 14281
gänge 14282
raus 14283
Umsatz@@ 14284
Vari@@ 14285
Post-@@ 14286
ücke 14287
Volkswirtschaften 14288
night@@ 14289
honour 14290
Frei@@ 14291
Holmes 14292
sauber@@ 14293
favor@@ 14294
wichtigste 14295
erleichtern 14296
somewhat 14297
erhoben 14298
Pep@@ 14299
1st 14300
Offensichtlich 14301
Mes@@ 14302
promoting 14303
Som@@ 14304
Holly 14305
umfangre@@ 14306
beleu@@ 14307
wre@@ 14308
Landwirte 14309
sent@@ 14310
Polizeibeamte 14311
abgebildet 14312
beizu@@ 14313
schluss 14314
ffed 14315
reviewed 14316
direkte 14317
ERA 14318
NC 14319
shelter 14320
Crow@@ 14321
LK@@ 14322
verl@@ 14323
Nasdaq 14324
model@@ 14325
exhibition 14326
itable 14327
lady 14328
unglück@@ 14329
survivors 14330
expression 14331
kochen 14332
liste 14333
räume 14334
grie@@ 14335
fatal 14336
margin 14337
depic@@ 14338
eintreten 14339
suspects 14340
beschränkt 14341
accompanied 14342
Jar@@ 14343
methods 14344
illegale 14345
guar@@ 14346
Quarantäne@@ 14347
Haushalte 14348
ment-@@ 14349
isa 14350
Trends 14351
Ther@@ 14352
Maine 14353
Kongress@@ 14354
Callum 14355
pubs 14356
Australier 14357
Vergewaltigung 14358
fighter 14359
tracing 14360
letting 14361
lessly 14362
Haar@@ 14363
alleg@@ 14364
Heb@@ 14365
Hak@@ 14366
concert 14367
Unterdessen 14368
YORK 14369
sekretär 14370
ppy 14371
fra@@ 14372
olly 14373
celebrity 14374
contains 14375
Bäume 14376
blan@@ 14377
Podcast 14378
cyn@@ 14379
Mittelpunkt 14380
lain 14381
burden 14382
amer@@ 14383
1979 14384
Opfern 14385
speziell 14386
101 14387
rid 14388
hit@@ 14389
aufre@@ 14390
painful 14391
Rebellion 14392
Gelände 14393
krimin@@ 14394
Que@@ 14395
Lern@@ 14396
ologists 14397
Greek 14398
fragten 14399
Vizepräsidenten 14400
gotten 14401
Log@@ 14402
Valent@@ 14403
inzwischen 14404
Streaming-@@ 14405
beschäftigen 14406
Pflicht 14407
orten 14408
halte 14409
laugh 14410
celebrating 14411
ambitious 14412
mob@@ 14413
lian 14414
pris@@ 14415
unity 14416
exclusive 14417
stammen 14418
pati@@ 14419
Hamp@@ 14420
08 14421
Son 14422
Unentschieden 14423
kontrolliert 14424
verfol@@ 14425
Small 14426
admits 14427
GO 14428
Bedürf@@ 14429
Rasse 14430
Bruno 14431
Schiff@@ 14432
Ghana 14433
otic 14434
rom 14435
impacted 14436
mug@@ 14437
Rol@@ 14438
Heart 14439
Kilometer 14440
theat@@ 14441
Gerrard 14442
ult 14443
ardo 14444
Ward 14445
Harper 14446
denden 14447
iste 14448
Assistant 14449
scientist 14450
Kampagnen 14451
consu@@ 14452
Wick@@ 14453
kost@@ 14454
uting 14455
recognise 14456
NA 14457
angemessene 14458
übersch@@ 14459
M.@@ 14460
exact 14461
Rico 14462
Dosen 14463
workforce 14464
erweitert 14465
chil@@ 14466
Liberal 14467
anning 14468
musi@@ 14469
tains 14470
E.@@ 14471
sty@@ 14472
chocolate 14473
itzen 14474
Europas 14475
Georgien 14476
Fab@@ 14477
Unabhän@@ 14478
alia 14479
narrow 14480
tenen 14481
arzt 14482
trainiert 14483
Einwanderungs@@ 14484
deinen 14485
Hafen 14486
speaker 14487
assured 14488
ograph@@ 14489
1986 14490
contin@@ 14491
acti@@ 14492
Legende 14493
Dark 14494
Falle 14495
gesunden 14496
vergeben 14497
vis 14498
abhängig 14499
Foot@@ 14500
oes 14501
Investment 14502
Week@@ 14503
Hoffnungen 14504
Mauer 14505
Ellen 14506
Gesundheitswesen 14507
documented 14508
Zoll 14509
directors 14510
united 14511
thousand 14512
Mountain 14513
verteilt 14514
rah 14515
rekru@@ 14516
bomb 14517
settle 14518
vorläu@@ 14519
Kultur@@ 14520
dokum@@ 14521
stören 14522
height 14523
xed 14524
conclusion 14525
BE@@ 14526
informieren 14527
Knight 14528
tops 14529
Taschen 14530
beabsich@@ 14531
Kerry 14532
Meh@@ 14533
investiert 14534
Industrie@@ 14535
OS 14536
consistently 14537
confi@@ 14538
Zinssätze 14539
unveiled 14540
grades 14541
Les 14542
gestimmt 14543
aktionen 14544
gebnis 14545
Hag@@ 14546
itting 14547
And@@ 14548
Rain@@ 14549
Did 14550
pointing 14551
Englisch 14552
betrieben 14553
upper 14554
Fein@@ 14555
tiefe 14556
treibt 14557
publi@@ 14558
secre@@ 14559
posting 14560
Monica 14561
verabschieden 14562
Geldstrafe 14563
apo@@ 14564
Gemüse 14565
practical 14566
Plat@@ 14567
Link 14568
GM@@ 14569
auton@@ 14570
illo 14571
ownership 14572
Rogers 14573
uch 14574
Part 14575
Clippers 14576
flächen 14577
Om@@ 14578
nervous 14579
üblich 14580
Komödie 14581
Hannah 14582
Präsidenten@@ 14583
bird 14584
empfohlen 14585
Gh@@ 14586
jan 14587
rupt 14588
machines 14589
AP@@ 14590
tar 14591
ückt 14592
doses 14593
surely 14594
ticul@@ 14595
coordin@@ 14596
Milan 14597
Ei@@ 14598
vertritt 14599
versammeln 14600
mandate 14601
Mond 14602
.... 14603
Gren@@ 14604
exam@@ 14605
Asien 14606
stairs 14607
sensor 14608
Flagge 14609
tees 14610
berüch@@ 14611
Repräsent@@ 14612
Kameras 14613
akers 14614
affair 14615
hanging 14616
primarily 14617
subst@@ 14618
Kindes 14619
lockdowns 14620
personality 14621
oli@@ 14622
inging 14623
leh@@ 14624
asha 14625
Netz 14626
structures 14627
Studi@@ 14628
Stro@@ 14629
verlangen 14630
schlag@@ 14631
stattfand 14632
walis@@ 14633
stellvertretender 14634
Joh@@ 14635
har 14636
halbe 14637
Updates 14638
umfassen@@ 14639
Jama@@ 14640
Eigent@@ 14641
kles 14642
anfangen 14643
unexpected 14644
COVID-@@ 14645
Strafverfolgung 14646
Mord@@ 14647
Rande 14648
Ski@@ 14649
Dien@@ 14650
ook 14651
revolution@@ 14652
delighted 14653
Lied 14654
öse 14655
zäh@@ 14656
seized 14657
viel@@ 14658
Robertson 14659
Krieges 14660
plast@@ 14661
articles 14662
Trudeau 14663
demonstr@@ 14664
Until 14665
branch 14666
1990er 14667
tank 14668
neutral 14669
erhältlich 14670
fs@@ 14671
finale 14672
Netherlands 14673
menu 14674
overcome 14675
Griechenland 14676
tn@@ 14677
UP@@ 14678
vegan 14679
deficit 14680
touched 14681
stock@@ 14682
Abtreibung 14683
Duncan 14684
legislat@@ 14685
contribution 14686
deeper 14687
Weit@@ 14688
Extre@@ 14689
jer@@ 14690
Hart 14691
ministerium 14692
Schätzungen 14693
39@@ 14694
abol@@ 14695
gän@@ 14696
Sad@@ 14697
sur 14698
fischen 14699
schwä@@ 14700
jüngere 14701
chains 14702
struggles 14703
prosecution 14704
Polizeibeamten 14705
verwen@@ 14706
mau@@ 14707
Richmond 14708
oa 14709
fixed 14710
Jared 14711
Regel@@ 14712
Martinez 14713
statistics 14714
comparison 14715
konzentrierte 14716
bewus@@ 14717
bestanden 14718
Diskriminierung 14719
adjust@@ 14720
graben 14721
lowing 14722
achtet 14723
processing 14724
gelaufen 14725
müde 14726
ights 14727
ernden 14728
Beratung 14729
erter 14730
Ray@@ 14731
Authorities 14732
sidel@@ 14733
Piers 14734
hou@@ 14735
19-@@ 14736
roll@@ 14737
Clu@@ 14738
gelegenen 14739
einrichtungen 14740
statue 14741
Klub 14742
geld 14743
Justiz 14744
edition 14745
druck@@ 14746
bull@@ 14747
movements 14748
relation 14749
mass@@ 14750
relie@@ 14751
Hack@@ 14752
Order 14753
ard-@@ 14754
WH@@ 14755
Rum@@ 14756
Dow@@ 14757
Pictures 14758
sek@@ 14759
TE 14760
clar@@ 14761
vice-@@ 14762
pfte 14763
alliance 14764
anfällig 14765
usi@@ 14766
Republikanern 14767
dil@@ 14768
competing 14769
Ehem@@ 14770
Mengen 14771
thers 14772
genannte 14773
coaching 14774
inspec@@ 14775
mild 14776
expanding 14777
Übung 14778
Bournemouth 14779
zählt 14780
Lebanon 14781
shaped 14782
Barrel 14783
optimistic 14784
commented 14785
Schulter 14786
cos 14787
Samstagabend 14788
genannten 14789
Melania 14790
lichkeits@@ 14791
salt 14792
Dreh@@ 14793
firing 14794
Reds 14795
Unfall 14796
Slam 14797
Schwangerschaft 14798
17.@@ 14799
vowed 14800
investigated 14801
Medizin 14802
Never 14803
Ethiopia 14804
pulling 14805
dere 14806
vieler 14807
Wunder 14808
Dylan 14809
I.@@ 14810
Trauer 14811
civilians 14812
Websites 14813
pandem@@ 14814
exter@@ 14815
scope 14816
Clip 14817
entscheidende 14818
calcul@@ 14819
fortsch@@ 14820
launching 14821
periods 14822
eo 14823
Cornwall 14824
mind@@ 14825
1970s 14826
sprecher 14827
hinzuzufügen 14828
Pac@@ 14829
auseinander@@ 14830
heim 14831
will@@ 14832
Obama-@@ 14833
ota 14834
entdecken 14835
partisan 14836
Page 14837
mäßige 14838
brown 14839
Wird 14840
citizen 14841
Veteranen 14842
daraus 14843
year-@@ 14844
investing 14845
Wand@@ 14846
Beyond 14847
kit 14848
ema 14849
ime 14850
dreht 14851
Mütter 14852
zahl 14853
genes 14854
encounter 14855
brauche 14856
Kolum@@ 14857
removal 14858
addressing 14859
geführten 14860
reass@@ 14861
Alex@@ 14862
sang 14863
Belästigung 14864
passi@@ 14865
altung 14866
Kenia 14867
Sty@@ 14868
adi 14869
erwiesen 14870
arer 14871
reti@@ 14872
Castro 14873
Kaffee 14874
2-0 14875
bold 14876
entwicklung 14877
Verwirrung 14878
stück 14879
gebung 14880
transparent 14881
Nixon 14882
Lächeln 14883
Anwendung 14884
cardi@@ 14885
oper 14886
hartnäck@@ 14887
Cincinnati 14888
lake 14889
ID 14890
Armen 14891
Arkansas 14892
tionally 14893
Frü@@ 14894
Li 14895
cancel 14896
Pok@@ 14897
Rash@@ 14898
benden 14899
resignation 14900
gramm 14901
lehnen 14902
Hoff@@ 14903
lieferte 14904
Arbeitsplatz 14905
haz@@ 14906
offense 14907
Planung 14908
reise 14909
Death 14910
Port@@ 14911
fläche 14912
sitzung 14913
platziert 14914
Summer 14915
spi@@ 14916
solo 14917
hen@@ 14918
poli@@ 14919
orous 14920
downtown 14921
TR@@ 14922
Illu@@ 14923
Siege 14924
acre 14925
gle 14926
Fame 14927
Dokument 14928
spezifische 14929
itionen 14930
tas 14931
Nutzen 14932
Of@@ 14933
dierung 14934
500,000 14935
paint 14936
urin 14937
assembly 14938
Feuerwehrleute 14939
Sound 14940
D.@@ 14941
doppelt 14942
dents 14943
signature 14944
involves 14945
Commerce 14946
speculation 14947
Briefing 14948
equality 14949
neun@@ 14950
okay 14951
Sachen 14952
prisoners 14953
ausgestattet 14954
Brits 14955
gin@@ 14956
snap 14957
insists 14958
Dau@@ 14959
Wohnungen 14960
Resort 14961
beunruhigend 14962
tender 14963
Methode 14964
mm@@ 14965
sheet 14966
establishment 14967
blei@@ 14968
Nan@@ 14969
1969 14970
fuhren 14971
tom 14972
verg@@ 14973
Walsh 14974
oxygen 14975
lear@@ 14976
Zivilisten 14977
assists 14978
ags 14979
yen 14980
Alice 14981
fiziert 14982
Pop 14983
günst@@ 14984
kontrollen 14985
Warnungen 14986
esa 14987
Samm@@ 14988
Vorher@@ 14989
Them@@ 14990
Display 14991
Kardashian 14992
Abraham 14993
Depression 14994
unteren 14995
mangel@@ 14996
everyday 14997
grünen 14998
kleidung 14999
BT 15000
bruch 15001
Internationalen 15002
anschließ@@ 15003
toxic 15004
Schre@@ 15005
umgeben 15006
inos 15007
grundle@@ 15008
Fried@@ 15009
verwalten 15010
zept@@ 15011
bezeichnen 15012
02 15013
Olivia 15014
Äußerungen 15015
Nutz@@ 15016
submitted 15017
ings@@ 15018
Barri@@ 15019
recognize 15020
colleague 15021
Dig@@ 15022
Lun@@ 15023
regulation 15024
papers 15025
Schnitt 15026
backlash 15027
highlight 15028
CF@@ 15029
Sara 15030
trail 15031
Netanjahu 15032
recognized 15033
Fehlverhalten 15034
trägen 15035
Klassen 15036
Rett@@ 15037
PE@@ 15038
generated 15039
entlich 15040
Fort@@ 15041
drückt 15042
gged 15043
VO@@ 15044
timing 15045
bote 15046
Leo 15047
ance-@@ 15048
clin@@ 15049
surrounded 15050
enthielt 15051
Dw@@ 15052
Gen 15053
Denn 15054
Singapur 15055
Madison 15056
Village 15057
headlines 15058
easing 15059
horses 15060
Gerichts 15061
grab@@ 15062
verkaufte 15063
koh@@ 15064
anerk@@ 15065
Aj@@ 15066
craft 15067
emplo@@ 15068
-Saison 15069
waschen 15070
Inside 15071
schwerwie@@ 15072
Chile 15073
Aufenth@@ 15074
Zucker 15075
nex@@ 15076
light@@ 15077
courage 15078
Bhar@@ 15079
Sinne 15080
mothers 15081
Investig@@ 15082
tha 15083
21@@ 15084
feiert 15085
Nothing 15086
Weltkrieg 15087
unterschiedliche 15088
schäd@@ 15089
Jugendlichen 15090
elektron@@ 15091
Arbeitsplätzen 15092
willst 15093
Obviously 15094
vorherigen 15095
Letzten 15096
Plak@@ 15097
lists 15098
residence 15099
automat@@ 15100
Länge 15101
generate 15102
Eigentümer 15103
villa 15104
kehren 15105
1985 15106
feared 15107
aschen 15108
singen 15109
aufgebaut 15110
Ath@@ 15111
Rodgers 15112
breach 15113
Europ@@ 15114
BB@@ 15115
prev@@ 15116
Fon@@ 15117
Hektar 15118
Mittagessen 15119
damaging 15120
involve 15121
entfer@@ 15122
kits 15123
seven-@@ 15124
aufgehoben 15125
richter 15126
Teheran 15127
Anleger 15128
Außerdem 15129
Dienstagabend 15130
ernsthafte 15131
grundlegende 15132
Leidenschaft 15133
lifetime 15134
geliebt 15135
Chan@@ 15136
convention 15137
definiert 15138
Gunners 15139
Hab@@ 15140
Chand@@ 15141
Inter 15142
hot@@ 15143
Beverly 15144
Lib 15145
minds 15146
conce@@ 15147
finishing 15148
einverstanden 15149
guil@@ 15150
deckt 15151
Pfer@@ 15152
ungsprozess 15153
110 15154
gehörte 15155
Gesichtsmasken 15156
chi@@ 15157
Gesam@@ 15158
bestimm@@ 15159
enne 15160
schrum@@ 15161
Commun@@ 15162
bezieht 15163
Doug 15164
deny 15165
besetz@@ 15166
hydr@@ 15167
sexually 15168
dierten 15169
1000 15170
gefühlt 15171
Terroristen 15172
6,000 15173
Schnee 15174
befürchten 15175
collapsed 15176
niveau 15177
irs 15178
bemerkt 15179
graphic 15180
Ökonomen 15181
verlor@@ 15182
versteht 15183
Anstrengungen 15184
Autorität 15185
DJ 15186
Aufenthalt 15187
Pride 15188
cake 15189
dancing 15190
riskieren 15191
anno@@ 15192
versammelten 15193
Wade 15194
negativen 15195
Gesetzes 15196
Eagles 15197
gall@@ 15198
tags 15199
Prem@@ 15200
20s 15201
revolution 15202
golden 15203
erkannt 15204
triggered 15205
ature 15206
Advis@@ 15207
tta 15208
Piloten 15209
mill@@ 15210
alize 15211
gedreht 15212
Sekretär 15213
verteidigt 15214
Küchen@@ 15215
entschei@@ 15216
Wahr@@ 15217
Bewertungen 15218
ohn 15219
steigern 15220
Carl 15221
glaub@@ 15222
Flüchtlinge 15223
Verfolgung 15224
bathroom 15225
Bewegungen 15226
bun@@ 15227
responses 15228
Zeuge 15229
suspen@@ 15230
tragic 15231
Tha@@ 15232
weitergehen 15233
toilet 15234
niedri@@ 15235
berau@@ 15236
sar@@ 15237
Lebensmitteln 15238
qui 15239
King@@ 15240
riding 15241
lieber 15242
aktiven 15243
baut 15244
Besitz@@ 15245
Lernen 15246
weiten 15247
anischer 15248
sk 15249
Mindest@@ 15250
afro@@ 15251
mitten 15252
Arme@@ 15253
halb@@ 15254
rolle 15255
Störung 15256
Easter 15257
Switzerland 15258
königliche 15259
dopp@@ 15260
ichts 15261
Geschle@@ 15262
atorin 15263
rene@@ 15264
1980er 15265
Conservatives 15266
Kommentaren 15267
Gruppen@@ 15268
arrangements 15269
integrity 15270
Viol@@ 15271
holes 15272
Verpflichtungen 15273
Conor 15274
Vermögenswerte 15275
stopping 15276
Aussichten 15277
derer 15278
zuverlässi@@ 15279
Sli@@ 15280
OnePlus 15281
atoes 15282
aum 15283
Male 15284
Pati@@ 15285
lun@@ 15286
go-@@ 15287
quir@@ 15288
Nase 15289
Reisende 15290
afrikanische 15291
Ding 15292
differently 15293
Arnold 15294
Nacht@@ 15295
Text 15296
neter 15297
handel 15298
Kolon@@ 15299
nehme 15300
hosting 15301
Sno@@ 15302
Schwein@@ 15303
Wann 15304
Christine 15305
Vorjahr 15306
lasting 15307
Commer@@ 15308
präsen@@ 15309
MC@@ 15310
assist@@ 15311
schwarzer 15312
karten 15313
Highway 15314
aspects 15315
angetrieben 15316
75@@ 15317
Verk@@ 15318
Wohlergehen 15319
Einheiten 15320
alising 15321
LGBTQ 15322
Freitagabend 15323
marine 15324
Ronald 15325
Ernennung 15326
fäl@@ 15327
sul@@ 15328
hub 15329
highlights 15330
procedure 15331
Fis@@ 15332
Schnei@@ 15333
thick 15334
Late 15335
etary 15336
meaningful 15337
Hung@@ 15338
warns 15339
04 15340
mie@@ 15341
verwal@@ 15342
ghtly 15343
containing 15344
Schweiz 15345
ellers 15346
schlechter 15347
bares 15348
embr@@ 15349
Brazilian 15350
crossed 15351
auftauchte 15352
Overs 15353
out-@@ 15354
Verzögerungen 15355
prakt@@ 15356
Schande 15357
hundert 15358
Tribut 15359
Rahul 15360
soccer 15361
modern@@ 15362
awa 15363
protocols 15364
Nashville 15365
aired 15366
portfolio 15367
destination 15368
Immobilien 15369
Glück@@ 15370
Queens 15371
verzögert 15372
messen 15373
bid@@ 15374
leichte 15375
bloo@@ 15376
migrant 15377
Wolf 15378
Ebenen 15379
Sl@@ 15380
NR 15381
developments 15382
Fernandes 15383
Kaution 15384
institution 15385
abad 15386
doubled 15387
pern 15388
Kurz@@ 15389
Hinweise 15390
Singer 15391
press@@ 15392
Think 15393
Außenministerium 15394
Heathrow 15395
Trainings@@ 15396
ammer 15397
witnessed 15398
sieg 15399
islam@@ 15400
Privatsphäre 15401
aj 15402
liqu@@ 15403
schreiten 15404
Fron@@ 15405
Schatten 15406
Erlaubnis 15407
steady 15408
gangen 15409
Anfragen 15410
commen@@ 15411
Elemente 15412
Arbeiter@@ 15413
diat@@ 15414
kung 15415
müsste 15416
astro@@ 15417
Dollar-@@ 15418
amer 15419
absor@@ 15420
Raab 15421
till 15422
kick@@ 15423
geschwin@@ 15424
rier@@ 15425
kenne 15426
ius 15427
beaches 15428
restore 15429
yu@@ 15430
aufbauen 15431
Neill 15432
Drew 15433
mte 15434
bed@@ 15435
geschn@@ 15436
nördlichen 15437
ell-@@ 15438
Victor 15439
twit@@ 15440
crow@@ 15441
liest 15442
ga-@@ 15443
violations 15444
6.000 15445
Wein 15446
Chancellor 15447
strengthen 15448
allgemeinen 15449
Verschwörung 15450
quoted 15451
erschwing@@ 15452
ministerin 15453
arbeitern 15454
painting 15455
ranging 15456
Studies 15457
Travel 15458
Owen 15459
Unterschiede 15460
gesundheitlichen 15461
boten 15462
HD 15463
tivity 15464
Erst@@ 15465
Tän@@ 15466
Aqu@@ 15467
som 15468
alise 15469
Weather 15470
eingeladen 15471
chtigkeit 15472
Hugh 15473
Befürchtungen 15474
Alber@@ 15475
tum 15476
Shaw 15477
inspiration 15478
cheese 15479
helicopter 15480
enthüllen 15481
Mac 15482
Light 15483
Shin@@ 15484
diff@@ 15485
disgu@@ 15486
unglaubliche 15487
Kohli 15488
promp@@ 15489
consideration 15490
EP@@ 15491
anwesend 15492
umgesetzt 15493
Komitee 15494
voraus@@ 15495
igung 15496
seeks 15497
Dev@@ 15498
wounded 15499
Exposition 15500
Innov@@ 15501
Tig@@ 15502
entsch@@ 15503
studying 15504
Potter 15505
spur 15506
Entlassung 15507
kil@@ 15508
cryp@@ 15509
CP@@ 15510
Rapper 15511
verlängert 15512
privileg@@ 15513
Jerusalem 15514
Jord@@ 15515
dreams 15516
Ass@@ 15517
fred 15518
Roy@@ 15519
Praktiken 15520
ME 15521
resu@@ 15522
L.@@ 15523
restricted 15524
scher@@ 15525
Mei@@ 15526
TS 15527
Sour@@ 15528
izz@@ 15529
wendet 15530
Punkte-@@ 15531
schreien 15532
nic@@ 15533
cand@@ 15534
silver 15535
Mode@@ 15536
0er 15537
Yard-@@ 15538
11,@@ 15539
verbleibenden 15540
Gerüchte 15541
Dach 15542
half@@ 15543
Schau@@ 15544
arbeitung 15545
überwinden 15546
gien 15547
respiratory 15548
tren@@ 15549
einzigartige 15550
Anru@@ 15551
koreanischen 15552
üblichen 15553
cannabis 15554
geist@@ 15555
Erbe 15556
Tok@@ 15557
jüngeren 15558
One@@ 15559
Jugendliche 15560
Scientists 15561
trauma 15562
shoppers 15563
traten 15564
atmen 15565
beiseite 15566
Tay@@ 15567
cular 15568
Much 15569
setzten 15570
inches 15571
Cymru 15572
Starts 15573
judi@@ 15574
poses 15575
recall 15576
verpflichten 15577
Schiedsrichter 15578
AD 15579
2020-@@ 15580
meist@@ 15581
kus 15582
eta 15583
liger 15584
verstärken 15585
induc@@ 15586
interference 15587
grave 15588
Soviet 15589
occasions 15590
anscheinend 15591
Forces 15592
recommend 15593
mortgage 15594
overwhelming 15595
omed 15596
flowers 15597
Gegenstände 15598
Flücht@@ 15599
äußerte 15600
pin 15601
Auftritte 15602
Finanzen 15603
legitim@@ 15604
secondary 15605
Nachbar@@ 15606
Einwanderung 15607
03 15608
Wolves 15609
versus 15610
mentally 15611
straße 15612
depends 15613
hn@@ 15614
verschlim@@ 15615
simul@@ 15616
universal 15617
präsentiert 15618
hop@@ 15619
brennen 15620
traumat@@ 15621
Stephanie 15622
forschung 15623
Ever@@ 15624
Petition 15625
Match@@ 15626
weltweiten 15627
dor 15628
Drive 15629
Brasili@@ 15630
glob@@ 15631
iff 15632
ßer 15633
schrieben 15634
Nissan 15635
Americ@@ 15636
anticip@@ 15637
lining 15638
Obje@@ 15639
audiences 15640
prosec@@ 15641
Gab@@ 15642
Anleitung 15643
zugelassen 15644
Statistiken 15645
frequent 15646
ppen@@ 15647
mainland 15648
Magic 15649
Fox@@ 15650
bubble 15651
requiring 15652
Churchill 15653
hide 15654
risiko 15655
crossing 15656
betreiben 15657
stopp@@ 15658
durchschnittlichen 15659
Arabischen 15660
Erfol@@ 15661
japanischen 15662
geschäf@@ 15663
segment 15664
invested 15665
Widerstand 15666
weiblichen 15667
shame 15668
Libya 15669
Kern 15670
Buhari 15671
demonstrators 15672
metho@@ 15673
Joel 15674
loy@@ 15675
acquired 15676
Norwich 15677
ior 15678
expenses 15679
contracted 15680
gies 15681
ennen 15682
abzielt 15683
Astros 15684
Securities 15685
recognised 15686
körper@@ 15687
Statue 15688
Jean-@@ 15689
Fau@@ 15690
Gefahren 15691
bour@@ 15692
gert 15693
Sle@@ 15694
Fakten 15695
Bryan 15696
whis@@ 15697
anwalt 15698
Metro 15699
reverse 15700
high-profile 15701
roy@@ 15702
18.@@ 15703
eem 15704
Jinping 15705
fold 15706
ungsan@@ 15707
concrete 15708
Koordin@@ 15709
Ergebnissen 15710
fast-@@ 15711
Conn@@ 15712
Geheimnis 15713
stroke 15714
purchased 15715
disappointing 15716
Staff 15717
Jon@@ 15718
transpor@@ 15719
tedly 15720
opener 15721
Diamond 15722
sport@@ 15723
sicherer 15724
Werbe@@ 15725
Temperatur 15726
zahlungen 15727
rage 15728
dramatisch 15729
Abwesenheit 15730
unced 15731
Stabilität 15732
anen 15733
approve 15734
rin@@ 15735
ories 15736
Wahrscheinlichkeit 15737
sieb@@ 15738
Kampagnen@@ 15739
Inflation 15740
Hun@@ 15741
Redmi 15742
alarm 15743
H.@@ 15744
Lloyd 15745
public@@ 15746
Sharon 15747
travelled 15748
verliert 15749
lust@@ 15750
underway 15751
verwickelt 15752
Situationen 15753
MAX 15754
abzuschließen 15755
interim 15756
conviction 15757
Rishi 15758
1981 15759
Officers 15760
Fla 15761
Pilot 15762
dow 15763
180 15764
screens 15765
membership 15766
devastated 15767
Lizenz@@ 15768
schwarz 15769
Oppositions@@ 15770
krise 15771
tigungs@@ 15772
Vladimir 15773
betro@@ 15774
altern@@ 15775
wee@@ 15776
Russlands 15777
würdige 15778
Journalist 15779
Raz@@ 15780
bestehende 15781
frustrated 15782
Ot@@ 15783
Konzept 15784
Tür@@ 15785
danke 15786
digit@@ 15787
Dead 15788
Brüder 15789
irischen 15790
hte 15791
humanity 15792
RB@@ 15793
Leave 15794
clean@@ 15795
organized 15796
Greg@@ 15797
Verst@@ 15798
1972 15799
breath 15800
explic@@ 15801
gehörten 15802
virtuellen 15803
Polen 15804
Durham 15805
sth@@ 15806
server 15807
govern@@ 15808
compromise 15809
Donnerstagabend 15810
soul 15811
schmerz@@ 15812
opar@@ 15813
Private 15814
casts 15815
labour 15816
Annahme 15817
knocked 15818
embrace 15819
element 15820
diskrimin@@ 15821
Mam@@ 15822
briefly 15823
Set@@ 15824
glu@@ 15825
asting 15826
voranzutreiben 15827
Aufbau 15828
bens 15829
ständen 15830
box@@ 15831
Sängerin 15832
atures 15833
Rut@@ 15834
Einwander@@ 15835
Carl@@ 15836
regulators 15837
schrie 15838
manipu@@ 15839
servation 15840
touchdown 15841
Mali@@ 15842
bacteria 15843
acht@@ 15844
füt@@ 15845
beschäf@@ 15846
hearings 15847
Verwandten 15848
Stei@@ 15849
revel@@ 15850
gestre@@ 15851
struktur 15852
ope 15853
Pend@@ 15854
fix@@ 15855
aufgeführt 15856
Sox 15857
sions@@ 15858
aven@@ 15859
extrem@@ 15860
bewe@@ 15861
kommentierte 15862
beinhalten 15863
breast 15864
entitled 15865
abs 15866
Unlike 15867
subsequent 15868
rechnung 15869
dramatically 15870
kurz@@ 15871
psychiat@@ 15872
stap@@ 15873
neighbours 15874
AR 15875
Erzählung 15876
ansehen 15877
ober@@ 15878
erial 15879
Andre 15880
frustration 15881
existence 15882
Visier 15883
cha@@ 15884
gendes 15885
Brücke 15886
Kompromis@@ 15887
Konsul@@ 15888
creates 15889
anstre@@ 15890
assu@@ 15891
opho@@ 15892
respektieren 15893
voy 15894
affir@@ 15895
boxing 15896
formally 15897
outcomes 15898
Unterhaus 15899
unterwegs 15900
Meer@@ 15901
freund@@ 15902
legislative 15903
thes@@ 15904
fined 15905
safe@@ 15906
carries 15907
bottles 15908
booked 15909
schluss@@ 15910
hörten 15911
privat 15912
genuine 15913
gekleidet 15914
streng@@ 15915
bequem 15916
gewicht 15917
anrufen 15918
160 15919
master@@ 15920
contacts 15921
Rory 15922
verstoßen 15923
real-@@ 15924
geführte 15925
49ers 15926
mainstream 15927
praise 15928
geord@@ 15929
Primär@@ 15930
Got 15931
butter 15932
ktor 15933
Löhne 15934
atter@@ 15935
lashed 15936
loving 15937
entschuldigen 15938
holder 15939
Rettung 15940
komple@@ 15941
weird 15942
strategies 15943
Wähler@@ 15944
Verdächtige 15945
fod 15946
loads 15947
ji@@ 15948
intent 15949
Butler 15950
storms 15951
inequality 15952
RE 15953
Bry@@ 15954
sick@@ 15955
Eng@@ 15956
patterns 15957
Trin@@ 15958
breiten 15959
contributions 15960
rierten 15961
Stal@@ 15962
Mario 15963
Griff 15964
trick 15965
steel 15966
Haben 15967
Clas@@ 15968
CCTV 15969
teenage 15970
Autorin 15971
NT 15972
diesjährigen 15973
Disne@@ 15974
auszus@@ 15975
opper 15976
arrests 15977
flew 15978
schreck@@ 15979
Gir@@ 15980
Strafen 15981
Industri@@ 15982
dys@@ 15983
Hut@@ 15984
Dog@@ 15985
weile 15986
Silicon 15987
Hudson 15988
zene 15989
streak 15990
behand@@ 15991
kathol@@ 15992
Organisatoren 15993
Secret 15994
anch@@ 15995
Afghan 15996
lia 15997
Opposition@@ 15998
Schlag@@ 15999
Foster 16000
sinn 16001
kill@@ 16002
Junior 16003
aufstre@@ 16004
Crick@@ 16005
Final 16006
volat@@ 16007
rats 16008
steam 16009
Einmischung 16010
rises 16011
Angeklagten 16012
Proz@@ 16013
monds 16014
Dynamik 16015
gepl@@ 16016
posten 16017
Flut 16018
fault 16019
Proben 16020
weis 16021
sicherte 16022
answered 16023
bedeckt 16024
Stein 16025
vorbereiten 16026
agern 16027
WA 16028
reviews 16029
Lynch 16030
Brendan 16031
jeg@@ 16032
wechsel@@ 16033
admit 16034
1975 16035
nur@@ 16036
ppers 16037
[...]
